{
  "version": "1.0",
  "truncation": null,
  "padding": null,
  "added_tokens": [
    {
      "id": 0,
      "content": "<PAD>",
      "single_word": false,
      "lstrip": false,
      "rstrip": false,
      "normalized": false,
      "special": true
    },
    {
      "id": 1,
      "content": "<UNK>",
      "single_word": false,
      "lstrip": false,
      "rstrip": false,
      "normalized": false,
      "special": true
    },
    {
      "id": 2,
      "content": "<BOS>",
      "single_word": false,
      "lstrip": false,
      "rstrip": false,
      "normalized": false,
      "special": true
    },
    {
      "id": 3,
      "content": "<EOS>",
      "single_word": false,
      "lstrip": false,
      "rstrip": false,
      "normalized": false,
      "special": true
    }
  ],
  "normalizer": null,
  "pre_tokenizer": {
    "type": "Whitespace"
  },
  "post_processor": null,
  "decoder": {
    "type": "BPEDecoder",
    "suffix": "</w>"
  },
  "model": {
    "type": "BPE",
    "dropout": null,
    "unk_token": "<UNK>",
    "continuing_subword_prefix": null,
    "end_of_word_suffix": null,
    "fuse_unk": false,
    "byte_fallback": false,
    "ignore_merges": false,
    "vocab": {
      "<PAD>": 0,
      "<UNK>": 1,
      "<BOS>": 2,
      "<EOS>": 3,
      "!": 4,
      "\"": 5,
      "#": 6,
      "$": 7,
      "%": 8,
      "&": 9,
      "'": 10,
      "(": 11,
      ")": 12,
      "*": 13,
      "+": 14,
      ",": 15,
      "-": 16,
      ".": 17,
      "/": 18,
      "0": 19,
      "1": 20,
      "2": 21,
      "3": 22,
      "4": 23,
      "5": 24,
      "6": 25,
      "7": 26,
      "8": 27,
      "9": 28,
      ":": 29,
      ";": 30,
      "<": 31,
      "=": 32,
      ">": 33,
      "?": 34,
      "@": 35,
      "A": 36,
      "B": 37,
      "C": 38,
      "D": 39,
      "E": 40,
      "F": 41,
      "G": 42,
      "H": 43,
      "I": 44,
      "J": 45,
      "K": 46,
      "L": 47,
      "M": 48,
      "N": 49,
      "O": 50,
      "P": 51,
      "Q": 52,
      "R": 53,
      "S": 54,
      "T": 55,
      "U": 56,
      "V": 57,
      "W": 58,
      "X": 59,
      "Y": 60,
      "Z": 61,
      "[": 62,
      "\\": 63,
      "]": 64,
      "^": 65,
      "_": 66,
      "`": 67,
      "a": 68,
      "b": 69,
      "c": 70,
      "d": 71,
      "e": 72,
      "f": 73,
      "g": 74,
      "h": 75,
      "i": 76,
      "j": 77,
      "k": 78,
      "l": 79,
      "m": 80,
      "n": 81,
      "o": 82,
      "p": 83,
      "q": 84,
      "r": 85,
      "s": 86,
      "t": 87,
      "u": 88,
      "v": 89,
      "w": 90,
      "x": 91,
      "y": 92,
      "z": 93,
      "{": 94,
      "|": 95,
      "}": 96,
      "~": 97,
      "": 98,
      "": 99,
      "": 100,
      "¡": 101,
      "¢": 102,
      "£": 103,
      "¤": 104,
      "¥": 105,
      "¦": 106,
      "§": 107,
      "¨": 108,
      "©": 109,
      "ª": 110,
      "«": 111,
      "¬": 112,
      "­": 113,
      "®": 114,
      "¯": 115,
      "°": 116,
      "±": 117,
      "²": 118,
      "³": 119,
      "´": 120,
      "µ": 121,
      "¶": 122,
      "·": 123,
      "¸": 124,
      "¹": 125,
      "º": 126,
      "»": 127,
      "¼": 128,
      "½": 129,
      "¾": 130,
      "¿": 131,
      "À": 132,
      "Á": 133,
      "Â": 134,
      "Ã": 135,
      "Ä": 136,
      "Å": 137,
      "Æ": 138,
      "Ç": 139,
      "È": 140,
      "É": 141,
      "Ê": 142,
      "Ë": 143,
      "Ì": 144,
      "Í": 145,
      "Î": 146,
      "Ï": 147,
      "Ð": 148,
      "Ñ": 149,
      "Ó": 150,
      "Ô": 151,
      "Ö": 152,
      "×": 153,
      "Ø": 154,
      "Ù": 155,
      "Ú": 156,
      "Û": 157,
      "Ü": 158,
      "Ý": 159,
      "ß": 160,
      "à": 161,
      "á": 162,
      "â": 163,
      "ã": 164,
      "ä": 165,
      "å": 166,
      "æ": 167,
      "ç": 168,
      "è": 169,
      "é": 170,
      "ê": 171,
      "ë": 172,
      "ì": 173,
      "í": 174,
      "î": 175,
      "ï": 176,
      "ð": 177,
      "ñ": 178,
      "ò": 179,
      "ó": 180,
      "ô": 181,
      "õ": 182,
      "ö": 183,
      "÷": 184,
      "ø": 185,
      "ù": 186,
      "ú": 187,
      "û": 188,
      "ü": 189,
      "ý": 190,
      "þ": 191,
      "ÿ": 192,
      "Ā": 193,
      "ā": 194,
      "ă": 195,
      "ą": 196,
      "ć": 197,
      "Č": 198,
      "č": 199,
      "ď": 200,
      "Đ": 201,
      "đ": 202,
      "Ē": 203,
      "ē": 204,
      "Ĕ": 205,
      "ĕ": 206,
      "ė": 207,
      "ę": 208,
      "ě": 209,
      "ğ": 210,
      "Ġ": 211,
      "ġ": 212,
      "ģ": 213,
      "ħ": 214,
      "ĩ": 215,
      "Ī": 216,
      "ī": 217,
      "ĭ": 218,
      "İ": 219,
      "ı": 220,
      "ļ": 221,
      "Ł": 222,
      "ł": 223,
      "ń": 224,
      "ņ": 225,
      "ň": 226,
      "ŋ": 227,
      "Ō": 228,
      "ō": 229,
      "ŏ": 230,
      "ő": 231,
      "Œ": 232,
      "œ": 233,
      "Ř": 234,
      "ř": 235,
      "Ś": 236,
      "ś": 237,
      "Ŝ": 238,
      "Ş": 239,
      "ş": 240,
      "Š": 241,
      "š": 242,
      "ţ": 243,
      "ũ": 244,
      "ū": 245,
      "ŭ": 246,
      "ů": 247,
      "ų": 248,
      "ŷ": 249,
      "Ÿ": 250,
      "ź": 251,
      "Ż": 252,
      "ż": 253,
      "Ž": 254,
      "ž": 255,
      "ſ": 256,
      "ƒ": 257,
      "ơ": 258,
      "ư": 259,
      "ǁ": 260,
      "ǂ": 261,
      "ǃ": 262,
      "ǎ": 263,
      "ǐ": 264,
      "ǒ": 265,
      "ǔ": 266,
      "ǚ": 267,
      "ǝ": 268,
      "ǣ": 269,
      "ǥ": 270,
      "ǧ": 271,
      "ǫ": 272,
      "ǵ": 273,
      "ǽ": 274,
      "ș": 275,
      "ț": 276,
      "ȝ": 277,
      "Ȟ": 278,
      "ȟ": 279,
      "ȯ": 280,
      "ȳ": 281,
      "ȷ": 282,
      "ɐ": 283,
      "ɑ": 284,
      "ɒ": 285,
      "ɓ": 286,
      "ɔ": 287,
      "ɕ": 288,
      "ɖ": 289,
      "ɗ": 290,
      "ɘ": 291,
      "ə": 292,
      "ɚ": 293,
      "ɛ": 294,
      "ɜ": 295,
      "ɞ": 296,
      "ɟ": 297,
      "ɡ": 298,
      "ɢ": 299,
      "ɣ": 300,
      "ɤ": 301,
      "ɥ": 302,
      "ɦ": 303,
      "ɧ": 304,
      "ɨ": 305,
      "ɪ": 306,
      "ɫ": 307,
      "ɬ": 308,
      "ɭ": 309,
      "ɯ": 310,
      "ɱ": 311,
      "ɲ": 312,
      "ɳ": 313,
      "ɴ": 314,
      "ɵ": 315,
      "ɶ": 316,
      "ɸ": 317,
      "ɹ": 318,
      "ɺ": 319,
      "ɻ": 320,
      "ɽ": 321,
      "ɾ": 322,
      "ʀ": 323,
      "ʁ": 324,
      "ʂ": 325,
      "ʃ": 326,
      "ʇ": 327,
      "ʈ": 328,
      "ʉ": 329,
      "ʊ": 330,
      "ʋ": 331,
      "ʌ": 332,
      "ʍ": 333,
      "ʎ": 334,
      "ʏ": 335,
      "ʐ": 336,
      "ʑ": 337,
      "ʒ": 338,
      "ʔ": 339,
      "ʕ": 340,
      "ʙ": 341,
      "ʜ": 342,
      "ʝ": 343,
      "ʤ": 344,
      "ʦ": 345,
      "ʧ": 346,
      "ʰ": 347,
      "ʱ": 348,
      "ʲ": 349,
      "ʷ": 350,
      "ʹ": 351,
      "ʺ": 352,
      "ʻ": 353,
      "ʼ": 354,
      "ʾ": 355,
      "ʿ": 356,
      "ˀ": 357,
      "ˆ": 358,
      "ˈ": 359,
      "ˌ": 360,
      "ː": 361,
      "ˑ": 362,
      "˜": 363,
      "ˠ": 364,
      "ˡ": 365,
      "ˣ": 366,
      "ˤ": 367,
      "˧": 368,
      "˨": 369,
      "˩": 370,
      "̀": 371,
      "́": 372,
      "̂": 373,
      "̃": 374,
      "̄": 375,
      "̈": 376,
      "̌": 377,
      "̓": 378,
      "̚": 379,
      "̞": 380,
      "̤": 381,
      "̥": 382,
      "̧": 383,
      "̩": 384,
      "̪": 385,
      "̯": 386,
      "̰": 387,
      "̱": 388,
      "̺": 389,
      "̻": 390,
      "͈": 391,
      "͜": 392,
      "͡": 393,
      "΄": 394,
      "Ό": 395,
      "Ύ": 396,
      "ΐ": 397,
      "Α": 398,
      "Β": 399,
      "Γ": 400,
      "Δ": 401,
      "Ε": 402,
      "Ζ": 403,
      "Η": 404,
      "Θ": 405,
      "Ι": 406,
      "Κ": 407,
      "Λ": 408,
      "Μ": 409,
      "Ν": 410,
      "Ο": 411,
      "Π": 412,
      "Σ": 413,
      "Τ": 414,
      "Υ": 415,
      "Φ": 416,
      "Χ": 417,
      "Ψ": 418,
      "Ω": 419,
      "ά": 420,
      "έ": 421,
      "ή": 422,
      "ί": 423,
      "α": 424,
      "β": 425,
      "γ": 426,
      "δ": 427,
      "ε": 428,
      "ζ": 429,
      "η": 430,
      "θ": 431,
      "ι": 432,
      "κ": 433,
      "λ": 434,
      "μ": 435,
      "ν": 436,
      "ξ": 437,
      "ο": 438,
      "π": 439,
      "ρ": 440,
      "ς": 441,
      "σ": 442,
      "τ": 443,
      "υ": 444,
      "φ": 445,
      "χ": 446,
      "ψ": 447,
      "ω": 448,
      "ϊ": 449,
      "ό": 450,
      "ύ": 451,
      "ώ": 452,
      "ϩ": 453,
      "ϫ": 454,
      "ϯ": 455,
      "А": 456,
      "Б": 457,
      "В": 458,
      "Г": 459,
      "Д": 460,
      "Е": 461,
      "Ж": 462,
      "З": 463,
      "И": 464,
      "К": 465,
      "Л": 466,
      "М": 467,
      "Н": 468,
      "О": 469,
      "П": 470,
      "Р": 471,
      "С": 472,
      "Т": 473,
      "У": 474,
      "Ф": 475,
      "Х": 476,
      "Ц": 477,
      "Ч": 478,
      "Ш": 479,
      "Щ": 480,
      "Э": 481,
      "Ю": 482,
      "Я": 483,
      "а": 484,
      "б": 485,
      "в": 486,
      "г": 487,
      "д": 488,
      "е": 489,
      "ж": 490,
      "з": 491,
      "и": 492,
      "й": 493,
      "к": 494,
      "л": 495,
      "м": 496,
      "н": 497,
      "о": 498,
      "п": 499,
      "р": 500,
      "с": 501,
      "т": 502,
      "у": 503,
      "ф": 504,
      "х": 505,
      "ц": 506,
      "ч": 507,
      "ш": 508,
      "щ": 509,
      "ъ": 510,
      "ы": 511,
      "ь": 512,
      "э": 513,
      "ю": 514,
      "я": 515,
      "ё": 516,
      "є": 517,
      "і": 518,
      "ї": 519,
      "ј": 520,
      "ѣ": 521,
      "ѧ": 522,
      "ѳ": 523,
      "ѷ": 524,
      "ѹ": 525,
      "ҍ": 526,
      "ғ": 527,
      "ҙ": 528,
      "Қ": 529,
      "қ": 530,
      "Ӏ": 531,
      "ә": 532,
      "Ө": 533,
      "ө": 534,
      "Թ": 535,
      "Ծ": 536,
      "Հ": 537,
      "Մ": 538,
      "Ս": 539,
      "ա": 540,
      "բ": 541,
      "դ": 542,
      "ե": 543,
      "զ": 544,
      "թ": 545,
      "ժ": 546,
      "ի": 547,
      "լ": 548,
      "կ": 549,
      "ճ": 550,
      "մ": 551,
      "յ": 552,
      "ն": 553,
      "ո": 554,
      "պ": 555,
      "ռ": 556,
      "ս": 557,
      "վ": 558,
      "տ": 559,
      "ր": 560,
      "ւ": 561,
      "ք": 562,
      "֫": 563,
      "ְ": 564,
      "ֱ": 565,
      "ֲ": 566,
      "ֳ": 567,
      "ִ": 568,
      "ֵ": 569,
      "ֶ": 570,
      "ַ": 571,
      "ָ": 572,
      "ֹ": 573,
      "ֻ": 574,
      "ּ": 575,
      "־": 576,
      "ֿ": 577,
      "ׁ": 578,
      "ׂ": 579,
      "ׄ": 580,
      "א": 581,
      "ב": 582,
      "ג": 583,
      "ד": 584,
      "ה": 585,
      "ו": 586,
      "ז": 587,
      "ח": 588,
      "ט": 589,
      "י": 590,
      "ך": 591,
      "כ": 592,
      "ל": 593,
      "ם": 594,
      "מ": 595,
      "ן": 596,
      "נ": 597,
      "ס": 598,
      "ע": 599,
      "ף": 600,
      "פ": 601,
      "ץ": 602,
      "צ": 603,
      "ק": 604,
      "ר": 605,
      "ש": 606,
      "ת": 607,
      "״": 608,
      "ؑ": 609,
      "ء": 610,
      "آ": 611,
      "أ": 612,
      "ؤ": 613,
      "إ": 614,
      "ئ": 615,
      "ا": 616,
      "ب": 617,
      "ة": 618,
      "ت": 619,
      "ث": 620,
      "ج": 621,
      "ح": 622,
      "خ": 623,
      "د": 624,
      "ذ": 625,
      "ر": 626,
      "ز": 627,
      "س": 628,
      "ش": 629,
      "ص": 630,
      "ض": 631,
      "ط": 632,
      "ظ": 633,
      "ع": 634,
      "غ": 635,
      "ـ": 636,
      "ف": 637,
      "ق": 638,
      "ك": 639,
      "ل": 640,
      "م": 641,
      "ن": 642,
      "ه": 643,
      "و": 644,
      "ى": 645,
      "ي": 646,
      "ً": 647,
      "ٍ": 648,
      "َ": 649,
      "ُ": 650,
      "ِ": 651,
      "ّ": 652,
      "ْ": 653,
      "٦": 654,
      "ٰ": 655,
      "ٱ": 656,
      "ٹ": 657,
      "ٽ": 658,
      "پ": 659,
      "ڀ": 660,
      "چ": 661,
      "ڈ": 662,
      "ڌ": 663,
      "ڑ": 664,
      "ڙ": 665,
      "ک": 666,
      "ڪ": 667,
      "ڬ": 668,
      "گ": 669,
      "ں": 670,
      "ھ": 671,
      "ہ": 672,
      "ۂ": 673,
      "ۆ": 674,
      "ۇ": 675,
      "ی": 676,
      "ۍ": 677,
      "ے": 678,
      "ە": 679,
      "۱": 680,
      "۷": 681,
      "۹": 682,
      "ܐ": 683,
      "ܓ": 684,
      "ܕ": 685,
      "ܗ": 686,
      "ܘ": 687,
      "ܙ": 688,
      "ܛ": 689,
      "ܝ": 690,
      "ܟ": 691,
      "ܠ": 692,
      "ܡ": 693,
      "ܢ": 694,
      "ܣ": 695,
      "ܥ": 696,
      "ܦ": 697,
      "ܪ": 698,
      "ܫ": 699,
      "ܬ": 700,
      "ܵ": 701,
      "ܸ": 702,
      "ܹ": 703,
      "ܿ": 704,
      "݁": 705,
      "݂": 706,
      "ހ": 707,
      "ރ": 708,
      "ބ": 709,
      "އ": 710,
      "ވ": 711,
      "މ": 712,
      "ދ": 713,
      "ގ": 714,
      "ސ": 715,
      "ޔ": 716,
      "ޖ": 717,
      "ަ": 718,
      "ާ": 719,
      "ި": 720,
      "ު": 721,
      "ޫ": 722,
      "ެ": 723,
      "ޭ": 724,
      "ް": 725,
      "ࠁ": 726,
      "ࠉ": 727,
      "ࠌ": 728,
      "ࠍ": 729,
      "ँ": 730,
      "ं": 731,
      "ः": 732,
      "अ": 733,
      "आ": 734,
      "इ": 735,
      "ई": 736,
      "उ": 737,
      "ए": 738,
      "ऐ": 739,
      "ऑ": 740,
      "औ": 741,
      "क": 742,
      "ख": 743,
      "ग": 744,
      "घ": 745,
      "ङ": 746,
      "च": 747,
      "छ": 748,
      "ज": 749,
      "झ": 750,
      "ञ": 751,
      "ट": 752,
      "ड": 753,
      "ढ": 754,
      "ण": 755,
      "त": 756,
      "थ": 757,
      "द": 758,
      "ध": 759,
      "न": 760,
      "प": 761,
      "फ": 762,
      "ब": 763,
      "भ": 764,
      "म": 765,
      "य": 766,
      "र": 767,
      "ल": 768,
      "ळ": 769,
      "व": 770,
      "श": 771,
      "ष": 772,
      "स": 773,
      "ह": 774,
      "़": 775,
      "ऽ": 776,
      "ा": 777,
      "ि": 778,
      "ी": 779,
      "ु": 780,
      "ू": 781,
      "ृ": 782,
      "े": 783,
      "ै": 784,
      "ो": 785,
      "ौ": 786,
      "्": 787,
      "ॐ": 788,
      "।": 789,
      "०": 790,
      "२": 791,
      "५": 792,
      "७": 793,
      "ঁ": 794,
      "ং": 795,
      "অ": 796,
      "আ": 797,
      "এ": 798,
      "ক": 799,
      "খ": 800,
      "গ": 801,
      "ঘ": 802,
      "ঙ": 803,
      "চ": 804,
      "ছ": 805,
      "জ": 806,
      "ট": 807,
      "ঠ": 808,
      "ণ": 809,
      "ত": 810,
      "থ": 811,
      "দ": 812,
      "ধ": 813,
      "ন": 814,
      "প": 815,
      "ফ": 816,
      "ব": 817,
      "ভ": 818,
      "ম": 819,
      "য": 820,
      "র": 821,
      "ল": 822,
      "শ": 823,
      "ষ": 824,
      "স": 825,
      "হ": 826,
      "়": 827,
      "া": 828,
      "ি": 829,
      "ী": 830,
      "ু": 831,
      "ে": 832,
      "ো": 833,
      "্": 834,
      "ৰ": 835,
      "ৱ": 836,
      "ਅ": 837,
      "ਆ": 838,
      "ਕ": 839,
      "ਖ": 840,
      "ਗ": 841,
      "ਘ": 842,
      "ਜ": 843,
      "ਟ": 844,
      "ਣ": 845,
      "ਤ": 846,
      "ਦ": 847,
      "ਧ": 848,
      "ਨ": 849,
      "ਪ": 850,
      "ਬ": 851,
      "ਭ": 852,
      "ਮ": 853,
      "ਰ": 854,
      "ਲ": 855,
      "ਵ": 856,
      "ਸ": 857,
      "ਹ": 858,
      "਼": 859,
      "ਾ": 860,
      "ਿ": 861,
      "ੀ": 862,
      "ੁ": 863,
      "ੋ": 864,
      "ੰ": 865,
      "ੱ": 866,
      "ં": 867,
      "અ": 868,
      "ઈ": 869,
      "ક": 870,
      "ગ": 871,
      "ચ": 872,
      "છ": 873,
      "ડ": 874,
      "દ": 875,
      "ન": 876,
      "બ": 877,
      "મ": 878,
      "ર": 879,
      "લ": 880,
      "ળ": 881,
      "વ": 882,
      "શ": 883,
      "સ": 884,
      "ા": 885,
      "િ": 886,
      "ી": 887,
      "ુ": 888,
      "ે": 889,
      "ଉ": 890,
      "କ": 891,
      "ଗ": 892,
      "ଜ": 893,
      "ଣ": 894,
      "ତ": 895,
      "ଦ": 896,
      "ଧ": 897,
      "ନ": 898,
      "ପ": 899,
      "ବ": 900,
      "ର": 901,
      "ଳ": 902,
      "ଷ": 903,
      "ା": 904,
      "ି": 905,
      "ୀ": 906,
      "େ": 907,
      "୍": 908,
      "ୟ": 909,
      "அ": 910,
      "ஆ": 911,
      "இ": 912,
      "ஈ": 913,
      "க": 914,
      "ங": 915,
      "ச": 916,
      "ஜ": 917,
      "ட": 918,
      "ண": 919,
      "த": 920,
      "ந": 921,
      "ன": 922,
      "ப": 923,
      "ம": 924,
      "ய": 925,
      "ர": 926,
      "ற": 927,
      "ல": 928,
      "ள": 929,
      "ழ": 930,
      "வ": 931,
      "ஷ": 932,
      "ஸ": 933,
      "ா": 934,
      "ி": 935,
      "ீ": 936,
      "ு": 937,
      "ூ": 938,
      "ெ": 939,
      "ே": 940,
      "ை": 941,
      "ொ": 942,
      "ோ": 943,
      "்": 944,
      "ం": 945,
      "క": 946,
      "గ": 947,
      "చ": 948,
      "ట": 949,
      "డ": 950,
      "ణ": 951,
      "త": 952,
      "ద": 953,
      "ప": 954,
      "ఫ": 955,
      "మ": 956,
      "య": 957,
      "ర": 958,
      "ల": 959,
      "ళ": 960,
      "వ": 961,
      "స": 962,
      "హ": 963,
      "ా": 964,
      "ి": 965,
      "ీ": 966,
      "ు": 967,
      "ె": 968,
      "ే": 969,
      "ో": 970,
      "్": 971,
      "ಂ": 972,
      "ಆ": 973,
      "ಕ": 974,
      "ಗ": 975,
      "ಟ": 976,
      "ಡ": 977,
      "ಣ": 978,
      "ತ": 979,
      "ದ": 980,
      "ನ": 981,
      "ಪ": 982,
      "ಬ": 983,
      "ಭ": 984,
      "ಯ": 985,
      "ರ": 986,
      "ಲ": 987,
      "ಳ": 988,
      "ವ": 989,
      "ಶ": 990,
      "ಷ": 991,
      "ಸ": 992,
      "ಹ": 993,
      "ಾ": 994,
      "ಿ": 995,
      "ೀ": 996,
      "ು": 997,
      "ೆ": 998,
      "ೇ": 999,
      "ೊ": 1000,
      "ೋ": 1001,
      "್": 1002,
      "೨": 1003,
      "ആ": 1004,
      "ക": 1005,
      "ഗ": 1006,
      "ജ": 1007,
      "ട": 1008,
      "ണ": 1009,
      "ത": 1010,
      "ഥ": 1011,
      "ദ": 1012,
      "ന": 1013,
      "പ": 1014,
      "മ": 1015,
      "യ": 1016,
      "ര": 1017,
      "ല": 1018,
      "ള": 1019,
      "വ": 1020,
      "ശ": 1021,
      "ാ": 1022,
      "ി": 1023,
      "ീ": 1024,
      "ു": 1025,
      "െ": 1026,
      "ോ": 1027,
      "്": 1028,
      "ං": 1029,
      "ක": 1030,
      "ජ": 1031,
      "ඩ": 1032,
      "ණ": 1033,
      "ත": 1034,
      "ද": 1035,
      "ධ": 1036,
      "න": 1037,
      "ප": 1038,
      "බ": 1039,
      "ම": 1040,
      "ඹ": 1041,
      "ය": 1042,
      "ර": 1043,
      "ල": 1044,
      "ව": 1045,
      "ශ": 1046,
      "ස": 1047,
      "ළ": 1048,
      "්": 1049,
      "ා": 1050,
      "ි": 1051,
      "ී": 1052,
      "ු": 1053,
      "ේ": 1054,
      "ො": 1055,
      "ෝ": 1056,
      "ก": 1057,
      "ค": 1058,
      "ง": 1059,
      "จ": 1060,
      "ช": 1061,
      "ญ": 1062,
      "ต": 1063,
      "ท": 1064,
      "น": 1065,
      "บ": 1066,
      "พ": 1067,
      "ม": 1068,
      "ย": 1069,
      "ร": 1070,
      "ล": 1071,
      "ศ": 1072,
      "ส": 1073,
      "ห": 1074,
      "อ": 1075,
      "ะ": 1076,
      "า": 1077,
      "ำ": 1078,
      "ี": 1079,
      "ุ": 1080,
      "ู": 1081,
      "เ": 1082,
      "แ": 1083,
      "็": 1084,
      "่": 1085,
      "้": 1086,
      "์": 1087,
      "ກ": 1088,
      "ງ": 1089,
      "ຊ": 1090,
      "ດ": 1091,
      "ຕ": 1092,
      "ທ": 1093,
      "ນ": 1094,
      "ປ": 1095,
      "ພ": 1096,
      "ລ": 1097,
      "ວ": 1098,
      "ສ": 1099,
      "ຫ": 1100,
      "ະ": 1101,
      "ັ": 1102,
      "າ": 1103,
      "ິ": 1104,
      "ົ": 1105,
      "ໄ": 1106,
      "່": 1107,
      "་": 1108,
      "།": 1109,
      "ཀ": 1110,
      "ཁ": 1111,
      "ག": 1112,
      "ང": 1113,
      "ཇ": 1114,
      "ཏ": 1115,
      "ཐ": 1116,
      "ད": 1117,
      "པ": 1118,
      "ཕ": 1119,
      "བ": 1120,
      "མ": 1121,
      "འ": 1122,
      "ཡ": 1123,
      "ར": 1124,
      "ལ": 1125,
      "ས": 1126,
      "ུ": 1127,
      "ེ": 1128,
      "ོ": 1129,
      "ྒ": 1130,
      "ྔ": 1131,
      "ྡ": 1132,
      "ྣ": 1133,
      "ྱ": 1134,
      "ྲ": 1135,
      "ླ": 1136,
      "က": 1137,
      "ဂ": 1138,
      "င": 1139,
      "စ": 1140,
      "တ": 1141,
      "ထ": 1142,
      "ဒ": 1143,
      "န": 1144,
      "ပ": 1145,
      "မ": 1146,
      "ယ": 1147,
      "ရ": 1148,
      "လ": 1149,
      "သ": 1150,
      "အ": 1151,
      "ာ": 1152,
      "ိ": 1153,
      "ု": 1154,
      "ဲ": 1155,
      "့": 1156,
      "္": 1157,
      "်": 1158,
      "ြ": 1159,
      "ှ": 1160,
      "ა": 1161,
      "ბ": 1162,
      "ე": 1163,
      "ვ": 1164,
      "ზ": 1165,
      "თ": 1166,
      "ი": 1167,
      "ლ": 1168,
      "ნ": 1169,
      "ო": 1170,
      "რ": 1171,
      "ს": 1172,
      "უ": 1173,
      "ქ": 1174,
      "ላ": 1175,
      "ል": 1176,
      "መ": 1177,
      "ማ": 1178,
      "ራ": 1179,
      "ር": 1180,
      "ሰ": 1181,
      "ቁ": 1182,
      "ቅ": 1183,
      "ባ": 1184,
      "ት": 1185,
      "ን": 1186,
      "ኢ": 1187,
      "ኤ": 1188,
      "ከ": 1189,
      "ዓ": 1190,
      "የ": 1191,
      "ያ": 1192,
      "ይ": 1193,
      "ዮ": 1194,
      "ደ": 1195,
      "ዴ": 1196,
      "ጥ": 1197,
      "ጵ": 1198,
      "ጼ": 1199,
      "Ꭰ": 1200,
      "Ꭹ": 1201,
      "Ꮃ": 1202,
      "Ꮒ": 1203,
      "Ꮳ": 1204,
      "Ꮻ": 1205,
      "Ꮿ": 1206,
      "Ᏼ": 1207,
      "ᐁ": 1208,
      "ᑦ": 1209,
      "ᑭ": 1210,
      "ᑲ": 1211,
      "ᒉ": 1212,
      "ᒣ": 1213,
      "ᓄ": 1214,
      "ᓇ": 1215,
      "ᕗ": 1216,
      "ᜉ": 1217,
      "ᜎ": 1218,
      "ᜓ": 1219,
      "ក": 1220,
      "គ": 1221,
      "ង": 1222,
      "ច": 1223,
      "ជ": 1224,
      "ណ": 1225,
      "ត": 1226,
      "ន": 1227,
      "ព": 1228,
      "ភ": 1229,
      "ម": 1230,
      "រ": 1231,
      "វ": 1232,
      "ស": 1233,
      "ហ": 1234,
      "អ": 1235,
      "ា": 1236,
      "ុ": 1237,
      "ូ": 1238,
      "ំ": 1239,
      "ះ": 1240,
      "្": 1241,
      "ᠠ": 1242,
      "ᠨ": 1243,
      "ᠩ": 1244,
      "ᠯ": 1245,
      "ᠰ": 1246,
      "ᠶ": 1247,
      "ᡝ": 1248,
      "ᡠ": 1249,
      "ᡤ": 1250,
      "ᡥ": 1251,
      "ᡳ": 1252,
      "ᬩ": 1253,
      "ᬮ": 1254,
      "ᬶ": 1255,
      "ᴀ": 1256,
      "ᴄ": 1257,
      "ᴅ": 1258,
      "ᴇ": 1259,
      "ᴏ": 1260,
      "ᴛ": 1261,
      "ᴜ": 1262,
      "ᴡ": 1263,
      "ᴢ": 1264,
      "ᵐ": 1265,
      "ᶣ": 1266,
      "᷉": 1267,
      "ḇ": 1268,
      "Ḍ": 1269,
      "ḍ": 1270,
      "ḏ": 1271,
      "ḕ": 1272,
      "ḗ": 1273,
      "Ḥ": 1274,
      "ḥ": 1275,
      "ḫ": 1276,
      "ḭ": 1277,
      "Ḳ": 1278,
      "ḷ": 1279,
      "ḻ": 1280,
      "ṁ": 1281,
      "ṃ": 1282,
      "ṅ": 1283,
      "ṇ": 1284,
      "ṉ": 1285,
      "ṓ": 1286,
      "ṛ": 1287,
      "ṟ": 1288,
      "Ṣ": 1289,
      "ṣ": 1290,
      "ṫ": 1291,
      "Ṭ": 1292,
      "ṭ": 1293,
      "ṯ": 1294,
      "ṵ": 1295,
      "ṽ": 1296,
      "Ẓ": 1297,
      "ẓ": 1298,
      "ẖ": 1299,
      "ạ": 1300,
      "ả": 1301,
      "ấ": 1302,
      "ầ": 1303,
      "ậ": 1304,
      "ắ": 1305,
      "ằ": 1306,
      "ặ": 1307,
      "ẻ": 1308,
      "ẽ": 1309,
      "ế": 1310,
      "ề": 1311,
      "ễ": 1312,
      "ệ": 1313,
      "ị": 1314,
      "ọ": 1315,
      "ố": 1316,
      "ồ": 1317,
      "ộ": 1318,
      "ớ": 1319,
      "ờ": 1320,
      "ủ": 1321,
      "ứ": 1322,
      "ừ": 1323,
      "ử": 1324,
      "ữ": 1325,
      "ự": 1326,
      "ỹ": 1327,
      "ἀ": 1328,
      "ἄ": 1329,
      "ἅ": 1330,
      "Ἀ": 1331,
      "Ἁ": 1332,
      "Ἃ": 1333,
      "Ἄ": 1334,
      "Ἅ": 1335,
      "ἐ": 1336,
      "ἑ": 1337,
      "ἔ": 1338,
      "ἕ": 1339,
      "Ἐ": 1340,
      "Ἑ": 1341,
      "Ἔ": 1342,
      "Ἕ": 1343,
      "ἠ": 1344,
      "ἡ": 1345,
      "ἢ": 1346,
      "ἥ": 1347,
      "ἦ": 1348,
      "Ἠ": 1349,
      "Ἡ": 1350,
      "Ἥ": 1351,
      "ἰ": 1352,
      "ἱ": 1353,
      "ἴ": 1354,
      "ἵ": 1355,
      "ἶ": 1356,
      "ἷ": 1357,
      "Ἰ": 1358,
      "Ἱ": 1359,
      "Ἴ": 1360,
      "Ἵ": 1361,
      "ὀ": 1362,
      "ὁ": 1363,
      "ὄ": 1364,
      "ὅ": 1365,
      "Ὀ": 1366,
      "Ὄ": 1367,
      "ὐ": 1368,
      "ὑ": 1369,
      "ὕ": 1370,
      "ὖ": 1371,
      "Ὑ": 1372,
      "ὠ": 1373,
      "Ὠ": 1374,
      "ὰ": 1375,
      "ὴ": 1376,
      "ὶ": 1377,
      "ὸ": 1378,
      "ᾈ": 1379,
      "ᾍ": 1380,
      "ᾎ": 1381,
      "ᾶ": 1382,
      "᾽": 1383,
      "ῆ": 1384,
      "ῇ": 1385,
      "ῐ": 1386,
      "ῖ": 1387,
      "Ὶ": 1388,
      "ῥ": 1389,
      "ῦ": 1390,
      "Ῥ": 1391,
      "ῶ": 1392,
      "ῷ": 1393,
      "​": 1394,
      "‌": 1395,
      "‍": 1396,
      "‎": 1397,
      "‏": 1398,
      "‐": 1399,
      "‑": 1400,
      "–": 1401,
      "—": 1402,
      "―": 1403,
      "‘": 1404,
      "’": 1405,
      "‚": 1406,
      "‛": 1407,
      "“": 1408,
      "”": 1409,
      "„": 1410,
      "†": 1411,
      "‡": 1412,
      "•": 1413,
      "…": 1414,
      "‪": 1415,
      "‬": 1416,
      "‰": 1417,
      "′": 1418,
      "″": 1419,
      "‹": 1420,
      "›": 1421,
      "‿": 1422,
      "⁄": 1423,
      "⁊": 1424,
      "ⁱ": 1425,
      "₁": 1426,
      "₂": 1427,
      "₫": 1428,
      "€": 1429,
      "₱": 1430,
      "₹": 1431,
      "₽": 1432,
      "ℓ": 1433,
      "№": 1434,
      "™": 1435,
      "↑": 1436,
      "→": 1437,
      "⇧": 1438,
      "∆": 1439,
      "−": 1440,
      "√": 1441,
      "∞": 1442,
      "∴": 1443,
      "∼": 1444,
      "≈": 1445,
      "≠": 1446,
      "≡": 1447,
      "≤": 1448,
      "≥": 1449,
      "⊂": 1450,
      "⊃": 1451,
      "⊆": 1452,
      "⊇": 1453,
      "⊕": 1454,
      "⋅": 1455,
      "⋯": 1456,
      "⌘": 1457,
      "⌥": 1458,
      "Ⓐ": 1459,
      "Ⓡ": 1460,
      "ⓡ": 1461,
      "─": 1462,
      "△": 1463,
      "☆": 1464,
      "☉": 1465,
      "♀": 1466,
      "♂": 1467,
      "♈": 1468,
      "♊": 1469,
      "♌": 1470,
      "♎": 1471,
      "♠": 1472,
      "♣": 1473,
      "♥": 1474,
      "♦": 1475,
      "♭": 1476,
      "♮": 1477,
      "♯": 1478,
      "⚑": 1479,
      "❤": 1480,
      "➢": 1481,
      "⟨": 1482,
      "⟩": 1483,
      "Ⲁ": 1484,
      "ⲁ": 1485,
      "ⲃ": 1486,
      "Ⲅ": 1487,
      "ⲅ": 1488,
      "ⲇ": 1489,
      "ⲉ": 1490,
      "ⲏ": 1491,
      "ⲓ": 1492,
      "ⲕ": 1493,
      "ⲗ": 1494,
      "ⲙ": 1495,
      "ⲛ": 1496,
      "ⲝ": 1497,
      "ⲟ": 1498,
      "ⲡ": 1499,
      "Ⲣ": 1500,
      "ⲣ": 1501,
      "ⲥ": 1502,
      "ⲧ": 1503,
      "ⲩ": 1504,
      "ⲫ": 1505,
      "Ⲭ": 1506,
      "ⲭ": 1507,
      "ⲱ": 1508,
      "ⴰ": 1509,
      "ⴳ": 1510,
      "ⴷ": 1511,
      "ⴻ": 1512,
      "ⴽ": 1513,
      "ⵇ": 1514,
      "ⵉ": 1515,
      "ⵍ": 1516,
      "ⵎ": 1517,
      "ⵏ": 1518,
      "ⵓ": 1519,
      "ⵔ": 1520,
      "ⵕ": 1521,
      "ⵗ": 1522,
      "ⵙ": 1523,
      "ⵛ": 1524,
      "ⵜ": 1525,
      "ⵟ": 1526,
      "ⵡ": 1527,
      "ⵢ": 1528,
      "ⵣ": 1529,
      "。": 1530,
      "「": 1531,
      "」": 1532,
      "【": 1533,
      "】": 1534,
      "あ": 1535,
      "い": 1536,
      "う": 1537,
      "お": 1538,
      "か": 1539,
      "が": 1540,
      "き": 1541,
      "く": 1542,
      "け": 1543,
      "こ": 1544,
      "さ": 1545,
      "し": 1546,
      "じ": 1547,
      "す": 1548,
      "た": 1549,
      "だ": 1550,
      "ち": 1551,
      "っ": 1552,
      "つ": 1553,
      "て": 1554,
      "と": 1555,
      "ど": 1556,
      "な": 1557,
      "に": 1558,
      "の": 1559,
      "は": 1560,
      "ば": 1561,
      "ぶ": 1562,
      "ほ": 1563,
      "ぽ": 1564,
      "ま": 1565,
      "め": 1566,
      "も": 1567,
      "ゃ": 1568,
      "よ": 1569,
      "ら": 1570,
      "り": 1571,
      "る": 1572,
      "れ": 1573,
      "わ": 1574,
      "ん": 1575,
      "ァ": 1576,
      "ア": 1577,
      "ィ": 1578,
      "イ": 1579,
      "ウ": 1580,
      "ェ": 1581,
      "エ": 1582,
      "ォ": 1583,
      "オ": 1584,
      "カ": 1585,
      "ガ": 1586,
      "キ": 1587,
      "ギ": 1588,
      "ク": 1589,
      "グ": 1590,
      "ケ": 1591,
      "ゲ": 1592,
      "コ": 1593,
      "ゴ": 1594,
      "サ": 1595,
      "ザ": 1596,
      "シ": 1597,
      "ジ": 1598,
      "ス": 1599,
      "ズ": 1600,
      "セ": 1601,
      "ゼ": 1602,
      "ソ": 1603,
      "タ": 1604,
      "ダ": 1605,
      "チ": 1606,
      "ッ": 1607,
      "テ": 1608,
      "デ": 1609,
      "ト": 1610,
      "ド": 1611,
      "ナ": 1612,
      "ニ": 1613,
      "ノ": 1614,
      "ハ": 1615,
      "バ": 1616,
      "パ": 1617,
      "ヒ": 1618,
      "ビ": 1619,
      "ピ": 1620,
      "フ": 1621,
      "ブ": 1622,
      "プ": 1623,
      "ヘ": 1624,
      "ベ": 1625,
      "ペ": 1626,
      "ホ": 1627,
      "ボ": 1628,
      "ポ": 1629,
      "マ": 1630,
      "ミ": 1631,
      "ム": 1632,
      "メ": 1633,
      "モ": 1634,
      "ャ": 1635,
      "ヤ": 1636,
      "ュ": 1637,
      "ユ": 1638,
      "ョ": 1639,
      "ヨ": 1640,
      "ラ": 1641,
      "リ": 1642,
      "ル": 1643,
      "レ": 1644,
      "ロ": 1645,
      "ワ": 1646,
      "ン": 1647,
      "ヴ": 1648,
      "・": 1649,
      "ー": 1650,
      "一": 1651,
      "三": 1652,
      "上": 1653,
      "下": 1654,
      "不": 1655,
      "世": 1656,
      "业": 1657,
      "东": 1658,
      "中": 1659,
      "丸": 1660,
      "丹": 1661,
      "主": 1662,
      "乃": 1663,
      "么": 1664,
      "之": 1665,
      "乐": 1666,
      "九": 1667,
      "习": 1668,
      "亂": 1669,
      "了": 1670,
      "事": 1671,
      "二": 1672,
      "云": 1673,
      "五": 1674,
      "井": 1675,
      "些": 1676,
      "亞": 1677,
      "亡": 1678,
      "京": 1679,
      "人": 1680,
      "他": 1681,
      "代": 1682,
      "令": 1683,
      "以": 1684,
      "件": 1685,
      "会": 1686,
      "伝": 1687,
      "但": 1688,
      "佐": 1689,
      "体": 1690,
      "佛": 1691,
      "侍": 1692,
      "便": 1693,
      "係": 1694,
      "保": 1695,
      "個": 1696,
      "們": 1697,
      "健": 1698,
      "僕": 1699,
      "元": 1700,
      "光": 1701,
      "克": 1702,
      "兒": 1703,
      "党": 1704,
      "全": 1705,
      "兩": 1706,
      "公": 1707,
      "六": 1708,
      "共": 1709,
      "兵": 1710,
      "再": 1711,
      "写": 1712,
      "冨": 1713,
      "冬": 1714,
      "凯": 1715,
      "出": 1716,
      "分": 1717,
      "切": 1718,
      "初": 1719,
      "判": 1720,
      "別": 1721,
      "利": 1722,
      "到": 1723,
      "刹": 1724,
      "前": 1725,
      "剛": 1726,
      "劇": 1727,
      "劉": 1728,
      "力": 1729,
      "功": 1730,
      "加": 1731,
      "动": 1732,
      "動": 1733,
      "匂": 1734,
      "化": 1735,
      "北": 1736,
      "匹": 1737,
      "區": 1738,
      "十": 1739,
      "千": 1740,
      "半": 1741,
      "华": 1742,
      "南": 1743,
      "単": 1744,
      "博": 1745,
      "卡": 1746,
      "原": 1747,
      "参": 1748,
      "又": 1749,
      "叉": 1750,
      "反": 1751,
      "口": 1752,
      "古": 1753,
      "史": 1754,
      "号": 1755,
      "司": 1756,
      "吉": 1757,
      "同": 1758,
      "名": 1759,
      "向": 1760,
      "君": 1761,
      "周": 1762,
      "味": 1763,
      "命": 1764,
      "和": 1765,
      "品": 1766,
      "哉": 1767,
      "員": 1768,
      "唐": 1769,
      "商": 1770,
      "嘉": 1771,
      "嘘": 1772,
      "四": 1773,
      "回": 1774,
      "园": 1775,
      "図": 1776,
      "国": 1777,
      "國": 1778,
      "園": 1779,
      "團": 1780,
      "在": 1781,
      "地": 1782,
      "场": 1783,
      "坡": 1784,
      "坦": 1785,
      "垂": 1786,
      "城": 1787,
      "基": 1788,
      "堆": 1789,
      "報": 1790,
      "場": 1791,
      "塔": 1792,
      "墓": 1793,
      "壁": 1794,
      "士": 1795,
      "声": 1796,
      "夏": 1797,
      "外": 1798,
      "夜": 1799,
      "大": 1800,
      "天": 1801,
      "太": 1802,
      "夫": 1803,
      "失": 1804,
      "奈": 1805,
      "契": 1806,
      "奠": 1807,
      "奥": 1808,
      "奮": 1809,
      "女": 1810,
      "奴": 1811,
      "奶": 1812,
      "她": 1813,
      "妄": 1814,
      "妖": 1815,
      "妙": 1816,
      "妹": 1817,
      "始": 1818,
      "姓": 1819,
      "委": 1820,
      "姫": 1821,
      "威": 1822,
      "娘": 1823,
      "娛": 1824,
      "娜": 1825,
      "嬴": 1826,
      "子": 1827,
      "孔": 1828,
      "字": 1829,
      "季": 1830,
      "孫": 1831,
      "學": 1832,
      "安": 1833,
      "宋": 1834,
      "完": 1835,
      "宏": 1836,
      "宗": 1837,
      "官": 1838,
      "宵": 1839,
      "家": 1840,
      "富": 1841,
      "寺": 1842,
      "导": 1843,
      "対": 1844,
      "将": 1845,
      "尊": 1846,
      "導": 1847,
      "小": 1848,
      "少": 1849,
      "尸": 1850,
      "居": 1851,
      "届": 1852,
      "屋": 1853,
      "展": 1854,
      "屬": 1855,
      "山": 1856,
      "島": 1857,
      "川": 1858,
      "州": 1859,
      "巢": 1860,
      "工": 1861,
      "巨": 1862,
      "己": 1863,
      "巴": 1864,
      "币": 1865,
      "帖": 1866,
      "帝": 1867,
      "席": 1868,
      "帶": 1869,
      "常": 1870,
      "幕": 1871,
      "幣": 1872,
      "干": 1873,
      "平": 1874,
      "年": 1875,
      "幹": 1876,
      "广": 1877,
      "庄": 1878,
      "府": 1879,
      "度": 1880,
      "康": 1881,
      "廊": 1882,
      "廣": 1883,
      "式": 1884,
      "弓": 1885,
      "张": 1886,
      "弦": 1887,
      "張": 1888,
      "弼": 1889,
      "彊": 1890,
      "影": 1891,
      "很": 1892,
      "得": 1893,
      "御": 1894,
      "復": 1895,
      "徳": 1896,
      "德": 1897,
      "心": 1898,
      "忍": 1899,
      "快": 1900,
      "急": 1901,
      "怪": 1902,
      "总": 1903,
      "恩": 1904,
      "悟": 1905,
      "惑": 1906,
      "惠": 1907,
      "惡": 1908,
      "想": 1909,
      "慈": 1910,
      "慶": 1911,
      "應": 1912,
      "戀": 1913,
      "戈": 1914,
      "成": 1915,
      "戦": 1916,
      "戯": 1917,
      "戰": 1918,
      "戸": 1919,
      "房": 1920,
      "所": 1921,
      "手": 1922,
      "扯": 1923,
      "扶": 1924,
      "技": 1925,
      "把": 1926,
      "抖": 1927,
      "拉": 1928,
      "拳": 1929,
      "捞": 1930,
      "掖": 1931,
      "掛": 1932,
      "揺": 1933,
      "撃": 1934,
      "撈": 1935,
      "攻": 1936,
      "放": 1937,
      "政": 1938,
      "故": 1939,
      "救": 1940,
      "整": 1941,
      "文": 1942,
      "斑": 1943,
      "斗": 1944,
      "斯": 1945,
      "新": 1946,
      "方": 1947,
      "於": 1948,
      "施": 1949,
      "旅": 1950,
      "族": 1951,
      "旗": 1952,
      "日": 1953,
      "时": 1954,
      "昂": 1955,
      "昌": 1956,
      "明": 1957,
      "星": 1958,
      "春": 1959,
      "是": 1960,
      "時": 1961,
      "暗": 1962,
      "會": 1963,
      "月": 1964,
      "有": 1965,
      "朗": 1966,
      "朝": 1967,
      "木": 1968,
      "未": 1969,
      "本": 1970,
      "朱": 1971,
      "朴": 1972,
      "李": 1973,
      "条": 1974,
      "来": 1975,
      "東": 1976,
      "林": 1977,
      "柔": 1978,
      "校": 1979,
      "株": 1980,
      "案": 1981,
      "桑": 1982,
      "桥": 1983,
      "條": 1984,
      "棋": 1985,
      "棍": 1986,
      "様": 1987,
      "槿": 1988,
      "樂": 1989,
      "標": 1990,
      "横": 1991,
      "樫": 1992,
      "橋": 1993,
      "機": 1994,
      "檜": 1995,
      "歌": 1996,
      "正": 1997,
      "步": 1998,
      "武": 1999,
      "歲": 2000,
      "死": 2001,
      "残": 2002,
      "殷": 2003,
      "殻": 2004,
      "殿": 2005,
      "母": 2006,
      "氏": 2007,
      "民": 2008,
      "水": 2009,
      "永": 2010,
      "汉": 2011,
      "汋": 2012,
      "江": 2013,
      "沖": 2014,
      "沙": 2015,
      "沱": 2016,
      "河": 2017,
      "治": 2018,
      "泉": 2019,
      "泊": 2020,
      "法": 2021,
      "波": 2022,
      "洋": 2023,
      "洛": 2024,
      "津": 2025,
      "洲": 2026,
      "活": 2027,
      "流": 2028,
      "济": 2029,
      "浦": 2030,
      "浪": 2031,
      "浮": 2032,
      "海": 2033,
      "深": 2034,
      "淳": 2035,
      "淵": 2036,
      "減": 2037,
      "温": 2038,
      "港": 2039,
      "湯": 2040,
      "満": 2041,
      "準": 2042,
      "溫": 2043,
      "滴": 2044,
      "滿": 2045,
      "漂": 2046,
      "漠": 2047,
      "漢": 2048,
      "澳": 2049,
      "灣": 2050,
      "火": 2051,
      "灯": 2052,
      "無": 2053,
      "焼": 2054,
      "照": 2055,
      "熊": 2056,
      "燈": 2057,
      "爆": 2058,
      "爭": 2059,
      "父": 2060,
      "片": 2061,
      "版": 2062,
      "牌": 2063,
      "牡": 2064,
      "特": 2065,
      "犬": 2066,
      "独": 2067,
      "猫": 2068,
      "獣": 2069,
      "獨": 2070,
      "獺": 2071,
      "玉": 2072,
      "王": 2073,
      "玛": 2074,
      "珍": 2075,
      "珠": 2076,
      "球": 2077,
      "理": 2078,
      "琉": 2079,
      "琴": 2080,
      "璃": 2081,
      "環": 2082,
      "生": 2083,
      "産": 2084,
      "田": 2085,
      "甲": 2086,
      "电": 2087,
      "画": 2088,
      "界": 2089,
      "留": 2090,
      "畫": 2091,
      "異": 2092,
      "當": 2093,
      "疾": 2094,
      "発": 2095,
      "白": 2096,
      "的": 2097,
      "皇": 2098,
      "皮": 2099,
      "目": 2100,
      "盲": 2101,
      "眼": 2102,
      "瞻": 2103,
      "矢": 2104,
      "短": 2105,
      "研": 2106,
      "硫": 2107,
      "磁": 2108,
      "示": 2109,
      "社": 2110,
      "祖": 2111,
      "神": 2112,
      "福": 2113,
      "私": 2114,
      "秋": 2115,
      "秦": 2116,
      "空": 2117,
      "立": 2118,
      "章": 2119,
      "童": 2120,
      "競": 2121,
      "第": 2122,
      "答": 2123,
      "策": 2124,
      "節": 2125,
      "篇": 2126,
      "米": 2127,
      "約": 2128,
      "紅": 2129,
      "納": 2130,
      "級": 2131,
      "索": 2132,
      "紫": 2133,
      "結": 2134,
      "給": 2135,
      "統": 2136,
      "絵": 2137,
      "經": 2138,
      "総": 2139,
      "線": 2140,
      "縄": 2141,
      "總": 2142,
      "繪": 2143,
      "繼": 2144,
      "红": 2145,
      "线": 2146,
      "经": 2147,
      "美": 2148,
      "羣": 2149,
      "義": 2150,
      "羽": 2151,
      "翼": 2152,
      "老": 2153,
      "者": 2154,
      "育": 2155,
      "能": 2156,
      "腹": 2157,
      "自": 2158,
      "至": 2159,
      "臺": 2160,
      "興": 2161,
      "般": 2162,
      "艦": 2163,
      "艾": 2164,
      "节": 2165,
      "花": 2166,
      "苔": 2167,
      "若": 2168,
      "英": 2169,
      "茂": 2170,
      "范": 2171,
      "茶": 2172,
      "莉": 2173,
      "菇": 2174,
      "菜": 2175,
      "華": 2176,
      "营": 2177,
      "萬": 2178,
      "葉": 2179,
      "葵": 2180,
      "蓮": 2181,
      "蔡": 2182,
      "藤": 2183,
      "蘑": 2184,
      "蘭": 2185,
      "虎": 2186,
      "蛋": 2187,
      "蟹": 2188,
      "行": 2189,
      "術": 2190,
      "街": 2191,
      "衫": 2192,
      "裁": 2193,
      "裏": 2194,
      "裝": 2195,
      "裡": 2196,
      "西": 2197,
      "見": 2198,
      "视": 2199,
      "解": 2200,
      "言": 2201,
      "記": 2202,
      "設": 2203,
      "話": 2204,
      "語": 2205,
      "誠": 2206,
      "調": 2207,
      "論": 2208,
      "講": 2209,
      "護": 2210,
      "话": 2211,
      "语": 2212,
      "貓": 2213,
      "貴": 2214,
      "貿": 2215,
      "賀": 2216,
      "質": 2217,
      "质": 2218,
      "贵": 2219,
      "贸": 2220,
      "赛": 2221,
      "赤": 2222,
      "走": 2223,
      "起": 2224,
      "超": 2225,
      "越": 2226,
      "足": 2227,
      "跃": 2228,
      "跆": 2229,
      "路": 2230,
      "蹴": 2231,
      "車": 2232,
      "軍": 2233,
      "輝": 2234,
      "輪": 2235,
      "轉": 2236,
      "辭": 2237,
      "运": 2238,
      "近": 2239,
      "进": 2240,
      "追": 2241,
      "逆": 2242,
      "逓": 2243,
      "這": 2244,
      "速": 2245,
      "連": 2246,
      "進": 2247,
      "遊": 2248,
      "運": 2249,
      "過": 2250,
      "道": 2251,
      "遠": 2252,
      "那": 2253,
      "郎": 2254,
      "部": 2255,
      "郭": 2256,
      "都": 2257,
      "鄭": 2258,
      "酷": 2259,
      "里": 2260,
      "野": 2261,
      "金": 2262,
      "鈴": 2263,
      "鉄": 2264,
      "錄": 2265,
      "錫": 2266,
      "鎖": 2267,
      "鐵": 2268,
      "钦": 2269,
      "長": 2270,
      "长": 2271,
      "門": 2272,
      "閘": 2273,
      "関": 2274,
      "關": 2275,
      "闸": 2276,
      "阳": 2277,
      "阴": 2278,
      "阿": 2279,
      "限": 2280,
      "院": 2281,
      "除": 2282,
      "陰": 2283,
      "陸": 2284,
      "険": 2285,
      "陽": 2286,
      "隊": 2287,
      "隋": 2288,
      "際": 2289,
      "雄": 2290,
      "雞": 2291,
      "難": 2292,
      "雪": 2293,
      "雲": 2294,
      "電": 2295,
      "震": 2296,
      "霊": 2297,
      "霸": 2298,
      "靑": 2299,
      "非": 2300,
      "面": 2301,
      "鞠": 2302,
      "韓": 2303,
      "韩": 2304,
      "音": 2305,
      "響": 2306,
      "須": 2307,
      "領": 2308,
      "頭": 2309,
      "频": 2310,
      "風": 2311,
      "飛": 2312,
      "餅": 2313,
      "館": 2314,
      "饼": 2315,
      "香": 2316,
      "馨": 2317,
      "駅": 2318,
      "驚": 2319,
      "骨": 2320,
      "高": 2321,
      "髪": 2322,
      "魂": 2323,
      "魔": 2324,
      "鮮": 2325,
      "鲜": 2326,
      "鳩": 2327,
      "鳶": 2328,
      "鸟": 2329,
      "麒": 2330,
      "麗": 2331,
      "麦": 2332,
      "麪": 2333,
      "麵": 2334,
      "麺": 2335,
      "麻": 2336,
      "黄": 2337,
      "黑": 2338,
      "黨": 2339,
      "龍": 2340,
      "龙": 2341,
      "ꜜ": 2342,
      "가": 2343,
      "간": 2344,
      "강": 2345,
      "거": 2346,
      "게": 2347,
      "경": 2348,
      "계": 2349,
      "고": 2350,
      "공": 2351,
      "관": 2352,
      "교": 2353,
      "국": 2354,
      "군": 2355,
      "권": 2356,
      "그": 2357,
      "근": 2358,
      "글": 2359,
      "금": 2360,
      "기": 2361,
      "김": 2362,
      "까": 2363,
      "남": 2364,
      "낱": 2365,
      "내": 2366,
      "너": 2367,
      "녀": 2368,
      "년": 2369,
      "는": 2370,
      "니": 2371,
      "님": 2372,
      "다": 2373,
      "단": 2374,
      "달": 2375,
      "당": 2376,
      "대": 2377,
      "도": 2378,
      "동": 2379,
      "듀": 2380,
      "든": 2381,
      "디": 2382,
      "떡": 2383,
      "랑": 2384,
      "럴": 2385,
      "려": 2386,
      "령": 2387,
      "로": 2388,
      "론": 2389,
      "루": 2390,
      "류": 2391,
      "를": 2392,
      "리": 2393,
      "림": 2394,
      "마": 2395,
      "말": 2396,
      "면": 2397,
      "모": 2398,
      "무": 2399,
      "문": 2400,
      "미": 2401,
      "민": 2402,
      "박": 2403,
      "반": 2404,
      "방": 2405,
      "버": 2406,
      "범": 2407,
      "별": 2408,
      "보": 2409,
      "볶": 2410,
      "봇": 2411,
      "북": 2412,
      "뷰": 2413,
      "비": 2414,
      "사": 2415,
      "삼": 2416,
      "샤": 2417,
      "서": 2418,
      "선": 2419,
      "성": 2420,
      "세": 2421,
      "션": 2422,
      "소": 2423,
      "수": 2424,
      "스": 2425,
      "시": 2426,
      "신": 2427,
      "실": 2428,
      "심": 2429,
      "싼": 2430,
      "씨": 2431,
      "아": 2432,
      "악": 2433,
      "안": 2434,
      "암": 2435,
      "았": 2436,
      "야": 2437,
      "어": 2438,
      "에": 2439,
      "연": 2440,
      "온": 2441,
      "올": 2442,
      "왜": 2443,
      "요": 2444,
      "울": 2445,
      "유": 2446,
      "은": 2447,
      "을": 2448,
      "의": 2449,
      "이": 2450,
      "인": 2451,
      "일": 2452,
      "자": 2453,
      "작": 2454,
      "잠": 2455,
      "장": 2456,
      "재": 2457,
      "쟁": 2458,
      "전": 2459,
      "정": 2460,
      "제": 2461,
      "조": 2462,
      "종": 2463,
      "주": 2464,
      "준": 2465,
      "즌": 2466,
      "지": 2467,
      "짓": 2468,
      "째": 2469,
      "차": 2470,
      "창": 2471,
      "채": 2472,
      "처": 2473,
      "청": 2474,
      "총": 2475,
      "최": 2476,
      "춘": 2477,
      "치": 2478,
      "카": 2479,
      "케": 2480,
      "쿠": 2481,
      "타": 2482,
      "탄": 2483,
      "태": 2484,
      "터": 2485,
      "통": 2486,
      "투": 2487,
      "티": 2488,
      "팝": 2489,
      "패": 2490,
      "페": 2491,
      "평": 2492,
      "표": 2493,
      "프": 2494,
      "픽": 2495,
      "하": 2496,
      "학": 2497,
      "한": 2498,
      "해": 2499,
      "행": 2500,
      "혁": 2501,
      "현": 2502,
      "협": 2503,
      "혜": 2504,
      "호": 2505,
      "화": 2506,
      "회": 2507,
      "횧": 2508,
      "후": 2509,
      "훮": 2510,
      "훾": 2511,
      "휴": 2512,
      "": 2513,
      "": 2514,
      "": 2515,
      "ﬧ": 2516,
      "ﭼ": 2517,
      "ﯩ": 2518,
      "️": 2519,
      "ﺋ": 2520,
      "ﺎ": 2521,
      "ﺴ": 2522,
      "ﻗ": 2523,
      "ﻦ": 2524,
      "ﻱ": 2525,
      "﻿": 2526,
      "！": 2527,
      "＃": 2528,
      "（": 2529,
      "）": 2530,
      "，": 2531,
      "－": 2532,
      "２": 2533,
      "＝": 2534,
      "～": 2535,
      "ﾅ": 2536,
      "￥": 2537,
      "￼": 2538,
      "�": 2539,
      "🌴": 2540,
      "🍌": 2541,
      "🎓": 2542,
      "🤩": 2543,
      "􀄤": 2544,
      "he": 2545,
      "an": 2546,
      "the": 2547,
      "ed": 2548,
      "to": 2549,
      "and": 2550,
      "in": 2551,
      "re": 2552,
      "it": 2553,
      "ou": 2554,
      "wa": 2555,
      "en": 2556,
      "ha": 2557,
      "The": 2558,
      "er": 2559,
      "was": 2560,
      "ay": 2561,
      "om": 2562,
      "is": 2563,
      "on": 2564,
      "ar": 2565,
      "im": 2566,
      "ll": 2567,
      "id": 2568,
      "sa": 2569,
      "le": 2570,
      "ing": 2571,
      "st": 2572,
      "end": 2573,
      "or": 2574,
      "ot": 2575,
      "of": 2576,
      "am": 2577,
      "ir": 2578,
      "ne": 2579,
      "They": 2580,
      "at": 2581,
      "pl": 2582,
      "ig": 2583,
      "He": 2584,
      "be": 2585,
      "il": 2586,
      "lo": 2587,
      "all": 2588,
      "ri": 2589,
      "ver": 2590,
      "his": 2591,
      "ut": 2592,
      "se": 2593,
      "day": 2594,
      "play": 2595,
      "ith": 2596,
      "said": 2597,
      "with": 2598,
      "Tim": 2599,
      "pp": 2600,
      "ow": 2601,
      "ce": 2602,
      "her": 2603,
      "ked": 2604,
      "un": 2605,
      "hat": 2606,
      "ke": 2607,
      "She": 2608,
      "ld": 2609,
      "th": 2610,
      "you": 2611,
      "ve": 2612,
      "big": 2613,
      "ex": 2614,
      "very": 2615,
      "ted": 2616,
      "li": 2617,
      "ck": 2618,
      "we": 2619,
      "happ": 2620,
      "up": 2621,
      "riend": 2622,
      "friend": 2623,
      "ad": 2624,
      "ily": 2625,
      "they": 2626,
      "had": 2627,
      "not": 2628,
      "oft": 2629,
      "ge": 2630,
      "wan": 2631,
      "ext": 2632,
      "itt": 2633,
      "al": 2634,
      "ome": 2635,
      "ther": 2636,
      "do": 2637,
      "<|": 2638,
      "|>": 2639,
      "endoft": 2640,
      "endoftext": 2641,
      "nd": 2642,
      "ch": 2643,
      "ent": 2644,
      "for": 2645,
      "bo": 2646,
      "that": 2647,
      "as": 2648,
      "happy": 2649,
      "Lily": 2650,
      "saw": 2651,
      "ould": 2652,
      "One": 2653,
      "she": 2654,
      "es": 2655,
      "mom": 2656,
      "ittle": 2657,
      "so": 2658,
      "little": 2659,
      "tim": 2660,
      "ro": 2661,
      "Tom": 2662,
      "fe": 2663,
      "nam": 2664,
      "time": 2665,
      "ound": 2666,
      ".\"": 2667,
      "oo": 2668,
      "there": 2669,
      "named": 2670,
      "sm": 2671,
      "were": 2672,
      "It": 2673,
      "but": 2674,
      "wanted": 2675,
      "ht": 2676,
      "sh": 2677,
      "ved": 2678,
      "friends": 2679,
      "!\"": 2680,
      "ra": 2681,
      "ird": 2682,
      "ry": 2683,
      "are": 2684,
      "too": 2685,
      "bird": 2686,
      "ter": 2687,
      "out": 2688,
      "my": 2689,
      "On": 2690,
      "ug": 2691,
      "ake": 2692,
      "ide": 2693,
      "lp": 2694,
      "went": 2695,
      "ue": 2696,
      "car": 2697,
      "loo": 2698,
      "Once": 2699,
      "help": 2700,
      "upon": 2701,
      "thing": 2702,
      "ill": 2703,
      "ind": 2704,
      "ly": 2705,
      "fun": 2706,
      "ame": 2707,
      "ur": 2708,
      "toy": 2709,
      "did": 2710,
      "pe": 2711,
      "me": 2712,
      "one": 2713,
      "gether": 2714,
      "way": 2715,
      "some": 2716,
      "cat": 2717,
      "ore": 2718,
      "together": 2719,
      "ag": 2720,
      "ack": 2721,
      "tre": 2722,
      "ic": 2723,
      "new": 2724,
      "can": 2725,
      "came": 2726,
      "could": 2727,
      "ood": 2728,
      "dog": 2729,
      "ho": 2730,
      "their": 2731,
      "ball": 2732,
      "him": 2733,
      "par": 2734,
      "go": 2735,
      "gir": 2736,
      "played": 2737,
      "But": 2738,
      "girl": 2739,
      "man": 2740,
      "?\"": 2741,
      "fu": 2742,
      "hen": 2743,
      "um": 2744,
      "them": 2745,
      "rom": 2746,
      "ax": 2747,
      "have": 2748,
      "sad": 2749,
      "Sue": 2750,
      "boy": 2751,
      "hed": 2752,
      "tree": 2753,
      "Max": 2754,
      "oug": 2755,
      "ab": 2756,
      "looked": 2757,
      "loved": 2758,
      "found": 2759,
      "star": 2760,
      "la": 2761,
      "side": 2762,
      "other": 2763,
      "ain": 2764,
      "de": 2765,
      "back": 2766,
      "Ben": 2767,
      "lt": 2768,
      "own": 2769,
      "like": 2770,
      "park": 2771,
      "op": 2772,
      "ful": 2773,
      "ong": 2774,
      "Sam": 2775,
      "ight": 2776,
      "et": 2777,
      "pr": 2778,
      "no": 2779,
      "fa": 2780,
      "ran": 2781,
      "co": 2782,
      "would": 2783,
      "sto": 2784,
      "pot": 2785,
      "liked": 2786,
      "make": 2787,
      "now": 2788,
      "You": 2789,
      "see": 2790,
      "felt": 2791,
      "ca": 2792,
      "want": 2793,
      "ard": 2794,
      "asked": 2795,
      "ouse": 2796,
      "started": 2797,
      "ought": 2798,
      "iled": 2799,
      "ice": 2800,
      "wor": 2801,
      "good": 2802,
      "small": 2803,
      "more": 2804,
      "say": 2805,
      "ried": 2806,
      "mad": 2807,
      "smiled": 2808,
      "red": 2809,
      "gr": 2810,
      "scar": 2811,
      "what": 2812,
      "from": 2813,
      "king": 2814,
      "Spot": 2815,
      "ty": 2816,
      "put": 2817,
      "uc": 2818,
      "find": 2819,
      "home": 2820,
      "away": 2821,
      "ia": 2822,
      "Mom": 2823,
      "made": 2824,
      "sha": 2825,
      "something": 2826,
      "thought": 2827,
      "ened": 2828,
      "mu": 2829,
      "playing": 2830,
      "ach": 2831,
      "every": 2832,
      "wal": 2833,
      "arn": 2834,
      "ss": 2835,
      "ile": 2836,
      "pre": 2837,
      "Mia": 2838,
      "again": 2839,
      "house": 2840,
      "ure": 2841,
      "box": 2842,
      "use": 2843,
      "laug": 2844,
      "down": 2845,
      "will": 2846,
      "took": 2847,
      "when": 2848,
      "learn": 2849,
      "get": 2850,
      "ny": 2851,
      "scared": 2852,
      "ish": 2853,
      "who": 2854,
      "der": 2855,
      "toys": 2856,
      "your": 2857,
      "ep": 2858,
      "el": 2859,
      "got": 2860,
      "dd": 2861,
      "things": 2862,
      "around": 2863,
      "ie": 2864,
      "ick": 2865,
      "pec": 2866,
      "low": 2867,
      "then": 2868,
      "te": 2869,
      "ave": 2870,
      "lived": 2871,
      "ob": 2872,
      "sun": 2873,
      "lot": 2874,
      "So": 2875,
      "oud": 2876,
      "if": 2877,
      ",\"": 2878,
      "ru": 2879,
      "na": 2880,
      "pped": 2881,
      "ant": 2882,
      "bot": 2883,
      "by": 2884,
      "us": 2885,
      "Luc": 2886,
      "Lucy": 2887,
      "ited": 2888,
      "know": 2889,
      "room": 2890,
      "any": 2891,
      "tried": 2892,
      "ump": 2893,
      "says": 2894,
      "many": 2895,
      "pic": 2896,
      "about": 2897,
      "ist": 2898,
      "ous": 2899,
      "ate": 2900,
      "care": 2901,
      "pret": 2902,
      "We": 2903,
      "dec": 2904,
      "qu": 2905,
      "mo": 2906,
      "ally": 2907,
      "ise": 2908,
      "ive": 2909,
      "here": 2910,
      "knew": 2911,
      "gre": 2912,
      "ust": 2913,
      "pu": 2914,
      "And": 2915,
      "fter": 2916,
      "po": 2917,
      "ways": 2918,
      "than": 2919,
      "bl": 2920,
      "water": 2921,
      "long": 2922,
      "learned": 2923,
      "best": 2924,
      "became": 2925,
      "ers": 2926,
      "wh": 2927,
      "nex": 2928,
      "cause": 2929,
      "ite": 2930,
      "cl": 2931,
      "exc": 2932,
      "fore": 2933,
      "into": 2934,
      "look": 2935,
      "show": 2936,
      "outside": 2937,
      "laughed": 2938,
      "always": 2939,
      "ang": 2940,
      "ided": 2941,
      "eat": 2942,
      "because": 2943,
      "ma": 2944,
      "cle": 2945,
      "decided": 2946,
      "ion": 2947,
      "both": 2948,
      "run": 2949,
      "this": 2950,
      "Let": 2951,
      "Then": 2952,
      "jump": 2953,
      "ok": 2954,
      "An": 2955,
      "hug": 2956,
      "sur": 2957,
      "dad": 2958,
      "ac": 2959,
      "fast": 2960,
      "come": 2961,
      "clo": 2962,
      "When": 2963,
      "old": 2964,
      "feel": 2965,
      "excited": 2966,
      "sor": 2967,
      "bu": 2968,
      "nice": 2969,
      "our": 2970,
      "Yes": 2971,
      "br": 2972,
      "ink": 2973,
      "bb": 2974,
      "sk": 2975,
      "pa": 2976,
      "told": 2977,
      "Bob": 2978,
      "inside": 2979,
      "fish": 2980,
      "His": 2981,
      "how": 2982,
      "surpr": 2983,
      "ook": 2984,
      "iny": 2985,
      "its": 2986,
      "take": 2987,
      "cre": 2988,
      "pretty": 2989,
      "ta": 2990,
      "ara": 2991,
      "let": 2992,
      "ven": 2993,
      "fly": 2994,
      "gave": 2995,
      "under": 2996,
      "jo": 2997,
      "much": 2998,
      "each": 2999,
      "able": 3000,
      "Anna": 3001,
      "lew": 3002,
      "anim": 3003,
      "animal": 3004,
      "ank": 3005,
      "har": 3006,
      "Amy": 3007,
      "need": 3008,
      "udd": 3009,
      "As": 3010,
      "tur": 3011,
      "flow": 3012,
      "sw": 3013,
      "ell": 3014,
      "Th": 3015,
      "sorry": 3016,
      "Can": 3017,
      "uck": 3018,
      "ged": 3019,
      "dre": 3020,
      "ised": 3021,
      "Sara": 3022,
      "rock": 3023,
      "hand": 3024,
      "ine": 3025,
      "war": 3026,
      "Thank": 3027,
      "In": 3028,
      "walked": 3029,
      "lea": 3030,
      "bear": 3031,
      "try": 3032,
      "bet": 3033,
      "rain": 3034,
      "kind": 3035,
      "str": 3036,
      "just": 3037,
      "com": 3038,
      "igh": 3039,
      "ber": 3040,
      "ving": 3041,
      "fi": 3042,
      "spec": 3043,
      "list": 3044,
      "Her": 3045,
      "happened": 3046,
      "food": 3047,
      "didn": 3048,
      "near": 3049,
      "wat": 3050,
      "animals": 3051,
      "sky": 3052,
      "tw": 3053,
      "nt": 3054,
      "read": 3055,
      "che": 3056,
      "where": 3057,
      "ket": 3058,
      "never": 3059,
      "ff": 3060,
      "ace": 3061,
      "better": 3062,
      "bug": 3063,
      "From": 3064,
      "idea": 3065,
      "heard": 3066,
      "per": 3067,
      "bro": 3068,
      "lf": 3069,
      "tal": 3070,
      "bed": 3071,
      "ial": 3072,
      "love": 3073,
      "turn": 3074,
      "ass": 3075,
      "col": 3076,
      "tow": 3077,
      "share": 3078,
      "careful": 3079,
      "urt": 3080,
      "flew": 3081,
      "anymore": 3082,
      "don": 3083,
      "special": 3084,
      "lots": 3085,
      "over": 3086,
      "book": 3087,
      "give": 3088,
      "ct": 3089,
      "wind": 3090,
      "lad": 3091,
      "That": 3092,
      "even": 3093,
      "Every": 3094,
      "ople": 3095,
      "safe": 3096,
      "ground": 3097,
      "clean": 3098,
      "sp": 3099,
      "ear": 3100,
      "mag": 3101,
      "after": 3102,
      "udden": 3103,
      "cake": 3104,
      "shiny": 3105,
      "ever": 3106,
      "fam": 3107,
      "Do": 3108,
      "app": 3109,
      "fo": 3110,
      "people": 3111,
      "bad": 3112,
      "door": 3113,
      "uddenly": 3114,
      "high": 3115,
      "proud": 3116,
      "ough": 3117,
      "place": 3118,
      "rabb": 3119,
      "surprised": 3120,
      "gard": 3121,
      "far": 3122,
      "What": 3123,
      "pected": 3124,
      "hurt": 3125,
      "off": 3126,
      "hard": 3127,
      "bea": 3128,
      "garden": 3129,
      "opened": 3130,
      "clim": 3131,
      "picked": 3132,
      "call": 3133,
      "unt": 3134,
      "unex": 3135,
      "unexpected": 3136,
      "still": 3137,
      "No": 3138,
      "color": 3139,
      "blue": 3140,
      "mor": 3141,
      "thanked": 3142,
      "Jo": 3143,
      "cha": 3144,
      "hugged": 3145,
      "Wh": 3146,
      "should": 3147,
      "magic": 3148,
      "loud": 3149,
      "ummy": 3150,
      "ool": 3151,
      "family": 3152,
      "jumped": 3153,
      "ble": 3154,
      "great": 3155,
      "ort": 3156,
      "rel": 3157,
      "walk": 3158,
      "kid": 3159,
      "squ": 3160,
      "smile": 3161,
      "ning": 3162,
      "rog": 3163,
      "ark": 3164,
      "uff": 3165,
      "dy": 3166,
      "pt": 3167,
      "bra": 3168,
      "ess": 3169,
      "stay": 3170,
      "sl": 3171,
      "Suddenly": 3172,
      "dan": 3173,
      "strong": 3174,
      "tru": 3175,
      "forest": 3176,
      "until": 3177,
      "itty": 3178,
      "This": 3179,
      "beaut": 3180,
      "frog": 3181,
      "next": 3182,
      "ip": 3183,
      "ture": 3184,
      "boat": 3185,
      "stick": 3186,
      "ree": 3187,
      "Sally": 3188,
      "lease": 3189,
      "sed": 3190,
      "After": 3191,
      "yes": 3192,
      "con": 3193,
      "Kitty": 3194,
      "ak": 3195,
      "ste": 3196,
      "cu": 3197,
      "les": 3198,
      "listen": 3199,
      "while": 3200,
      "happily": 3201,
      "beauti": 3202,
      "beautiful": 3203,
      "kids": 3204,
      "story": 3205,
      "sing": 3206,
      "ched": 3207,
      "helped": 3208,
      "being": 3209,
      "At": 3210,
      "showed": 3211,
      "town": 3212,
      "lly": 3213,
      "imp": 3214,
      "irst": 3215,
      "unny": 3216,
      "keep": 3217,
      "called": 3218,
      "picture": 3219,
      "met": 3220,
      "raw": 3221,
      "game": 3222,
      "everyone": 3223,
      "ser": 3224,
      "Now": 3225,
      "stopped": 3226,
      "won": 3227,
      "ane": 3228,
      "vent": 3229,
      "open": 3230,
      "mon": 3231,
      "ild": 3232,
      "joy": 3233,
      "Fin": 3234,
      "soft": 3235,
      "angry": 3236,
      "two": 3237,
      "work": 3238,
      "uffy": 3239,
      "self": 3240,
      "ished": 3241,
      "lost": 3242,
      "also": 3243,
      "cry": 3244,
      "truck": 3245,
      "Jack": 3246,
      "ask": 3247,
      "luffy": 3248,
      "yummy": 3249,
      "gan": 3250,
      "tor": 3251,
      "warm": 3252,
      "face": 3253,
      "less": 3254,
      "brave": 3255,
      "mouse": 3256,
      "leave": 3257,
      "right": 3258,
      "watch": 3259,
      "fell": 3260,
      "doll": 3261,
      "couldn": 3262,
      "iz": 3263,
      "flower": 3264,
      "vo": 3265,
      "pon": 3266,
      "green": 3267,
      "flowers": 3268,
      "llo": 3269,
      "laugh": 3270,
      "lock": 3271,
      "ies": 3272,
      "before": 3273,
      "owl": 3274,
      "mber": 3275,
      "hear": 3276,
      "Look": 3277,
      "noise": 3278,
      "top": 3279,
      "soon": 3280,
      "sat": 3281,
      "wr": 3282,
      "first": 3283,
      "store": 3284,
      "tr": 3285,
      "ired": 3286,
      "used": 3287,
      "cream": 3288,
      "has": 3289,
      "key": 3290,
      "ung": 3291,
      "race": 3292,
      "hole": 3293,
      "slide": 3294,
      "set": 3295,
      "Hi": 3296,
      "uch": 3297,
      "Fluffy": 3298,
      "table": 3299,
      "illy": 3300,
      "irrel": 3301,
      "kept": 3302,
      "head": 3303,
      "yard": 3304,
      "rest": 3305,
      "fin": 3306,
      "nodd": 3307,
      "Don": 3308,
      "going": 3309,
      "squirrel": 3310,
      "expl": 3311,
      "having": 3312,
      "nodded": 3313,
      "pain": 3314,
      "hands": 3315,
      "ds": 3316,
      "age": 3317,
      "ings": 3318,
      "thr": 3319,
      "looking": 3320,
      "birds": 3321,
      "think": 3322,
      "rabbit": 3323,
      "ught": 3324,
      "cou": 3325,
      "night": 3326,
      "funny": 3327,
      "leep": 3328,
      "ting": 3329,
      "aybe": 3330,
      "catch": 3331,
      "tell": 3332,
      "yell": 3333,
      "mean": 3334,
      "lled": 3335,
      "ama": 3336,
      "ries": 3337,
      "fix": 3338,
      "tle": 3339,
      "sn": 3340,
      "tired": 3341,
      "bunny": 3342,
      "ath": 3343,
      "member": 3344,
      "sound": 3345,
      "Why": 3346,
      "kit": 3347,
      "dif": 3348,
      "ster": 3349,
      "ious": 3350,
      "cold": 3351,
      "cut": 3352,
      "others": 3353,
      "orn": 3354,
      "cook": 3355,
      "eyes": 3356,
      "pond": 3357,
      "talk": 3358,
      "wait": 3359,
      "flo": 3360,
      "ft": 3361,
      "sunny": 3362,
      "pie": 3363,
      "chen": 3364,
      "dis": 3365,
      "kitchen": 3366,
      "light": 3367,
      "llow": 3368,
      "swe": 3369,
      "Dad": 3370,
      "import": 3371,
      "fav": 3372,
      "Hello": 3373,
      "remember": 3374,
      "bar": 3375,
      "mommy": 3376,
      "ash": 3377,
      "party": 3378,
      "move": 3379,
      "climb": 3380,
      "ph": 3381,
      "song": 3382,
      "times": 3383,
      "sand": 3384,
      "hn": 3385,
      "important": 3386,
      "curi": 3387,
      "dress": 3388,
      "John": 3389,
      "moral": 3390,
      "duck": 3391,
      "zy": 3392,
      "began": 3393,
      "turned": 3394,
      "que": 3395,
      "shared": 3396,
      "making": 3397,
      "bre": 3398,
      "advent": 3399,
      "does": 3400,
      "okay": 3401,
      "worked": 3402,
      "enjoy": 3403,
      "bright": 3404,
      "Bo": 3405,
      "ken": 3406,
      "Mr": 3407,
      "curious": 3408,
      "reed": 3409,
      "fire": 3410,
      "tall": 3411,
      "fru": 3412,
      "sleep": 3413,
      "gu": 3414,
      "dir": 3415,
      "hid": 3416,
      "Mommy": 3417,
      "favor": 3418,
      "draw": 3419,
      "follow": 3420,
      "hill": 3421,
      "shar": 3422,
      "sho": 3423,
      "Wow": 3424,
      "favorite": 3425,
      "bag": 3426,
      "cla": 3427,
      "agreed": 3428,
      "hind": 3429,
      "led": 3430,
      "ign": 3431,
      "air": 3432,
      "ied": 3433,
      "voice": 3434,
      "fere": 3435,
      "zed": 3436,
      "stand": 3437,
      "watched": 3438,
      "mer": 3439,
      "mess": 3440,
      "stop": 3441,
      "please": 3442,
      "pick": 3443,
      "med": 3444,
      "behind": 3445,
      "block": 3446,
      "hung": 3447,
      "hot": 3448,
      "dro": 3449,
      "differe": 3450,
      "paper": 3451,
      "dark": 3452,
      "ange": 3453,
      "land": 3454,
      "surprise": 3455,
      "cr": 3456,
      "tail": 3457,
      "ready": 3458,
      "trees": 3459,
      "walking": 3460,
      "Maybe": 3461,
      "lion": 3462,
      "worry": 3463,
      "grass": 3464,
      "floor": 3465,
      "Bobo": 3466,
      "mar": 3467,
      "lady": 3468,
      "ation": 3469,
      "tri": 3470,
      "wel": 3471,
      "ary": 3472,
      "butter": 3473,
      "Jane": 3474,
      "colors": 3475,
      "shed": 3476,
      "ced": 3477,
      "wood": 3478,
      "Timmy": 3479,
      "isy": 3480,
      "leaves": 3481,
      "cried": 3482,
      "closer": 3483,
      "mis": 3484,
      "different": 3485,
      "sit": 3486,
      "prin": 3487,
      "needed": 3488,
      "cars": 3489,
      "piece": 3490,
      "fl": 3491,
      "only": 3492,
      "been": 3493,
      "ger": 3494,
      "hair": 3495,
      "adventure": 3496,
      "full": 3497,
      "feeling": 3498,
      "hungry": 3499,
      "sweet": 3500,
      "All": 3501,
      "yellow": 3502,
      "mou": 3503,
      "bye": 3504,
      "touch": 3505,
      "ike": 3506,
      "ient": 3507,
      "din": 3508,
      "ater": 3509,
      "ple": 3510,
      "wet": 3511,
      "ached": 3512,
      "another": 3513,
      "friendly": 3514,
      "To": 3515,
      "prom": 3516,
      "tra": 3517,
      "pen": 3518,
      "broken": 3519,
      "av": 3520,
      "swing": 3521,
      "plan": 3522,
      "There": 3523,
      "dance": 3524,
      "river": 3525,
      "lie": 3526,
      "ner": 3527,
      "pretend": 3528,
      "cra": 3529,
      "ins": 3530,
      "lic": 3531,
      "listened": 3532,
      "climbed": 3533,
      "gone": 3534,
      "running": 3535,
      "name": 3536,
      "hold": 3537,
      "ered": 3538,
      "stre": 3539,
      "train": 3540,
      "close": 3541,
      "pet": 3542,
      "swim": 3543,
      "gg": 3544,
      "must": 3545,
      "dr": 3546,
      "ila": 3547,
      "thank": 3548,
      "aby": 3549,
      "wonder": 3550,
      "smell": 3551,
      "bor": 3552,
      "oney": 3553,
      "andma": 3554,
      "chair": 3555,
      "ze": 3556,
      "fight": 3557,
      "rag": 3558,
      "wall": 3559,
      "Lila": 3560,
      "reached": 3561,
      "blocks": 3562,
      "Everyone": 3563,
      "hop": 3564,
      "fair": 3565,
      "coming": 3566,
      "slow": 3567,
      "bit": 3568,
      "glad": 3569,
      "helping": 3570,
      "ton": 3571,
      "moment": 3572,
      "cool": 3573,
      "kay": 3574,
      "wear": 3575,
      "might": 3576,
      "fr": 3577,
      "goodbye": 3578,
      "Just": 3579,
      "iced": 3580,
      "Be": 3581,
      "oon": 3582,
      "je": 3583,
      "done": 3584,
      "repl": 3585,
      "year": 3586,
      "pushed": 3587,
      "fall": 3588,
      "window": 3589,
      "art": 3590,
      "real": 3591,
      "sees": 3592,
      "hide": 3593,
      "bow": 3594,
      "ames": 3595,
      "through": 3596,
      "baby": 3597,
      "snow": 3598,
      "win": 3599,
      "held": 3600,
      "explore": 3601,
      "balloon": 3602,
      "three": 3603,
      "ich": 3604,
      "wished": 3605,
      "Soon": 3606,
      "buy": 3607,
      "stuck": 3608,
      "ix": 3609,
      "pro": 3610,
      "mat": 3611,
      "quick": 3612,
      "trying": 3613,
      "apple": 3614,
      "em": 3615,
      "left": 3616,
      "arm": 3617,
      "dream": 3618,
      "cket": 3619,
      "cast": 3620,
      "doing": 3621,
      "vis": 3622,
      "spo": 3623,
      "build": 3624,
      "why": 3625,
      "looks": 3626,
      "scary": 3627,
      "aisy": 3628,
      "sure": 3629,
      "dirty": 3630,
      "outed": 3631,
      "wo": 3632,
      "ield": 3633,
      "ppy": 3634,
      "wise": 3635,
      "cup": 3636,
      "replied": 3637,
      "brother": 3638,
      "world": 3639,
      "bran": 3640,
      "gl": 3641,
      "swa": 3642,
      "reach": 3643,
      "seen": 3644,
      "bus": 3645,
      "shouted": 3646,
      "butterfly": 3647,
      "grow": 3648,
      "treat": 3649,
      "spl": 3650,
      "tiny": 3651,
      "wag": 3652,
      "sometimes": 3653,
      "pulled": 3654,
      "fill": 3655,
      "ants": 3656,
      "woods": 3657,
      "andy": 3658,
      "Oh": 3659,
      "cloud": 3660,
      "pink": 3661,
      "cont": 3662,
      "join": 3663,
      "clapped": 3664,
      "mus": 3665,
      "mouth": 3666,
      "oup": 3667,
      "nest": 3668,
      "swam": 3669,
      "job": 3670,
      "remembered": 3671,
      "grabb": 3672,
      "Okay": 3673,
      "Inside": 3674,
      "row": 3675,
      "colorful": 3676,
      "bigger": 3677,
      "lar": 3678,
      "gent": 3679,
      "ts": 3680,
      "live": 3681,
      "lesson": 3682,
      "pur": 3683,
      "thes": 3684,
      "rot": 3685,
      "waved": 3686,
      "stayed": 3687,
      "grabbed": 3688,
      "Daisy": 3689,
      "heav": 3690,
      "games": 3691,
      "pare": 3692,
      "Budd": 3693,
      "nap": 3694,
      "clothes": 3695,
      "Buddy": 3696,
      "quickly": 3697,
      "waited": 3698,
      "himself": 3699,
      "sea": 3700,
      "broke": 3701,
      "zz": 3702,
      "most": 3703,
      "erous": 3704,
      "asure": 3705,
      "While": 3706,
      "ucky": 3707,
      "anything": 3708,
      "cked": 3709,
      "thre": 3710,
      "alone": 3711,
      "pat": 3712,
      "blew": 3713,
      "books": 3714,
      "Finally": 3715,
      "noticed": 3716,
      "ance": 3717,
      "enjoyed": 3718,
      "tast": 3719,
      "dry": 3720,
      "round": 3721,
      "heavy": 3722,
      "likes": 3723,
      "ence": 3724,
      "pictures": 3725,
      "spot": 3726,
      "fur": 3727,
      "gif": 3728,
      "ub": 3729,
      "turns": 3730,
      "Re": 3731,
      "cess": 3732,
      "castle": 3733,
      "ju": 3734,
      "Tommy": 3735,
      "hopped": 3736,
      "paint": 3737,
      "Sarah": 3738,
      "mix": 3739,
      "music": 3740,
      "ather": 3741,
      "sc": 3742,
      "Joe": 3743,
      "forgot": 3744,
      "ire": 3745,
      "tight": 3746,
      "board": 3747,
      "bike": 3748,
      "white": 3749,
      "Em": 3750,
      "ated": 3751,
      "whis": 3752,
      "thy": 3753,
      "followed": 3754,
      "everywhere": 3755,
      "tower": 3756,
      "pass": 3757,
      "black": 3758,
      "threw": 3759,
      "\".": 3760,
      "itten": 3761,
      "ride": 3762,
      "oun": 3763,
      "Please": 3764,
      "ba": 3765,
      "stran": 3766,
      "iet": 3767,
      "ali": 3768,
      "break": 3769,
      "makes": 3770,
      "wrong": 3771,
      "well": 3772,
      "cy": 3773,
      "fruit": 3774,
      "sy": 3775,
      "whe": 3776,
      "stone": 3777,
      "parent": 3778,
      "ele": 3779,
      "deep": 3780,
      "bee": 3781,
      "ment": 3782,
      "olly": 3783,
      "ister": 3784,
      "min": 3785,
      "leg": 3786,
      "Billy": 3787,
      "ross": 3788,
      "understand": 3789,
      "farm": 3790,
      "pill": 3791,
      "gi": 3792,
      "sign": 3793,
      "fully": 3794,
      "bowl": 3795,
      "poin": 3796,
      "spe": 3797,
      "quiet": 3798,
      "pes": 3799,
      "wants": 3800,
      "itch": 3801,
      "ses": 3802,
      "Come": 3803,
      "danced": 3804,
      "Le": 3805,
      "ote": 3806,
      "leaf": 3807,
      "brought": 3808,
      "cover": 3809,
      "monster": 3810,
      "fect": 3811,
      "talked": 3812,
      "ued": 3813,
      "faster": 3814,
      "ap": 3815,
      "cookies": 3816,
      "Gr": 3817,
      "ons": 3818,
      "pers": 3819,
      "contin": 3820,
      "sister": 3821,
      "stu": 3822,
      "pow": 3823,
      "really": 3824,
      "mum": 3825,
      "hit": 3826,
      "corn": 3827,
      "happen": 3828,
      "Ch": 3829,
      "ctor": 3830,
      "someone": 3831,
      "dren": 3832,
      "smart": 3833,
      "finished": 3834,
      "ildren": 3835,
      "rocks": 3836,
      "branch": 3837,
      "reali": 3838,
      "fox": 3839,
      "appear": 3840,
      "dinner": 3841,
      "button": 3842,
      "orange": 3843,
      "wish": 3844,
      "field": 3845,
      "af": 3846,
      "sharing": 3847,
      "zing": 3848,
      "secre": 3849,
      "children": 3850,
      "sang": 3851,
      "oom": 3852,
      "oth": 3853,
      "free": 3854,
      "dang": 3855,
      "flying": 3856,
      "everything": 3857,
      "gra": 3858,
      "ian": 3859,
      "ves": 3860,
      "today": 3861,
      "worried": 3862,
      "perfect": 3863,
      "beach": 3864,
      "plane": 3865,
      "else": 3866,
      "stead": 3867,
      "filled": 3868,
      "mother": 3869,
      "shin": 3870,
      "My": 3871,
      "hes": 3872,
      "silly": 3873,
      "spr": 3874,
      "amp": 3875,
      "words": 3876,
      "hig": 3877,
      "without": 3878,
      "visit": 3879,
      "pper": 3880,
      "parents": 3881,
      "OK": 3882,
      "smiles": 3883,
      "pull": 3884,
      "itting": 3885,
      "continued": 3886,
      "eating": 3887,
      "asks": 3888,
      "kn": 3889,
      "promised": 3890,
      "secret": 3891,
      "pieces": 3892,
      "pig": 3893,
      "dri": 3894,
      "pudd": 3895,
      "snack": 3896,
      "ship": 3897,
      "realized": 3898,
      "moved": 3899,
      "enough": 3900,
      "ible": 3901,
      "sel": 3902,
      "bite": 3903,
      "des": 3904,
      "phone": 3905,
      "drag": 3906,
      "carefully": 3907,
      "which": 3908,
      "cow": 3909,
      "Jim": 3910,
      "jar": 3911,
      "chool": 3912,
      "rolled": 3913,
      "Some": 3914,
      "roll": 3915,
      "mud": 3916,
      "sail": 3917,
      "money": 3918,
      "bas": 3919,
      "crying": 3920,
      "blan": 3921,
      "count": 3922,
      "drink": 3923,
      "Jen": 3924,
      "bath": 3925,
      "blanket": 3926,
      "school": 3927,
      "soup": 3928,
      "part": 3929,
      "throw": 3930,
      "getting": 3931,
      "cho": 3932,
      "push": 3933,
      "net": 3934,
      "imi": 3935,
      "laughing": 3936,
      "ng": 3937,
      "snake": 3938,
      "stoo": 3939,
      "years": 3940,
      "Mimi": 3941,
      "hor": 3942,
      "boun": 3943,
      "same": 3944,
      "fairy": 3945,
      "Bl": 3946,
      "morning": 3947,
      "crab": 3948,
      "past": 3949,
      "amazing": 3950,
      "su": 3951,
      "purple": 3952,
      "road": 3953,
      "bottle": 3954,
      "doctor": 3955,
      "ises": 3956,
      "pping": 3957,
      "..": 3958,
      "gift": 3959,
      "plant": 3960,
      "mail": 3961,
      "grandma": 3962,
      "brown": 3963,
      "va": 3964,
      "closed": 3965,
      "welcome": 3966,
      "monkey": 3967,
      "barked": 3968,
      "living": 3969,
      "wagged": 3970,
      "owner": 3971,
      "sitting": 3972,
      "lone": 3973,
      "days": 3974,
      "stood": 3975,
      "higher": 3976,
      "strange": 3977,
      "belie": 3978,
      "smo": 3979,
      "start": 3980,
      "mind": 3981,
      "comfor": 3982,
      "shop": 3983,
      "candy": 3984,
      "dangerous": 3985,
      "letter": 3986,
      "treasure": 3987,
      "creat": 3988,
      "cks": 3989,
      "wards": 3990,
      ".”": 3991,
      "lonely": 3992,
      "!”": 3993,
      "egg": 3994,
      "talking": 3995,
      "icy": 3996,
      "apples": 3997,
      "shining": 3998,
      "fan": 3999,
      "una": 4000,
      "caught": 4001,
      "paw": 4002,
      "shoes": 4003,
      "coat": 4004,
      "lake": 4005,
      "althy": 4006,
      "runs": 4007,
      "chee": 4008,
      "mine": 4009,
      "basket": 4010,
      "ches": 4011,
      "cour": 4012,
      "hu": 4013,
      "di": 4014,
      "Fred": 4015,
      "pol": 4016,
      "val": 4017,
      "wings": 4018,
      "answ": 4019,
      "gentle": 4020,
      "nee": 4021,
      "dragon": 4022,
      "Good": 4023,
      "vill": 4024,
      "bring": 4025,
      "sear": 4026,
      "Emma": 4027,
      "arri": 4028,
      "idge": 4029,
      "uni": 4030,
      "nose": 4031,
      "ming": 4032,
      "unch": 4033,
      "thinks": 4034,
      "licious": 4035,
      "igg": 4036,
      "fil": 4037,
      "fit": 4038,
      "herself": 4039,
      "ben": 4040,
      "cor": 4041,
      "delicious": 4042,
      "coll": 4043,
      "puddle": 4044,
      "farmer": 4045,
      "lay": 4046,
      "cal": 4047,
      "teddy": 4048,
      "Go": 4049,
      "20": 4050,
      "Molly": 4051,
      "Whis": 4052,
      "trou": 4053,
      "press": 4054,
      "finally": 4055,
      "Together": 4056,
      "If": 4057,
      "singing": 4058,
      "scream": 4059,
      "kis": 4060,
      "band": 4061,
      "word": 4062,
      "cray": 4063,
      "kite": 4064,
      "Blue": 4065,
      "rope": 4066,
      "num": 4067,
      "belong": 4068,
      "shell": 4069,
      "last": 4070,
      "wore": 4071,
      "hoped": 4072,
      "tasty": 4073,
      "pack": 4074,
      "ier": 4075,
      "19": 4076,
      "course": 4077,
      "vel": 4078,
      "swings": 4079,
      "kers": 4080,
      "ade": 4081,
      "bell": 4082,
      "Bell": 4083,
      "att": 4084,
      "bush": 4085,
      "woke": 4086,
      "dropped": 4087,
      "teach": 4088,
      "power": 4089,
      "teac": 4090,
      "carrot": 4091,
      "ughty": 4092,
      "ity": 4093,
      "eleph": 4094,
      "ast": 4095,
      "naughty": 4096,
      "How": 4097,
      "mach": 4098,
      "Whiskers": 4099,
      "gen": 4100,
      "street": 4101,
      "Their": 4102,
      "pile": 4103,
      "heart": 4104,
      "pop": 4105,
      "kno": 4106,
      "isa": 4107,
      "hiding": 4108,
      "irth": 4109,
      "ions": 4110,
      "touc": 4111,
      "St": 4112,
      "Mark": 4113,
      "ped": 4114,
      "Bella": 4115,
      "Remy": 4116,
      "eas": 4117,
      "village": 4118,
      "few": 4119,
      "Pe": 4120,
      "grew": 4121,
      "puppy": 4122,
      "twins": 4123,
      "llie": 4124,
      "sack": 4125,
      "lunch": 4126,
      "spin": 4127,
      "fused": 4128,
      "shad": 4129,
      "orm": 4130,
      "Lisa": 4131,
      "cing": 4132,
      "loom": 4133,
      "shapes": 4134,
      "Grandma": 4135,
      "cheered": 4136,
      "dist": 4137,
      "shelf": 4138,
      "shook": 4139,
      "juice": 4140,
      "rainbow": 4141,
      "fence": 4142,
      "irthday": 4143,
      "nut": 4144,
      "carry": 4145,
      "ring": 4146,
      "bench": 4147,
      "tea": 4148,
      "mil": 4149,
      "touched": 4150,
      "cute": 4151,
      "cheese": 4152,
      "ntain": 4153,
      "lice": 4154,
      "wand": 4155,
      "arrived": 4156,
      "balls": 4157,
      "Jill": 4158,
      "seed": 4159,
      "lla": 4160,
      "teacher": 4161,
      "young": 4162,
      "Ro": 4163,
      "wra": 4164,
      "blem": 4165,
      "believe": 4166,
      "life": 4167,
      "cer": 4168,
      "late": 4169,
      "forever": 4170,
      "problem": 4171,
      "appeared": 4172,
      "ps": 4173,
      "sounds": 4174,
      "promise": 4175,
      "irt": 4176,
      "rm": 4177,
      "bugs": 4178,
      "io": 4179,
      "suc": 4180,
      "wonderful": 4181,
      "bread": 4182,
      "birthday": 4183,
      "busy": 4184,
      "neck": 4185,
      "towards": 4186,
      "dolls": 4187,
      "shy": 4188,
      "milk": 4189,
      "feels": 4190,
      "pocket": 4191,
      "cir": 4192,
      "coun": 4193,
      "hing": 4194,
      "robot": 4195,
      "storm": 4196,
      "slowly": 4197,
      "seek": 4198,
      "add": 4199,
      "shake": 4200,
      "quest": 4201,
      "meet": 4202,
      "patient": 4203,
      "ider": 4204,
      "holding": 4205,
      "cave": 4206,
      "ney": 4207,
      "helpful": 4208,
      "driver": 4209,
      "umpy": 4210,
      "ull": 4211,
      "cord": 4212,
      "au": 4213,
      "berries": 4214,
      "ugly": 4215,
      "era": 4216,
      "though": 4217,
      "seat": 4218,
      "elephant": 4219,
      "organ": 4220,
      "uce": 4221,
      "upset": 4222,
      "miss": 4223,
      "foot": 4224,
      "note": 4225,
      "stories": 4226,
      "den": 4227,
      "kitten": 4228,
      "honey": 4229,
      "sharp": 4230,
      "Sure": 4231,
      "ates": 4232,
      "act": 4233,
      "splash": 4234,
      "Ann": 4235,
      "ek": 4236,
      "Later": 4237,
      "spark": 4238,
      "mist": 4239,
      "bat": 4240,
      "horse": 4241,
      "gray": 4242,
      "zoom": 4243,
      "noises": 4244,
      "sent": 4245,
      "Leo": 4246,
      "dirt": 4247,
      "shr": 4248,
      "ucket": 4249,
      "bucket": 4250,
      "fold": 4251,
      "ars": 4252,
      "bled": 4253,
      "jour": 4254,
      "taking": 4255,
      "hang": 4256,
      "shine": 4257,
      "amazed": 4258,
      "spoon": 4259,
      "turtle": 4260,
      "glow": 4261,
      "treats": 4262,
      "change": 4263,
      "wild": 4264,
      "comfortable": 4265,
      "magical": 4266,
      "irp": 4267,
      "bru": 4268,
      "Of": 4269,
      "sug": 4270,
      "lemon": 4271,
      "Mama": 4272,
      "such": 4273,
      "stars": 4274,
      "clot": 4275,
      "sandw": 4276,
      "oose": 4277,
      "sli": 4278,
      "ward": 4279,
      "Bu": 4280,
      "rich": 4281,
      "organiz": 4282,
      "wheel": 4283,
      "iling": 4284,
      "comes": 4285,
      "wide": 4286,
      "cannot": 4287,
      "pan": 4288,
      "vie": 4289,
      "princess": 4290,
      "puzz": 4291,
      "cloth": 4292,
      "instead": 4293,
      "gy": 4294,
      "Mary": 4295,
      "With": 4296,
      "ife": 4297,
      "body": 4298,
      "Daddy": 4299,
      "ye": 4300,
      "coin": 4301,
      "cookie": 4302,
      "bone": 4303,
      "deli": 4304,
      "picy": 4305,
      "drove": 4306,
      "hugs": 4307,
      "string": 4308,
      "rude": 4309,
      "lucky": 4310,
      "da": 4311,
      "rad": 4312,
      "huge": 4313,
      "fighting": 4314,
      "inv": 4315,
      "Cat": 4316,
      "card": 4317,
      "ned": 4318,
      "path": 4319,
      "pra": 4320,
      "craw": 4321,
      "ert": 4322,
      "spicy": 4323,
      "Hey": 4324,
      "sage": 4325,
      "sick": 4326,
      "inte": 4327,
      "roar": 4328,
      "line": 4329,
      "step": 4330,
      "gest": 4331,
      "bubb": 4332,
      "erry": 4333,
      "songs": 4334,
      "tie": 4335,
      "circle": 4336,
      "known": 4337,
      "resting": 4338,
      "thin": 4339,
      "whistle": 4340,
      "ined": 4341,
      "fixed": 4342,
      "spider": 4343,
      "moon": 4344,
      "bri": 4345,
      "peace": 4346,
      "pillow": 4347,
      "suddenly": 4348,
      "later": 4349,
      "child": 4350,
      "snowman": 4351,
      "fing": 4352,
      "wave": 4353,
      "sour": 4354,
      "wing": 4355,
      "port": 4356,
      "Luna": 4357,
      "forget": 4358,
      "drive": 4359,
      "giant": 4360,
      "taste": 4361,
      "boss": 4362,
      "write": 4363,
      "joke": 4364,
      "machine": 4365,
      "worm": 4366,
      "dest": 4367,
      "trip": 4368,
      "grumpy": 4369,
      "across": 4370,
      "takes": 4371,
      "nothing": 4372,
      "van": 4373,
      "hero": 4374,
      "myster": 4375,
      "grab": 4376,
      "wasn": 4377,
      "hidden": 4378,
      "kin": 4379,
      "landed": 4380,
      "daddy": 4381,
      "Chirp": 4382,
      "confused": 4383,
      "covered": 4384,
      "chased": 4385,
      "smooth": 4386,
      "seemed": 4387,
      "tom": 4388,
      "sol": 4389,
      "test": 4390,
      "ont": 4391,
      "fruits": 4392,
      "hope": 4393,
      "adventures": 4394,
      "wom": 4395,
      "cage": 4396,
      "emp": 4397,
      "stepped": 4398,
      "whole": 4399,
      "missed": 4400,
      "ashed": 4401,
      "log": 4402,
      "oven": 4403,
      "drew": 4404,
      "selfish": 4405,
      "along": 4406,
      "sheep": 4407,
      "ban": 4408,
      "ggy": 4409,
      "rank": 4410,
      "ually": 4411,
      "form": 4412,
      "elly": 4413,
      "law": 4414,
      "messy": 4415,
      "sticks": 4416,
      "ained": 4417,
      "bought": 4418,
      "loves": 4419,
      "grate": 4420,
      "Momo": 4421,
      "tu": 4422,
      "prote": 4423,
      "legs": 4424,
      "wash": 4425,
      "arms": 4426,
      "Chirpy": 4427,
      "Where": 4428,
      "empty": 4429,
      "?”": 4430,
      "grateful": 4431,
      "Ollie": 4432,
      "beak": 4433,
      "drum": 4434,
      "Here": 4435,
      "ducks": 4436,
      "save": 4437,
      "feather": 4438,
      "slid": 4439,
      "Bunny": 4440,
      "tory": 4441,
      "Jerry": 4442,
      "zoo": 4443,
      "sleepy": 4444,
      "bur": 4445,
      "Doggy": 4446,
      "clever": 4447,
      "person": 4448,
      "finish": 4449,
      "Help": 4450,
      "chick": 4451,
      "plate": 4452,
      "interesting": 4453,
      "watching": 4454,
      "Mum": 4455,
      "Jimmy": 4456,
      "faces": 4457,
      "pri": 4458,
      "ipp": 4459,
      "rubb": 4460,
      "dogs": 4461,
      "smelly": 4462,
      "201": 4463,
      "og": 4464,
      "clouds": 4465,
      "izzy": 4466,
      "fancy": 4467,
      "pin": 4468,
      "front": 4469,
      "wolf": 4470,
      "lex": 4471,
      "pract": 4472,
      "mir": 4473,
      "banan": 4474,
      "trouble": 4475,
      "izz": 4476,
      "scre": 4477,
      "longer": 4478,
      "gives": 4479,
      "ness": 4480,
      "ones": 4481,
      "working": 4482,
      "woman": 4483,
      "easy": 4484,
      "spray": 4485,
      "backyard": 4486,
      "number": 4487,
      "cape": 4488,
      "large": 4489,
      "stair": 4490,
      "imag": 4491,
      "est": 4492,
      "queen": 4493,
      "hone": 4494,
      "healthy": 4495,
      "iting": 4496,
      "rocket": 4497,
      "ina": 4498,
      "colle": 4499,
      "neigh": 4500,
      "Are": 4501,
      "puzzle": 4502,
      "pool": 4503,
      "jewel": 4504,
      "maybe": 4505,
      "tid": 4506,
      "anyone": 4507,
      "cross": 4508,
      "jelly": 4509,
      "wondered": 4510,
      "daught": 4511,
      "fake": 4512,
      "crayons": 4513,
      "these": 4514,
      "Bird": 4515,
      "weak": 4516,
      "Un": 4517,
      "saved": 4518,
      "Will": 4519,
      "honest": 4520,
      "ult": 4521,
      "ending": 4522,
      "prince": 4523,
      "daughter": 4524,
      "Bobby": 4525,
      "shirt": 4526,
      "shout": 4527,
      "hello": 4528,
      "Me": 4529,
      "berry": 4530,
      "calm": 4531,
      "lift": 4532,
      "bal": 4533,
      "barr": 4534,
      "bossy": 4535,
      "waiting": 4536,
      "kick": 4537,
      "smelled": 4538,
      "embarr": 4539,
      "coo": 4540,
      "ugg": 4541,
      "plants": 4542,
      "true": 4543,
      "match": 4544,
      "puts": 4545,
      "tidy": 4546,
      "cheer": 4547,
      "onto": 4548,
      "gently": 4549,
      "embarrass": 4550,
      "erly": 4551,
      "sco": 4552,
      "mistake": 4553,
      "raid": 4554,
      "bridge": 4555,
      "stret": 4556,
      "explor": 4557,
      "pointed": 4558,
      "bul": 4559,
      "fear": 4560,
      "cri": 4561,
      "cozy": 4562,
      "aser": 4563,
      "Your": 4564,
      "forgive": 4565,
      "afraid": 4566,
      "ado": 4567,
      "lead": 4568,
      "places": 4569,
      "yog": 4570,
      "building": 4571,
      "jumping": 4572,
      "nic": 4573,
      "case": 4574,
      "TV": 4575,
      "lovely": 4576,
      "eth": 4577,
      "morrow": 4578,
      "chicken": 4579,
      "ror": 4580,
      "Stop": 4581,
      "search": 4582,
      "tomorrow": 4583,
      "ual": 4584,
      "answer": 4585,
      "tele": 4586,
      "stir": 4587,
      "ladder": 4588,
      "success": 4589,
      "matter": 4590,
      "dish": 4591,
      "Br": 4592,
      "hin": 4593,
      "lown": 4594,
      "ute": 4595,
      "couch": 4596,
      "asha": 4597,
      "goes": 4598,
      "flag": 4599,
      "deer": 4600,
      "protect": 4601,
      "respec": 4602,
      "gather": 4603,
      "ipe": 4604,
      "sup": 4605,
      "eag": 4606,
      "Tiny": 4607,
      "clear": 4608,
      "cleaned": 4609,
      "fli": 4610,
      "gold": 4611,
      "teeth": 4612,
      "ling": 4613,
      "ail": 4614,
      "sandwich": 4615,
      "pretended": 4616,
      "bounce": 4617,
      "Who": 4618,
      "pizz": 4619,
      "boring": 4620,
      "sold": 4621,
      "ident": 4622,
      "dig": 4623,
      "vous": 4624,
      "pens": 4625,
      "swimming": 4626,
      "scarf": 4627,
      "jog": 4628,
      "ashamed": 4629,
      "film": 4630,
      "furry": 4631,
      "team": 4632,
      "screamed": 4633,
      "splashed": 4634,
      "motor": 4635,
      "gun": 4636,
      "ls": 4637,
      "lazy": 4638,
      "powerful": 4639,
      "shes": 4640,
      "igin": 4641,
      "wrote": 4642,
      "brush": 4643,
      "trust": 4644,
      "pizza": 4645,
      "Sometimes": 4646,
      "Benny": 4647,
      "men": 4648,
      "nearby": 4649,
      "wha": 4650,
      "ero": 4651,
      "class": 4652,
      "poor": 4653,
      "ours": 4654,
      "shadow": 4655,
      "present": 4656,
      "clown": 4657,
      "chocol": 4658,
      "ason": 4659,
      "wearing": 4660,
      "polite": 4661,
      "nervous": 4662,
      "Ducky": 4663,
      "mic": 4664,
      "Se": 4665,
      "become": 4666,
      "creative": 4667,
      "feet": 4668,
      "smiling": 4669,
      "noisy": 4670,
      "cand": 4671,
      "rod": 4672,
      "ten": 4673,
      "respect": 4674,
      "origin": 4675,
      "hose": 4676,
      "carried": 4677,
      "impress": 4678,
      "Bear": 4679,
      "ham": 4680,
      "Give": 4681,
      "tent": 4682,
      "saur": 4683,
      "drank": 4684,
      "chocolate": 4685,
      "itter": 4686,
      "map": 4687,
      "vide": 4688,
      "jam": 4689,
      "tries": 4690,
      "group": 4691,
      "whale": 4692,
      "osaur": 4693,
      "hur": 4694,
      "rare": 4695,
      "mirror": 4696,
      "gate": 4697,
      "aw": 4698,
      "knee": 4699,
      "rough": 4700,
      "iver": 4701,
      "inc": 4702,
      "dinosaur": 4703,
      "event": 4704,
      "icked": 4705,
      "pensive": 4706,
      "fat": 4707,
      "ased": 4708,
      "march": 4709,
      "mysterious": 4710,
      "soap": 4711,
      "pay": 4712,
      "bald": 4713,
      "expensive": 4714,
      "pace": 4715,
      "balloons": 4716,
      "pump": 4717,
      "ray": 4718,
      "wake": 4719,
      "boot": 4720,
      "oppy": 4721,
      "cele": 4722,
      "journey": 4723,
      "weird": 4724,
      "lose": 4725,
      "sors": 4726,
      "record": 4727,
      "snee": 4728,
      "mel": 4729,
      "celebr": 4730,
      "eld": 4731,
      "tape": 4732,
      "crown": 4733,
      "issors": 4734,
      "generous": 4735,
      "sque": 4736,
      "towel": 4737,
      "mountain": 4738,
      "micro": 4739,
      "kiss": 4740,
      "sugar": 4741,
      "fic": 4742,
      "dancing": 4743,
      "Ella": 4744,
      "andpa": 4745,
      "four": 4746,
      "dizzy": 4747,
      "Andy": 4748,
      "chew": 4749,
      "lin": 4750,
      "print": 4751,
      "chase": 4752,
      "usual": 4753,
      "dead": 4754,
      "Little": 4755,
      ".[": 4756,
      "famous": 4757,
      "pread": 4758,
      "gas": 4759,
      "embarrassed": 4760,
      "picnic": 4761,
      "blow": 4762,
      "peaceful": 4763,
      "decor": 4764,
      "fine": 4765,
      "clock": 4766,
      "order": 4767,
      "scissors": 4768,
      "stairs": 4769,
      "oop": 4770,
      "bean": 4771,
      "yelled": 4772,
      "tasted": 4773,
      "relie": 4774,
      "spread": 4775,
      "lamp": 4776,
      "glue": 4777,
      "locked": 4778,
      "norm": 4779,
      "wouldn": 4780,
      "closet": 4781,
      "ul": 4782,
      "anc": 4783,
      "collect": 4784,
      "space": 4785,
      "hel": 4786,
      "glass": 4787,
      "terri": 4788,
      "drawing": 4789,
      "scare": 4790,
      "painted": 4791,
      "corner": 4792,
      "exam": 4793,
      "mixed": 4794,
      "ond": 4795,
      "cher": 4796,
      "ular": 4797,
      "eng": 4798,
      "sell": 4799,
      "breath": 4800,
      "pair": 4801,
      "thick": 4802,
      "ignor": 4803,
      "gust": 4804,
      "normal": 4805,
      "pray": 4806,
      "vase": 4807,
      "lace": 4808,
      "bake": 4809,
      "ler": 4810,
      "knocked": 4811,
      "shark": 4812,
      "getable": 4813,
      "Jenny": 4814,
      "chang": 4815,
      "tun": 4816,
      "fool": 4817,
      "pir": 4818,
      "vegetable": 4819,
      "kicked": 4820,
      "incred": 4821,
      "guess": 4822,
      "fright": 4823,
      "mighty": 4824,
      "Rex": 4825,
      "ancient": 4826,
      "...": 4827,
      "Mar": 4828,
      "elderly": 4829,
      "movie": 4830,
      "rat": 4831,
      "bers": 4832,
      "umble": 4833,
      "nail": 4834,
      "ighed": 4835,
      "understood": 4836,
      "cone": 4837,
      "incredible": 4838,
      "owed": 4839,
      "neighbor": 4840,
      "balance": 4841,
      "chest": 4842,
      "branches": 4843,
      "frag": 4844,
      "yal": 4845,
      "alous": 4846,
      "frustr": 4847,
      "whisper": 4848,
      "organized": 4849,
      "creature": 4850,
      "feed": 4851,
      "supp": 4852,
      "cil": 4853,
      "measure": 4854,
      "jealous": 4855,
      "moms": 4856,
      "spent": 4857,
      "sock": 4858,
      "horn": 4859,
      "Sammy": 4860,
      "Zoom": 4861,
      "ipped": 4862,
      "selves": 4863,
      "shoe": 4864,
      "police": 4865,
      "ize": 4866,
      "cart": 4867,
      "fier": 4868,
      "original": 4869,
      "dle": 4870,
      "ato": 4871,
      "cab": 4872,
      "stri": 4873,
      "char": 4874,
      "square": 4875,
      "wis": 4876,
      "taught": 4877,
      "fragile": 4878,
      "yarn": 4879,
      "stubb": 4880,
      "twist": 4881,
      "stubborn": 4882,
      "iness": 4883,
      "bark": 4884,
      "frustrated": 4885,
      "rose": 4886,
      "cube": 4887,
      "mid": 4888,
      "iger": 4889,
      "fierce": 4890,
      "frightened": 4891,
      "eggs": 4892,
      "spoiled": 4893,
      "ilt": 4894,
      "relieved": 4895,
      "finding": 4896,
      "useful": 4897,
      "tells": 4898,
      "diffic": 4899,
      "straw": 4900,
      "iss": 4901,
      "difficult": 4902,
      "goat": 4903,
      "foolish": 4904,
      "ugh": 4905,
      "unique": 4906,
      "barn": 4907,
      "mato": 4908,
      "clay": 4909,
      "waves": 4910,
      "wagon": 4911,
      "unusual": 4912,
      "wrap": 4913,
      "pumpkin": 4914,
      "cabin": 4915,
      "tomato": 4916,
      "dug": 4917,
      "cate": 4918,
      "dull": 4919,
      "exploring": 4920,
      "orry": 4921,
      "clum": 4922,
      "gigg": 4923,
      "hears": 4924,
      "vol": 4925,
      "tough": 4926,
      "dge": 4927,
      "son": 4928,
      "soar": 4929,
      "unknown": 4930,
      "clumsy": 4931,
      "necklace": 4932,
      "washed": 4933,
      "os": 4934,
      "finger": 4935,
      "searched": 4936,
      "bitter": 4937,
      "asking": 4938,
      "changed": 4939,
      "sca": 4940,
      "bubbles": 4941,
      "une": 4942,
      "island": 4943,
      "gloom": 4944,
      "nosy": 4945,
      "res": 4946,
      "witch": 4947,
      "cro": 4948,
      "bathroom": 4949,
      "sword": 4950,
      "paws": 4951,
      "yourself": 4952,
      "epend": 4953,
      "guit": 4954,
      "crazy": 4955,
      "stat": 4956,
      "sil": 4957,
      "terrible": 4958,
      "season": 4959,
      "Today": 4960,
      "moving": 4961,
      "shoot": 4962,
      "acked": 4963,
      "joined": 4964,
      "clap": 4965,
      "agree": 4966,
      "meal": 4967,
      "rise": 4968,
      "lim": 4969,
      "thankful": 4970,
      "almost": 4971,
      "swan": 4972,
      "cane": 4973,
      "bloom": 4974,
      "Many": 4975,
      "value": 4976,
      "Sorry": 4977,
      "jet": 4978,
      "father": 4979,
      "pencil": 4980,
      "stage": 4981,
      "Brown": 4982,
      "gloomy": 4983,
      "del": 4984,
      "iant": 4985,
      "guitar": 4986,
      "lif": 4987,
      "loyal": 4988,
      "mark": 4989,
      "market": 4990,
      "yours": 4991,
      "cats": 4992,
      "wealthy": 4993,
      "taken": 4994,
      "cap": 4995,
      "Ted": 4996,
      "heal": 4997,
      "knowing": 4998,
      "may": 4999,
      "independ": 5000,
      "coura": 5001,
      "zip": 5002,
      "dep": 5003,
      "shore": 5004,
      "adm": 5005,
      "dove": 5006,
      "anut": 5007,
      "nuts": 5008,
      "enorm": 5009,
      "tem": 5010,
      "flash": 5011,
      "host": 5012,
      "Tr": 5013,
      "tiger": 5014,
      "using": 5015,
      "potato": 5016,
      "salad": 5017,
      "design": 5018,
      "medic": 5019,
      "uring": 5020,
      "asleep": 5021,
      "enormous": 5022,
      "smaller": 5023,
      "remind": 5024,
      "thirst": 5025,
      "flex": 5026,
      "Instead": 5027,
      "upid": 5028,
      "knife": 5029,
      "verse": 5030,
      "stuff": 5031,
      "exciting": 5032,
      "cheap": 5033,
      "hairy": 5034,
      "liz": 5035,
      "middle": 5036,
      "built": 5037,
      "marble": 5038,
      "news": 5039,
      "Peter": 5040,
      "pepper": 5041,
      "solve": 5042,
      "sunshine": 5043,
      "delicate": 5044,
      "hats": 5045,
      "page": 5046,
      "spring": 5047,
      "rane": 5048,
      "bored": 5049,
      "brill": 5050,
      "tho": 5051,
      "trick": 5052,
      "frown": 5053,
      "Ow": 5054,
      "urous": 5055,
      "disgust": 5056,
      "acorn": 5057,
      "adventurous": 5058,
      "ungle": 5059,
      "brilliant": 5060,
      "pal": 5061,
      "counted": 5062,
      "flexible": 5063,
      "fig": 5064,
      "stupid": 5065,
      "suit": 5066,
      "snacks": 5067,
      "thirsty": 5068,
      "See": 5069,
      "standing": 5070,
      "oc": 5071,
      "seeds": 5072,
      "velo": 5073,
      "nods": 5074,
      "explained": 5075,
      "dough": 5076,
      "banana": 5077,
      "jungle": 5078,
      "spit": 5079,
      "flies": 5080,
      "gets": 5081,
      "study": 5082,
      "lean": 5083,
      "mailbox": 5084,
      "Co": 5085,
      "Car": 5086,
      "squee": 5087,
      "hoop": 5088,
      "successful": 5089,
      "ountain": 5090,
      "moder": 5091,
      "rid": 5092,
      "stal": 5093,
      "uli": 5094,
      "independent": 5095,
      "rug": 5096,
      "stones": 5097,
      "obed": 5098,
      "depend": 5099,
      "disgusting": 5100,
      "umbre": 5101,
      "Jake": 5102,
      "oin": 5103,
      "jolly": 5104,
      "comb": 5105,
      "escape": 5106,
      "shiver": 5107,
      "cater": 5108,
      "tern": 5109,
      "dom": 5110,
      "popular": 5111,
      "caterpill": 5112,
      "medicine": 5113,
      "serious": 5114,
      "relax": 5115,
      "Fo": 5116,
      "goose": 5117,
      "vest": 5118,
      "fridge": 5119,
      "harm": 5120,
      "miser": 5121,
      "batter": 5122,
      "stamp": 5123,
      "crane": 5124,
      "ief": 5125,
      "sunflower": 5126,
      "modern": 5127,
      "tion": 5128,
      "passed": 5129,
      "stove": 5130,
      "Emily": 5131,
      "serve": 5132,
      "obedient": 5133,
      "houses": 5134,
      "statue": 5135,
      "quar": 5136,
      "acket": 5137,
      "sighed": 5138,
      "half": 5139,
      "cries": 5140,
      "careless": 5141,
      "oured": 5142,
      "gem": 5143,
      "belt": 5144,
      "giving": 5145,
      "ither": 5146,
      "fla": 5147,
      "avo": 5148,
      "prize": 5149,
      "vegetables": 5150,
      "once": 5151,
      "lid": 5152,
      "brace": 5153,
      "eager": 5154,
      "jeep": 5155,
      "sauce": 5156,
      "arrow": 5157,
      "fearful": 5158,
      "carrots": 5159,
      "web": 5160,
      "popcorn": 5161,
      "gum": 5162,
      "cur": 5163,
      "bedroom": 5164,
      "helmet": 5165,
      "ject": 5166,
      "inky": 5167,
      "city": 5168,
      "caterpillar": 5169,
      "miserable": 5170,
      "edy": 5171,
      "raven": 5172,
      "borrow": 5173,
      "pebb": 5174,
      "jacket": 5175,
      "fountain": 5176,
      "nder": 5177,
      "belonged": 5178,
      "parrot": 5179,
      "hay": 5180,
      "boys": 5181,
      "Even": 5182,
      "peanut": 5183,
      "appoin": 5184,
      "choose": 5185,
      "lit": 5186,
      "cean": 5187,
      "True": 5188,
      "rem": 5189,
      "umbrella": 5190,
      "painting": 5191,
      "bottom": 5192,
      "steal": 5193,
      "pasta": 5194,
      "lifted": 5195,
      "tied": 5196,
      "tax": 5197,
      "comple": 5198,
      "filthy": 5199,
      "tic": 5200,
      "shows": 5201,
      "petit": 5202,
      "mole": 5203,
      "angle": 5204,
      "melon": 5205,
      "fork": 5206,
      "answered": 5207,
      "bracelet": 5208,
      "uth": 5209,
      "scale": 5210,
      "mill": 5211,
      "smoke": 5212,
      "vision": 5213,
      "slipped": 5214,
      "raced": 5215,
      "cam": 5216,
      "ordin": 5217,
      "liable": 5218,
      "impressive": 5219,
      "crack": 5220,
      "Is": 5221,
      "tank": 5222,
      "Dan": 5223,
      "hammer": 5224,
      "pian": 5225,
      "aunt": 5226,
      "wip": 5227,
      "crayon": 5228,
      "dolp": 5229,
      "spotted": 5230,
      "ti": 5231,
      "regu": 5232,
      "thoughtful": 5233,
      "boats": 5234,
      "office": 5235,
      "Mummy": 5236,
      "toast": 5237,
      "grace": 5238,
      "cheerful": 5239,
      "competit": 5240,
      "gara": 5241,
      "ating": 5242,
      "garage": 5243,
      "dependable": 5244,
      "compl": 5245,
      "cod": 5246,
      "crawled": 5247,
      "Lo": 5248,
      "jug": 5249,
      "picks": 5250,
      "ordinary": 5251,
      "piano": 5252,
      "anx": 5253,
      "tears": 5254,
      "vious": 5255,
      "shroom": 5256,
      "aff": 5257,
      "Amer": 5258,
      "codile": 5259,
      "pear": 5260,
      "acc": 5261,
      "gue": 5262,
      "wrapped": 5263,
      "Americ": 5264,
      "hurts": 5265,
      "nel": 5266,
      "mask": 5267,
      "clu": 5268,
      "week": 5269,
      "cco": 5270,
      "eral": 5271,
      "sink": 5272,
      "needs": 5273,
      "happiness": 5274,
      "ature": 5275,
      "reliable": 5276,
      "ocean": 5277,
      "mushroom": 5278,
      "waff": 5279,
      "rub": 5280,
      "ears": 5281,
      "Sus": 5282,
      "rubbed": 5283,
      "hopping": 5284,
      "figure": 5285,
      "squash": 5286,
      "bull": 5287,
      "kissed": 5288,
      "troubled": 5289,
      "regular": 5290,
      "ghost": 5291,
      "meant": 5292,
      "those": 5293,
      "comput": 5294,
      "anxious": 5295,
      "cop": 5296,
      "Al": 5297,
      "humble": 5298,
      "flute": 5299,
      "crystal": 5300,
      "beet": 5301,
      "runk": 5302,
      "engine": 5303,
      "tricks": 5304,
      "opter": 5305,
      "torn": 5306,
      "licopter": 5307,
      "crocodile": 5308,
      "load": 5309,
      "lizard": 5310,
      "diam": 5311,
      "licked": 5312,
      "pige": 5313,
      "asses": 5314,
      "radio": 5315,
      "llip": 5316,
      "helicopter": 5317,
      "disappoin": 5318,
      "llipop": 5319,
      "playful": 5320,
      "uncomfortable": 5321,
      "tube": 5322,
      "helps": 5323,
      "passion": 5324,
      "roy": 5325,
      "speak": 5326,
      "Next": 5327,
      "lollipop": 5328,
      "muff": 5329,
      "weet": 5330,
      "camera": 5331,
      "hun": 5332,
      "sort": 5333,
      "ilty": 5334,
      "pants": 5335,
      "Miss": 5336,
      "taxi": 5337,
      "screen": 5338,
      "intell": 5339,
      "guilty": 5340,
      "shape": 5341,
      "ruined": 5342,
      "candle": 5343,
      "Well": 5344,
      "twig": 5345,
      "forward": 5346,
      "sub": 5347,
      "stretch": 5348,
      "earth": 5349,
      "yet": 5350,
      "tract": 5351,
      "tress": 5352,
      "tire": 5353,
      "isted": 5354,
      "speed": 5355,
      "helpless": 5356,
      "walks": 5357,
      "wire": 5358,
      "pale": 5359,
      "base": 5360,
      "deaf": 5361,
      "accident": 5362,
      "lou": 5363,
      "aero": 5364,
      "quarrel": 5365,
      "lood": 5366,
      "trum": 5367,
      "returned": 5368,
      "cycle": 5369,
      "cted": 5370,
      "rice": 5371,
      "sect": 5372,
      "stream": 5373,
      "intellig": 5374,
      "bees": 5375,
      "coa": 5376,
      "track": 5377,
      "roof": 5378,
      "vio": 5379,
      "question": 5380,
      "computer": 5381,
      "ator": 5382,
      "collar": 5383,
      "polish": 5384,
      "judge": 5385,
      "stum": 5386,
      "dust": 5387,
      "fluffy": 5388,
      "harmless": 5389,
      "sheet": 5390,
      "poured": 5391,
      "persist": 5392,
      "invited": 5393,
      "cact": 5394,
      "Pet": 5395,
      "raft": 5396,
      "pho": 5397,
      "mop": 5398,
      "shade": 5399,
      "het": 5400,
      "tag": 5401,
      "Poppy": 5402,
      "harder": 5403,
      "beetle": 5404,
      "create": 5405,
      "acce": 5406,
      "melt": 5407,
      "trumpet": 5408,
      "Pipp": 5409,
      "spill": 5410,
      "whispered": 5411,
      "mes": 5412,
      "flashlight": 5413,
      "cereal": 5414,
      "tooth": 5415,
      "triangle": 5416,
      "themselves": 5417,
      "questions": 5418,
      "lk": 5419,
      "cado": 5420,
      "ations": 5421,
      "barber": 5422,
      "post": 5423,
      "Bet": 5424,
      "pipe": 5425,
      "phy": 5426,
      "truth": 5427,
      "deter": 5428,
      "diamond": 5429,
      "mug": 5430,
      "scoot": 5431,
      "sle": 5432,
      "Buzz": 5433,
      "disappointed": 5434,
      "libr": 5435,
      "vine": 5436,
      "rode": 5437,
      "mp": 5438,
      "thus": 5439,
      "saying": 5440,
      "az": 5441,
      "five": 5442,
      "cush": 5443,
      "Alice": 5444,
      "thread": 5445,
      "yogurt": 5446,
      "hetti": 5447,
      "aghetti": 5448,
      "guard": 5449,
      "atch": 5450,
      "harsh": 5451,
      "envelo": 5452,
      "cond": 5453,
      "cactus": 5454,
      "azz": 5455,
      "fed": 5456,
      "compassion": 5457,
      "charming": 5458,
      "avocado": 5459,
      "sailed": 5460,
      "deliver": 5461,
      "cano": 5462,
      "salt": 5463,
      "spital": 5464,
      "practiced": 5465,
      "gifted": 5466,
      "icycle": 5467,
      "ey": 5468,
      "lying": 5469,
      "destroy": 5470,
      "restless": 5471,
      "De": 5472,
      "seal": 5473,
      "nod": 5474,
      "ubby": 5475,
      "angel": 5476,
      "persistent": 5477,
      "photo": 5478,
      "bicycle": 5479,
      "stronger": 5480,
      "spaghetti": 5481,
      "seem": 5482,
      "dreams": 5483,
      "football": 5484,
      "planet": 5485,
      "desk": 5486,
      "nur": 5487,
      "Polly": 5488,
      "ccoli": 5489,
      "knot": 5490,
      "numbers": 5491,
      "cocoa": 5492,
      "magnet": 5493,
      "feathers": 5494,
      "turkey": 5495,
      "mitten": 5496,
      "friendship": 5497,
      "pit": 5498,
      "coins": 5499,
      "tunnel": 5500,
      "hospital": 5501,
      "poem": 5502,
      "glove": 5503,
      "wife": 5504,
      "pigeon": 5505,
      "trunk": 5506,
      "envious": 5507,
      "boxes": 5508,
      "wheat": 5509,
      "shrimp": 5510,
      "travel": 5511,
      "intelligent": 5512,
      "cell": 5513,
      "oy": 5514,
      "struc": 5515,
      "attract": 5516,
      "comet": 5517,
      "carpet": 5518,
      "television": 5519,
      "determin": 5520,
      "Rob": 5521,
      "volcano": 5522,
      "spun": 5523,
      "keeper": 5524,
      "sleeping": 5525,
      "eventually": 5526,
      "thief": 5527,
      "chubby": 5528,
      "leo": 5529,
      "aeroplane": 5530,
      "bandage": 5531,
      "bin": 5532,
      "decide": 5533,
      "excite": 5534,
      "ticket": 5535,
      "learning": 5536,
      "soldier": 5537,
      "onion": 5538,
      "essie": 5539,
      "cricket": 5540,
      "sity": 5541,
      "pour": 5542,
      "insect": 5543,
      "broccoli": 5544,
      "ats": 5545,
      "louder": 5546,
      "yaw": 5547,
      "Sp": 5548,
      "forth": 5549,
      "cauli": 5550,
      "curt": 5551,
      "graceful": 5552,
      "catter": 5553,
      "ulu": 5554,
      "alert": 5555,
      "usage": 5556,
      "pebble": 5557,
      "cob": 5558,
      "ignorant": 5559,
      "happening": 5560,
      "celebrate": 5561,
      "scatter": 5562,
      "often": 5563,
      "haircut": 5564,
      "return": 5565,
      "skin": 5566,
      "nament": 5567,
      "grown": 5568,
      "ceed": 5569,
      "uncle": 5570,
      "glasses": 5571,
      "marry": 5572,
      "curtain": 5573,
      "Lulu": 5574,
      "atient": 5575,
      "peach": 5576,
      "pard": 5577,
      "aged": 5578,
      "competitive": 5579,
      "nicely": 5580,
      "eraser": 5581,
      "perform": 5582,
      "nal": 5583,
      "wheels": 5584,
      "sausage": 5585,
      "attractive": 5586,
      "club": 5587,
      "barrel": 5588,
      "parade": 5589,
      "envelope": 5590,
      "cauliflower": 5591,
      "lives": 5592,
      "gri": 5593,
      "ador": 5594,
      "spir": 5595,
      "int": 5596,
      "trap": 5597,
      "dolphin": 5598,
      "inde": 5599,
      "vice": 5600,
      "shut": 5601,
      "walls": 5602,
      "violin": 5603,
      "compassionate": 5604,
      "bulb": 5605,
      "motorcycle": 5606,
      "edge": 5607,
      "hook": 5608,
      "yach": 5609,
      "early": 5610,
      "Bye": 5611,
      "illa": 5612,
      "zzy": 5613,
      "needle": 5614,
      "spell": 5615,
      "bubble": 5616,
      "firework": 5617,
      "homes": 5618,
      "American": 5619,
      "impro": 5620,
      "metal": 5621,
      "added": 5622,
      "Pete": 5623,
      "teas": 5624,
      "leopard": 5625,
      "meat": 5626,
      "pony": 5627,
      "igator": 5628,
      "scooter": 5629,
      "courage": 5630,
      "pole": 5631,
      "yacht": 5632,
      "ito": 5633,
      "distant": 5634,
      "impatient": 5635,
      "bushes": 5636,
      "cli": 5637,
      "view": 5638,
      "ince": 5639,
      "hall": 5640,
      "inclu": 5641,
      "counting": 5642,
      "urch": 5643,
      "super": 5644,
      "Tina": 5645,
      "scr": 5646,
      "cooked": 5647,
      "Birdy": 5648,
      "cushion": 5649,
      "ween": 5650,
      "video": 5651,
      "chain": 5652,
      "purse": 5653,
      "shells": 5654,
      "packed": 5655,
      "sty": 5656,
      "station": 5657,
      "lively": 5658,
      "tro": 5659,
      "steak": 5660,
      "means": 5661,
      "chalk": 5662,
      "biggest": 5663,
      "knows": 5664,
      "comm": 5665,
      "tray": 5666,
      "repe": 5667,
      "adorable": 5668,
      "pengu": 5669,
      "slept": 5670,
      "lery": 5671,
      "crawl": 5672,
      "fre": 5673,
      "short": 5674,
      "celery": 5675,
      "snif": 5676,
      "Mrs": 5677,
      "distur": 5678,
      "stranger": 5679,
      "stic": 5680,
      "kne": 5681,
      "iron": 5682,
      "gor": 5683,
      "enthus": 5684,
      "alligator": 5685,
      "either": 5686,
      "itself": 5687,
      "pattern": 5688,
      "lights": 5689,
      "prune": 5690,
      "behave": 5691,
      "shield": 5692,
      "tool": 5693,
      "radish": 5694,
      "spinning": 5695,
      "cleaning": 5696,
      "against": 5697,
      "complete": 5698,
      "Rose": 5699,
      "between": 5700,
      "por": 5701,
      "separ": 5702,
      "diary": 5703,
      "showing": 5704,
      "support": 5705,
      "nurse": 5706,
      "utes": 5707,
      "bounced": 5708,
      "Or": 5709,
      "Tweet": 5710,
      "falls": 5711,
      "ately": 5712,
      "wiped": 5713,
      "gathered": 5714,
      "eye": 5715,
      "vator": 5716,
      "skip": 5717,
      "steps": 5718,
      "wallet": 5719,
      "dive": 5720,
      "journal": 5721,
      "screw": 5722,
      "laughs": 5723,
      "elevator": 5724,
      "bags": 5725,
      "tap": 5726,
      "armchair": 5727,
      "skipped": 5728,
      "unlock": 5729,
      "goal": 5730,
      "skull": 5731,
      "Susie": 5732,
      "hunter": 5733,
      "plays": 5734,
      "brothers": 5735,
      "drop": 5736,
      "send": 5737,
      "bump": 5738,
      "library": 5739,
      "loudly": 5740,
      "pointing": 5741,
      "jellyfish": 5742,
      "rece": 5743,
      "ense": 5744,
      "bulance": 5745,
      "lime": 5746,
      "suggest": 5747,
      "sweater": 5748,
      "notebook": 5749,
      "loop": 5750,
      "sailor": 5751,
      "ambulance": 5752,
      "People": 5753,
      "modest": 5754,
      "buttons": 5755,
      "folder": 5756,
      "mixer": 5757,
      "pun": 5758,
      "calling": 5759,
      "trucks": 5760,
      "tear": 5761,
      "driving": 5762,
      "herb": 5763,
      "whenever": 5764,
      "playground": 5765,
      "obile": 5766,
      "squito": 5767,
      "cupboard": 5768,
      "decorate": 5769,
      "disappeared": 5770,
      "tummy": 5771,
      "root": 5772,
      "succeed": 5773,
      "ornament": 5774,
      "minutes": 5775,
      "knight": 5776,
      "oby": 5777,
      "Wa": 5778,
      "ribb": 5779,
      "attic": 5780,
      "leton": 5781,
      "split": 5782,
      "determined": 5783,
      "ended": 5784,
      "mosquito": 5785,
      "reading": 5786,
      "novel": 5787,
      "thunder": 5788,
      "package": 5789,
      "coal": 5790,
      "Sunny": 5791,
      "unk": 5792,
      "keleton": 5793,
      "medal": 5794,
      "United": 5795,
      "Did": 5796,
      "cable": 5797,
      "pirate": 5798,
      "church": 5799,
      "wishes": 5800,
      "strawberry": 5801,
      "hipp": 5802,
      "rolling": 5803,
      "sight": 5804,
      "already": 5805,
      "topus": 5806,
      "country": 5807,
      "stack": 5808,
      "golf": 5809,
      "ik": 5810,
      "tomobile": 5811,
      "kindness": 5812,
      "shel": 5813,
      "spend": 5814,
      "basketball": 5815,
      "uel": 5816,
      "poke": 5817,
      "mild": 5818,
      "automobile": 5819,
      "umb": 5820,
      "repair": 5821,
      "Betty": 5822,
      "isto": 5823,
      "tripped": 5824,
      "scope": 5825,
      "adow": 5826,
      "bill": 5827,
      "carto": 5828,
      "ache": 5829,
      "penny": 5830,
      "octopus": 5831,
      "Snow": 5832,
      "math": 5833,
      "iastic": 5834,
      "flame": 5835,
      "hours": 5836,
      "veil": 5837,
      "gn": 5838,
      "chess": 5839,
      "meadow": 5840,
      "spirit": 5841,
      "thinking": 5842,
      "sses": 5843,
      "ply": 5844,
      "vet": 5845,
      "skeleton": 5846,
      "kayak": 5847,
      "?\".": 5848,
      "cups": 5849,
      "enthusiastic": 5850,
      "powder": 5851,
      "fee": 5852,
      "growl": 5853,
      "hive": 5854,
      "drawer": 5855,
      "trem": 5856,
      "frame": 5857,
      "chor": 5858,
      "Ge": 5859,
      "camp": 5860,
      "pine": 5861,
      "Toby": 5862,
      "yoga": 5863,
      "sneeze": 5864,
      "point": 5865,
      "flea": 5866,
      "htub": 5867,
      "bathtub": 5868,
      "switch": 5869,
      "glowing": 5870,
      "handle": 5871,
      "sum": 5872,
      "weep": 5873,
      "otter": 5874,
      "stume": 5875,
      "sla": 5876,
      "costume": 5877,
      "file": 5878,
      "Zip": 5879,
      "hedge": 5880,
      "Bessie": 5881,
      "ison": 5882,
      "fort": 5883,
      "Pippin": 5884,
      "oyster": 5885,
      "drawings": 5886,
      "pil": 5887,
      "beg": 5888,
      "telephone": 5889,
      "sunglasses": 5890,
      "hippo": 5891,
      "oil": 5892,
      "dess": 5893,
      "maze": 5894,
      "managed": 5895,
      "fac": 5896,
      "trophy": 5897,
      "zi": 5898,
      "magaz": 5899,
      "iv": 5900,
      "hotel": 5901,
      "muffin": 5902,
      "hic": 5903,
      "brea": 5904,
      "aky": 5905,
      "pastry": 5906,
      ",”": 5907,
      "message": 5908,
      "Gre": 5909,
      "makeup": 5910,
      "ckey": 5911,
      "shocked": 5912,
      "mattress": 5913,
      "baseball": 5914,
      "offee": 5915,
      "missile": 5916,
      "object": 5917,
      "waffle": 5918,
      "fis": 5919,
      "grapes": 5920,
      "staff": 5921,
      "aid": 5922,
      "Spike": 5923,
      "hockey": 5924,
      "vehic": 5925,
      "series": 5926,
      "Grandpa": 5927,
      "holds": 5928,
      "Would": 5929,
      "cation": 5930,
      "wool": 5931,
      "zebra": 5932,
      "temple": 5933,
      "memor": 5934,
      "pilot": 5935,
      "safely": 5936,
      "Wait": 5937,
      "bathe": 5938,
      "whist": 5939,
      "vend": 5940,
      "cobweb": 5941,
      "ium": 5942,
      "enter": 5943,
      "allowed": 5944,
      "Kim": 5945,
      "spear": 5946,
      "angu": 5947,
      "dic": 5948,
      "avail": 5949,
      "sym": 5950,
      "explain": 5951,
      "microphone": 5952,
      "human": 5953,
      "leash": 5954,
      "barking": 5955,
      "buck": 5956,
      "flour": 5957,
      "arry": 5958,
      "washer": 5959,
      "nature": 5960,
      "pisto": 5961,
      "Before": 5962,
      "slides": 5963,
      "bananas": 5964,
      "size": 5965,
      "gorilla": 5966,
      "anchor": 5967,
      "valu": 5968,
      "giggled": 5969,
      "cooler": 5970,
      "marched": 5971,
      "mint": 5972,
      "factory": 5973,
      "ival": 5974,
      "pee": 5975,
      "cooking": 5976,
      "ga": 5977,
      "quit": 5978,
      "papers": 5979,
      "grandpa": 5980,
      "vendor": 5981,
      "available": 5982,
      "tools": 5983,
      "hanging": 5984,
      "anda": 5985,
      "dessert": 5986,
      "pretending": 5987,
      "coffee": 5988,
      "mas": 5989,
      "seum": 5990,
      "patch": 5991,
      "Teddy": 5992,
      "opens": 5993,
      "burn": 5994,
      "check": 5995,
      "discovered": 5996,
      "battery": 5997,
      "fingers": 5998,
      "laun": 5999,
      "sne": 6000,
      "robe": 6001,
      "organize": 6002,
      "Geor": 6003,
      "telling": 6004,
      "names": 6005,
      "museum": 6006,
      "anguage": 6007,
      "dishwasher": 6008,
      "hino": 6009,
      "silver": 6010,
      "whip": 6011,
      "practice": 6012,
      "imagine": 6013,
      "realised": 6014,
      "notice": 6015,
      "fireman": 6016,
      "Ju": 6017,
      "towers": 6018,
      "reco": 6019,
      "spoke": 6020,
      "laser": 6021,
      "Ru": 6022,
      "reward": 6023,
      "ured": 6024,
      "chim": 6025,
      "excitement": 6026,
      "aches": 6027,
      "trash": 6028,
      "passport": 6029,
      "second": 6030,
      "sandbox": 6031,
      "grill": 6032,
      "ugged": 6033,
      "language": 6034,
      "opera": 6035,
      "wardro": 6036,
      "wardrobe": 6037,
      "Char": 6038,
      "pistol": 6039,
      "lotion": 6040,
      "umber": 6041,
      "picking": 6042,
      "cardboard": 6043,
      "shrink": 6044,
      "oak": 6045,
      "arian": 6046,
      "Bill": 6047,
      "dreamed": 6048,
      "napkin": 6049,
      "rhino": 6050,
      "hurry": 6051,
      "nation": 6052,
      "falling": 6053,
      "doors": 6054,
      "colour": 6055,
      "blackboard": 6056,
      "ase": 6057,
      "listening": 6058,
      "Ho": 6059,
      "fisher": 6060,
      "penguin": 6061,
      "gging": 6062,
      "recogn": 6063,
      "enny": 6064,
      "Red": 6065,
      "chimney": 6066,
      "hut": 6067,
      "aroo": 6068,
      "stumbled": 6069,
      "fauce": 6070,
      "abo": 6071,
      "bury": 6072,
      "angaroo": 6073,
      "ience": 6074,
      "suff": 6075,
      "tornado": 6076,
      "Dolly": 6077,
      "wander": 6078,
      "igloo": 6079,
      "pressed": 6080,
      "juicy": 6081,
      "weigh": 6082,
      "palace": 6083,
      "offered": 6084,
      "Everywhere": 6085,
      "symbo": 6086,
      "States": 6087,
      "magazine": 6088,
      "rake": 6089,
      "raz": 6090,
      "beep": 6091,
      "fastest": 6092,
      "mule": 6093,
      "faucet": 6094,
      "improve": 6095,
      "hanger": 6096,
      "htray": 6097,
      "trail": 6098,
      "kangaroo": 6099,
      "laundry": 6100,
      "blin": 6101,
      "),": 6102,
      "letters": 6103,
      "stretched": 6104,
      "These": 6105,
      "enjoying": 6106,
      "stared": 6107,
      "cabinet": 6108,
      "reinde": 6109,
      "given": 6110,
      "mummy": 6111,
      "boots": 6112,
      "cherries": 6113,
      "snap": 6114,
      "Qu": 6115,
      "spilled": 6116,
      "Ne": 6117,
      "distance": 6118,
      "Pat": 6119,
      "microscope": 6120,
      "fireplace": 6121,
      "Mandy": 6122,
      "aur": 6123,
      "cows": 6124,
      "18": 6125,
      "skirt": 6126,
      "reindeer": 6127,
      "zer": 6128,
      "grand": 6129,
      "tionary": 6130,
      "resist": 6131,
      "ashtray": 6132,
      "complain": 6133,
      "valuable": 6134,
      "fog": 6135,
      "bathrobe": 6136,
      "fuel": 6137,
      "roared": 6138,
      "ceros": 6139,
      "ilet": 6140,
      "calend": 6141,
      "holes": 6142,
      "hate": 6143,
      "rail": 6144,
      "happier": 6145,
      "ost": 6146,
      "mineral": 6147,
      "taller": 6148,
      "lands": 6149,
      "fisherman": 6150,
      "ized": 6151,
      "introd": 6152,
      "axe": 6153,
      "oats": 6154,
      "xy": 6155,
      "Sun": 6156,
      "ination": 6157,
      "toilet": 6158,
      "aced": 6159,
      "above": 6160,
      "climbing": 6161,
      "shamp": 6162,
      "shampoo": 6163,
      "calendar": 6164,
      "reverse": 6165,
      "attach": 6166,
      "bel": 6167,
      "rhinoceros": 6168,
      "perfu": 6169,
      "growing": 6170,
      "Frog": 6171,
      "affe": 6172,
      "cards": 6173,
      "winter": 6174,
      "restaur": 6175,
      "zipper": 6176,
      "stops": 6177,
      "jokes": 6178,
      "dar": 6179,
      "musician": 6180,
      "jewelry": 6181,
      "Alex": 6182,
      "00": 6183,
      "chance": 6184,
      "fest": 6185,
      "summer": 6186,
      "chose": 6187,
      "May": 6188,
      "neat": 6189,
      "hy": 6190,
      "perfume": 6191,
      "jumps": 6192,
      "noon": 6193,
      "dictionary": 6194,
      "lab": 6195,
      "shaking": 6196,
      "sparkly": 6197,
      "razor": 6198,
      "George": 6199,
      "newspaper": 6200,
      "anyway": 6201,
      "creek": 6202,
      "gear": 6203,
      "discover": 6204,
      "zag": 6205,
      "Spe": 6206,
      "vehicle": 6207,
      "extra": 6208,
      "lightning": 6209,
      "separate": 6210,
      "gasped": 6211,
      "restaurant": 6212,
      "leaving": 6213,
      "popped": 6214,
      "model": 6215,
      "alley": 6216,
      "doesn": 6217,
      "Pandy": 6218,
      "pinch": 6219,
      "ction": 6220,
      "unpack": 6221,
      "porch": 6222,
      "festival": 6223,
      "subway": 6224,
      "pleased": 6225,
      "tuna": 6226,
      "belongs": 6227,
      "during": 6228,
      "gym": 6229,
      "sof": 6230,
      "Big": 6231,
      "freezer": 6232,
      "ris": 6233,
      "bikes": 6234,
      "Ouch": 6235,
      "breakfast": 6236,
      "advice": 6237,
      "helper": 6238,
      "tightly": 6239,
      "swinging": 6240,
      "Have": 6241,
      "disturb": 6242,
      "billboard": 6243,
      "blouse": 6244,
      "iches": 6245,
      "alarm": 6246,
      "beef": 6247,
      "igzag": 6248,
      "stirred": 6249,
      "sandwiches": 6250,
      "crib": 6251,
      "Lee": 6252,
      "poon": 6253,
      "trade": 6254,
      "airport": 6255,
      "stickers": 6256,
      "sofa": 6257,
      "bookcase": 6258,
      "pron": 6259,
      "Johnny": 6260,
      "buckle": 6261,
      "weather": 6262,
      "ially": 6263,
      "squirrels": 6264,
      "drain": 6265,
      "butterflies": 6266,
      "Ellie": 6267,
      "mall": 6268,
      "shelter": 6269,
      "swamp": 6270,
      "Dave": 6271,
      "mustache": 6272,
      "rubber": 6273,
      "fant": 6274,
      "chan": 6275,
      "comfort": 6276,
      "soil": 6277,
      "knock": 6278,
      "wine": 6279,
      "cliff": 6280,
      "rules": 6281,
      "incre": 6282,
      "circles": 6283,
      "surf": 6284,
      "lend": 6285,
      "happens": 6286,
      "ines": 6287,
      "asis": 6288,
      "riding": 6289,
      "Pau": 6290,
      "dear": 6291,
      "tutor": 6292,
      "ides": 6293,
      "adium": 6294,
      "sweetie": 6295,
      "ahead": 6296,
      "painter": 6297,
      "resc": 6298,
      "accept": 6299,
      "giraffe": 6300,
      "blueberries": 6301,
      "Bow": 6302,
      "knob": 6303,
      "tease": 6304,
      "frogs": 6305,
      "refused": 6306,
      "Bubb": 6307,
      "rescue": 6308,
      "carrying": 6309,
      "disappear": 6310,
      "ady": 6311,
      "bookshelf": 6312,
      "myself": 6313,
      "junk": 6314,
      "ometer": 6315,
      "waste": 6316,
      "wipe": 6317,
      "fresh": 6318,
      "ding": 6319,
      "display": 6320,
      "trains": 6321,
      "squeeze": 6322,
      "quiz": 6323,
      "uniform": 6324,
      "oasis": 6325,
      "oph": 6326,
      "evening": 6327,
      "lumber": 6328,
      "tub": 6329,
      "task": 6330,
      "dancer": 6331,
      "pedal": 6332,
      "sounded": 6333,
      "poked": 6334,
      "reve": 6335,
      "player": 6336,
      "structure": 6337,
      "nes": 6338,
      "Whe": 6339,
      "peeked": 6340,
      "gain": 6341,
      "nce": 6342,
      "theater": 6343,
      "cent": 6344,
      "yer": 6345,
      "appl": 6346,
      "Boun": 6347,
      "fought": 6348,
      "symbol": 6349,
      "nit": 6350,
      "starts": 6351,
      "For": 6352,
      "Soph": 6353,
      "soc": 6354,
      "admire": 6355,
      "stable": 6356,
      "leaned": 6357,
      "birdcage": 6358,
      "swung": 6359,
      "license": 6360,
      "lawn": 6361,
      "invite": 6362,
      "remove": 6363,
      "rush": 6364,
      "reef": 6365,
      "windows": 6366,
      "history": 6367,
      "dreaming": 6368,
      "strugg": 6369,
      "teaspoon": 6370,
      "oh": 6371,
      "Jazz": 6372,
      "astic": 6373,
      "anywhere": 6374,
      "bent": 6375,
      "older": 6376,
      "meeting": 6377,
      "accidentally": 6378,
      "ded": 6379,
      "erator": 6380,
      "chamber": 6381,
      "planes": 6382,
      "imagined": 6383,
      "vy": 6384,
      "frig": 6385,
      "200": 6386,
      "ceiling": 6387,
      "equ": 6388,
      "dire": 6389,
      "missing": 6390,
      "frigerator": 6391,
      "ener": 6392,
      "panda": 6393,
      "reveal": 6394,
      "shower": 6395,
      "fro": 6396,
      "handed": 6397,
      "pastel": 6398,
      "Buzzy": 6399,
      "rushed": 6400,
      "twir": 6401,
      "suggested": 6402,
      "peek": 6403,
      "refrigerator": 6404,
      "yield": 6405,
      "aked": 6406,
      "therm": 6407,
      "!\".": 6408,
      "caring": 6409,
      "problems": 6410,
      "blinked": 6411,
      "brick": 6412,
      "wea": 6413,
      "warned": 6414,
      "favour": 6415,
      "classroom": 6416,
      "thermometer": 6417,
      "Freddy": 6418,
      "wre": 6419,
      "stadium": 6420,
      "respectful": 6421,
      "monkeys": 6422,
      "delay": 6423,
      "niture": 6424,
      "mit": 6425,
      "King": 6426,
      "finds": 6427,
      "chasing": 6428,
      "pages": 6429,
      "furniture": 6430,
      "surre": 6431,
      "rac": 6432,
      "Event": 6433,
      "apron": 6434,
      "Lola": 6435,
      "choice": 6436,
      "cudd": 6437,
      "lions": 6438,
      "Binky": 6439,
      "sunset": 6440,
      "sport": 6441,
      "spoil": 6442,
      "cuss": 6443,
      "Mike": 6444,
      "lawyer": 6445,
      "frowned": 6446,
      "freeze": 6447,
      "God": 6448,
      "ighted": 6449,
      "uggage": 6450,
      "ribbon": 6451,
      "Eventually": 6452,
      "jail": 6453,
      "mistakes": 6454,
      "zoomed": 6455,
      "shouts": 6456,
      "veter": 6457,
      "Wo": 6458,
      "imed": 6459,
      "steam": 6460,
      "unite": 6461,
      "grape": 6462,
      "luggage": 6463,
      "ostrich": 6464,
      "putting": 6465,
      "weapon": 6466,
      "apo": 6467,
      "2017": 6468,
      "Paul": 6469,
      "Carl": 6470,
      "remain": 6471,
      "searching": 6472,
      "saving": 6473,
      "tick": 6474,
      "gran": 6475,
      "gro": 6476,
      "discuss": 6477,
      "fixing": 6478,
      "prevent": 6479,
      "valley": 6480,
      "sudden": 6481,
      "ony": 6482,
      "regre": 6483,
      "brightly": 6484,
      "Under": 6485,
      "iki": 6486,
      "Hen": 6487,
      "points": 6488,
      "chairs": 6489,
      "written": 6490,
      "En": 6491,
      "recomm": 6492,
      "Wel": 6493,
      "surprises": 6494,
      "pect": 6495,
      "rele": 6496,
      "ranch": 6497,
      "sadly": 6498,
      "veterin": 6499,
      "ricane": 6500,
      "supply": 6501,
      "matches": 6502,
      "raise": 6503,
      "proudly": 6504,
      "favourite": 6505,
      "veterinarian": 6506,
      "suffer": 6507,
      "tour": 6508,
      "Cl": 6509,
      "admired": 6510,
      "Because": 6511,
      "liday": 6512,
      "mand": 6513,
      "argue": 6514,
      "regret": 6515,
      "meas": 6516,
      "Olive": 6517,
      "leak": 6518,
      "puddles": 6519,
      "Speedy": 6520,
      "Mo": 6521,
      "reminded": 6522,
      "mystery": 6523,
      "pushing": 6524,
      "shoulder": 6525,
      "holiday": 6526,
      "excitedly": 6527,
      "Lilly": 6528,
      "ution": 6529,
      "grabs": 6530,
      "prepare": 6531,
      "Ar": 6532,
      "float": 6533,
      "plates": 6534,
      "replace": 6535,
      "Welcome": 6536,
      "Not": 6537,
      "pup": 6538,
      "Su": 6539,
      "castles": 6540,
      "Bubbles": 6541,
      "Ind": 6542,
      "score": 6543,
      "cared": 6544,
      "restore": 6545,
      "since": 6546,
      "parts": 6547,
      "ues": 6548,
      "keeping": 6549,
      "sir": 6550,
      "mission": 6551,
      "image": 6552,
      "harbor": 6553,
      "wigg": 6554,
      "plastic": 6555,
      "superhero": 6556,
      "blood": 6557,
      "poss": 6558,
      "rained": 6559,
      "kinds": 6560,
      "Mag": 6561,
      "heads": 6562,
      "forgave": 6563,
      "ky": 6564,
      "spade": 6565,
      "Henry": 6566,
      "brain": 6567,
      "cartoon": 6568,
      "panic": 6569,
      "sneezed": 6570,
      "served": 6571,
      "delighted": 6572,
      "ignore": 6573,
      "Zoomy": 6574,
      "shovel": 6575,
      "vroom": 6576,
      "pulls": 6577,
      "First": 6578,
      "Sh": 6579,
      "released": 6580,
      "sniffed": 6581,
      "hoping": 6582,
      "rec": 6583,
      "quite": 6584,
      "mention": 6585,
      "softly": 6586,
      "shone": 6587,
      "Dog": 6588,
      "Ready": 6589,
      "socks": 6590,
      "ury": 6591,
      "slipper": 6592,
      "feelings": 6593,
      "thanks": 6594,
      "End": 6595,
      "mechan": 6596,
      "Kiki": 6597,
      "sticker": 6598,
      "offic": 6599,
      "James": 6600,
      "univer": 6601,
      "surrender": 6602,
      "slippery": 6603,
      "tip": 6604,
      "Boo": 6605,
      "dare": 6606,
      "laught": 6607,
      "hon": 6608,
      "hurricane": 6609,
      "died": 6610,
      "Grace": 6611,
      "2018": 6612,
      "][": 6613,
      "provide": 6614,
      "throwing": 6615,
      "laughter": 6616,
      "repeat": 6617,
      "demand": 6618,
      "claw": 6619,
      "Shar": 6620,
      "Bee": 6621,
      "iest": 6622,
      "chickens": 6623,
      "rooms": 6624,
      "Yay": 6625,
      "mechanic": 6626,
      "Danny": 6627,
      "Happ": 6628,
      "infant": 6629,
      "minute": 6630,
      "kneel": 6631,
      "streng": 6632,
      "warning": 6633,
      "colourful": 6634,
      "Harry": 6635,
      "shakes": 6636,
      "poison": 6637,
      "Yuck": 6638,
      "copper": 6639,
      "applau": 6640,
      "alive": 6641,
      "hood": 6642,
      "ptain": 6643,
      "shivering": 6644,
      "sunrise": 6645,
      "six": 6646,
      "Ste": 6647,
      "199": 6648,
      "barks": 6649,
      "beauty": 6650,
      "delight": 6651,
      "unhappy": 6652,
      "universe": 6653,
      "pushes": 6654,
      "strength": 6655,
      "label": 6656,
      "Joey": 6657,
      "apolog": 6658,
      "paid": 6659,
      "following": 6660,
      "ived": 6661,
      "exper": 6662,
      "letting": 6663,
      "erc": 6664,
      "thumb": 6665,
      "nor": 6666,
      "cherry": 6667,
      "smells": 6668,
      "navy": 6669,
      "dishes": 6670,
      "giggle": 6671,
      "lect": 6672,
      "icky": 6673,
      "cakes": 6674,
      "punish": 6675,
      "menu": 6676,
      "Happy": 6677,
      "sings": 6678,
      "starting": 6679,
      "brighter": 6680,
      "ib": 6681,
      "bling": 6682,
      "energy": 6683,
      "university": 6684,
      "bend": 6685,
      "inking": 6686,
      "meowed": 6687,
      "somewhere": 6688,
      "placed": 6689,
      "permit": 6690,
      "sigh": 6691,
      "clapping": 6692,
      "Charlie": 6693,
      "bey": 6694,
      "skill": 6695,
      "sprayed": 6696,
      "crash": 6697,
      "Sophie": 6698,
      "Pr": 6699,
      "New": 6700,
      "Hoppy": 6701,
      "west": 6702,
      "steel": 6703,
      "horses": 6704,
      "entered": 6705,
      "splashing": 6706,
      "expect": 6707,
      "network": 6708,
      "riage": 6709,
      "danger": 6710,
      "believed": 6711,
      "breaks": 6712,
      "invit": 6713,
      "offer": 6714,
      "igi": 6715,
      "sticky": 6716,
      "request": 6717,
      "oper": 6718,
      "iso": 6719,
      "Pa": 6720,
      "allow": 6721,
      "coats": 6722,
      "content": 6723,
      "exerc": 6724,
      "espec": 6725,
      "ms": 6726,
      "Fox": 6727,
      "writing": 6728,
      "eaten": 6729,
      "counter": 6730,
      "greedy": 6731,
      "sen": 6732,
      "pirates": 6733,
      "Gigi": 6734,
      "Sque": 6735,
      "Woof": 6736,
      "wreck": 6737,
      "Annie": 6738,
      "especially": 6739,
      "massage": 6740,
      "settle": 6741,
      "slip": 6742,
      "dam": 6743,
      "heat": 6744,
      "ffic": 6745,
      "strip": 6746,
      "toe": 6747,
      "Mill": 6748,
      "trusted": 6749,
      "raining": 6750,
      "swee": 6751,
      "examine": 6752,
      "Je": 6753,
      "crossed": 6754,
      "ric": 6755,
      "prod": 6756,
      "sou": 6757,
      "grocer": 6758,
      "drops": 6759,
      "rhy": 6760,
      "muscle": 6761,
      "neighb": 6762,
      "throws": 6763,
      "resp": 6764,
      "ah": 6765,
      "vic": 6766,
      "upstairs": 6767,
      "easily": 6768,
      "bears": 6769,
      "racter": 6770,
      "scold": 6771,
      "character": 6772,
      "jogged": 6773,
      "include": 6774,
      "possible": 6775,
      "Snowy": 6776,
      "flood": 6777,
      "crow": 6778,
      "pigs": 6779,
      "sparkled": 6780,
      "fer": 6781,
      "tide": 6782,
      "mare": 6783,
      "ley": 6784,
      "prayed": 6785,
      "Wor": 6786,
      "flapped": 6787,
      "badly": 6788,
      "impressed": 6789,
      "ef": 6790,
      "leather": 6791,
      "yawned": 6792,
      "choo": 6793,
      "shrugged": 6794,
      "theart": 6795,
      "tracks": 6796,
      "bumped": 6797,
      "cheek": 6798,
      "scratch": 6799,
      "Ma": 6800,
      "recommend": 6801,
      "observe": 6802,
      "Lucky": 6803,
      "appro": 6804,
      "Finn": 6805,
      "perfor": 6806,
      "breathe": 6807,
      "Rock": 6808,
      "below": 6809,
      "release": 6810,
      "ents": 6811,
      "squeezed": 6812,
      "vacation": 6813,
      "attent": 6814,
      "further": 6815,
      "calls": 6816,
      "bouncing": 6817,
      "ifi": 6818,
      "episo": 6819,
      "rabbits": 6820,
      "Elly": 6821,
      "created": 6822,
      "rested": 6823,
      "state": 6824,
      "quake": 6825,
      "claws": 6826,
      "shot": 6827,
      "excla": 6828,
      "198": 6829,
      "stra": 6830,
      "sweetheart": 6831,
      "lu": 6832,
      "snugg": 6833,
      "Finny": 6834,
      "strike": 6835,
      "\",": 6836,
      "pted": 6837,
      "stomach": 6838,
      "explored": 6839,
      "ago": 6840,
      "checked": 6841,
      "boo": 6842,
      "hi": 6843,
      "strawberries": 6844,
      "nobody": 6845,
      "sie": 6846,
      "hills": 6847,
      "xygen": 6848,
      "yawn": 6849,
      "Ha": 6850,
      "afternoon": 6851,
      "sandcastle": 6852,
      "increase": 6853,
      "Ke": 6854,
      "hearts": 6855,
      "price": 6856,
      "uced": 6857,
      "spots": 6858,
      "rhyth": 6859,
      "nightmare": 6860,
      "Jan": 6861,
      "Penny": 6862,
      "earthquake": 6863,
      "Sur": 6864,
      "197": 6865,
      "weight": 6866,
      "follows": 6867,
      "Tilly": 6868,
      "winning": 6869,
      "insisted": 6870,
      "worth": 6871,
      "exclaimed": 6872,
      "waving": 6873,
      "dressed": 6874,
      "blowing": 6875,
      "ddy": 6876,
      "twisted": 6877,
      "Maria": 6878,
      "burned": 6879,
      "baking": 6880,
      "blueberry": 6881,
      "safar": 6882,
      "apart": 6883,
      "married": 6884,
      "10": 6885,
      "sting": 6886,
      "daisy": 6887,
      "luck": 6888,
      "bother": 6889,
      "aking": 6890,
      "Con": 6891,
      "ipment": 6892,
      "equipment": 6893,
      "Wed": 6894,
      "soak": 6895,
      "bang": 6896,
      "196": 6897,
      "lor": 6898,
      "safari": 6899,
      "attention": 6900,
      "Goodbye": 6901,
      "prunes": 6902,
      "marriage": 6903,
      "cons": 6904,
      "redient": 6905,
      "shall": 6906,
      "ingredient": 6907,
      "poppy": 6908,
      "Owl": 6909,
      "tch": 6910,
      "wed": 6911,
      "learnt": 6912,
      "introduce": 6913,
      "moves": 6914,
      "napped": 6915,
      "Wednes": 6916,
      "hest": 6917,
      "solved": 6918,
      "planned": 6919,
      "folded": 6920,
      "seeing": 6921,
      "captain": 6922,
      "tremble": 6923,
      "buried": 6924,
      "wisdom": 6925,
      "mem": 6926,
      "ignored": 6927,
      "cated": 6928,
      "traffic": 6929,
      "gers": 6930,
      "Whenever": 6931,
      "style": 6932,
      "tug": 6933,
      "pitch": 6934,
      "ical": 6935,
      "Coco": 6936,
      "ino": 6937,
      "recorded": 6938,
      "Baby": 6939,
      "rhythm": 6940,
      "lip": 6941,
      "heel": 6942,
      "lemonade": 6943,
      "Zara": 6944,
      "rist": 6945,
      "Mor": 6946,
      "Kate": 6947,
      "Dav": 6948,
      "beans": 6949,
      "List": 6950,
      "Dr": 6951,
      "whistled": 6952,
      "racing": 6953,
      "gling": 6954,
      "floated": 6955,
      "mailman": 6956,
      "hopes": 6957,
      "imagination": 6958,
      "Sandy": 6959,
      "shopkeeper": 6960,
      "Follow": 6961,
      "lemons": 6962,
      "backpack": 6963,
      "Pip": 6964,
      "yucky": 6965,
      "Sm": 6966,
      "encourage": 6967,
      "Wednesday": 6968,
      "born": 6969,
      "closely": 6970,
      "Mitten": 6971,
      "Star": 6972,
      "Remember": 6973,
      "mama": 6974,
      "difference": 6975,
      "recognize": 6976,
      "Froggy": 6977,
      "fallen": 6978,
      "gie": 6979,
      "ashion": 6980,
      "candles": 6981,
      "Sharing": 6982,
      "urge": 6983,
      "Mittens": 6984,
      "Squeaky": 6985,
      "medi": 6986,
      "washing": 6987,
      "ores": 6988,
      "slap": 6989,
      "Tony": 6990,
      "teaching": 6991,
      "Bounce": 6992,
      "wags": 6993,
      "palm": 6994,
      "prints": 6995,
      ".'": 6996,
      "Che": 6997,
      "resu": 6998,
      "ingredients": 6999,
      "pulling": 7000,
      "highest": 7001,
      "operation": 7002,
      "oxygen": 7003,
      "suppo": 7004,
      "dresses": 7005,
      "izes": 7006,
      "raised": 7007,
      "inter": 7008,
      "mm": 7009,
      "Sunday": 7010,
      "ideas": 7011,
      "Po": 7012,
      "comp": 7013,
      "exercise": 7014,
      "Millie": 7015,
      "Out": 7016,
      "received": 7017,
      "writ": 7018,
      "ys": 7019,
      "stit": 7020,
      "growled": 7021,
      "fashion": 7022,
      "shouting": 7023,
      "memory": 7024,
      "bab": 7025,
      "igging": 7026,
      "ities": 7027,
      "Ex": 7028,
      "isty": 7029,
      "receive": 7030,
      "llen": 7031,
      "marbles": 7032,
      "creatures": 7033,
      "stern": 7034,
      "zigzag": 7035,
      "quietly": 7036,
      "digging": 7037,
      "chewed": 7038,
      "famil": 7039,
      "Everything": 7040,
      "struggle": 7041,
      "neighbour": 7042,
      "imple": 7043,
      "bouncy": 7044,
      "stem": 7045,
      "17": 7046,
      "Pinky": 7047,
      "ational": 7048,
      "argu": 7049,
      "straight": 7050,
      "deeper": 7051,
      "planted": 7052,
      "gifts": 7053,
      "manage": 7054,
      "grocery": 7055,
      "vanished": 7056,
      "Papa": 7057,
      "scrat": 7058,
      "puzzles": 7059,
      "worms": 7060,
      "peanuts": 7061,
      "wink": 7062,
      "ition": 7063,
      "spike": 7064,
      "lecture": 7065,
      "united": 7066,
      "golden": 7067,
      "underground": 7068,
      "chores": 7069,
      "ruck": 7070,
      "twisty": 7071,
      "snail": 7072,
      "worse": 7073,
      "Liz": 7074,
      "disagree": 7075,
      "Each": 7076,
      "invitation": 7077,
      "result": 7078,
      "Ruby": 7079,
      "members": 7080,
      "acorns": 7081,
      "hers": 7082,
      "jazz": 7083,
      "bones": 7084,
      "Bluey": 7085,
      "Tues": 7086,
      "paused": 7087,
      "ery": 7088,
      "reci": 7089,
      "Fifi": 7090,
      "Nor": 7091,
      "winner": 7092,
      "accepted": 7093,
      "awe": 7094,
      "eagerly": 7095,
      "Uncle": 7096,
      "mediately": 7097,
      "dried": 7098,
      "appreci": 7099,
      "Fe": 7100,
      "hurting": 7101,
      "Kat": 7102,
      "sailing": 7103,
      "uses": 7104,
      "Ab": 7105,
      "petal": 7106,
      "sterday": 7107,
      "emer": 7108,
      "licks": 7109,
      "sizes": 7110,
      "elephants": 7111,
      "landscape": 7112,
      "snuggled": 7113,
      "ging": 7114,
      "sters": 7115,
      "sprink": 7116,
      "mice": 7117,
      "utter": 7118,
      "exit": 7119,
      "begin": 7120,
      "reaches": 7121,
      "prepar": 7122,
      "vanish": 7123,
      "David": 7124,
      "area": 7125,
      "Smith": 7126,
      "Mic": 7127,
      "ooped": 7128,
      "destroyed": 7129,
      "simple": 7130,
      "balan": 7131,
      "Surpr": 7132,
      "iers": 7133,
      "otion": 7134,
      "beha": 7135,
      "ucked": 7136,
      "kisses": 7137,
      "forgotten": 7138,
      "Watch": 7139,
      "beam": 7140,
      "east": 7141,
      "seats": 7142,
      "ups": 7143,
      "comed": 7144,
      "shined": 7145,
      "Wigg": 7146,
      "bricks": 7147,
      "aut": 7148,
      "sorts": 7149,
      "signs": 7150,
      "brings": 7151,
      "Com": 7152,
      "reeze": 7153,
      "lick": 7154,
      "celebrated": 7155,
      "hadn": 7156,
      "fortun": 7157,
      "gazed": 7158,
      "kingdom": 7159,
      "fireworks": 7160,
      "gloves": 7161,
      "Yum": 7162,
      "tain": 7163,
      "wob": 7164,
      "hits": 7165,
      "third": 7166,
      "tomatoes": 7167,
      "Tuesday": 7168,
      "wandered": 7169,
      "Clara": 7170,
      "couraged": 7171,
      ").": 7172,
      "Rosie": 7173,
      "chy": 7174,
      "ica": 7175,
      "muddy": 7176,
      "blink": 7177,
      "trave": 7178,
      "lux": 7179,
      "som": 7180,
      "sits": 7181,
      "scattered": 7182,
      "warn": 7183,
      "wagging": 7184,
      "catching": 7185,
      "rang": 7186,
      "memories": 7187,
      "Spark": 7188,
      "Frank": 7189,
      "pillows": 7190,
      "watered": 7191,
      "petals": 7192,
      "vin": 7193,
      "printer": 7194,
      "Zo": 7195,
      "opin": 7196,
      "none": 7197,
      "treasures": 7198,
      "velvet": 7199,
      "zipped": 7200,
      "pinched": 7201,
      "Like": 7202,
      "meow": 7203,
      "acted": 7204,
      "lung": 7205,
      "tore": 7206,
      "laid": 7207,
      "toes": 7208,
      "sett": 7209,
      "isn": 7210,
      "soccer": 7211,
      "single": 7212,
      "rust": 7213,
      "ashes": 7214,
      "Wiggly": 7215,
      "lips": 7216,
      "easier": 7217,
      "remained": 7218,
      "snapped": 7219,
      "dared": 7220,
      "aded": 7221,
      "cutting": 7222,
      "scolded": 7223,
      "lines": 7224,
      "zero": 7225,
      "oranges": 7226,
      "ruin": 7227,
      "kins": 7228,
      "selling": 7229,
      "pies": 7230,
      "bleed": 7231,
      "experience": 7232,
      "pears": 7233,
      "Ok": 7234,
      "collected": 7235,
      "skills": 7236,
      "attached": 7237,
      "sliding": 7238,
      "Both": 7239,
      "visited": 7240,
      "Hop": 7241,
      "baked": 7242,
      "June": 7243,
      "Maggie": 7244,
      "flat": 7245,
      "By": 7246,
      "World": 7247,
      "soldiers": 7248,
      "surround": 7249,
      "Wally": 7250,
      "immediately": 7251,
      "Day": 7252,
      "climbs": 7253,
      "olive": 7254,
      "blankets": 7255,
      "nowhere": 7256,
      "lets": 7257,
      "Beep": 7258,
      "understanding": 7259,
      "Our": 7260,
      "twirled": 7261,
      "presents": 7262,
      "collection": 7263,
      "weeping": 7264,
      "ague": 7265,
      "voices": 7266,
      "contest": 7267,
      "cus": 7268,
      "kitty": 7269,
      "Slow": 7270,
      "Surprise": 7271,
      "waist": 7272,
      "luxury": 7273,
      "ipping": 7274,
      "padd": 7275,
      "bites": 7276,
      "girls": 7277,
      "mentioned": 7278,
      "nie": 7279,
      "ative": 7280,
      "nies": 7281,
      "seven": 7282,
      "drinking": 7283,
      "Tuna": 7284,
      "sorting": 7285,
      "welcomed": 7286,
      "rance": 7287,
      "works": 7288,
      "unlocked": 7289,
      "bowed": 7290,
      "tongue": 7291,
      "Its": 7292,
      "located": 7293,
      "ments": 7294,
      "Always": 7295,
      "Moral": 7296,
      "printed": 7297,
      "buzz": 7298,
      "spoons": 7299,
      "shouldn": 7300,
      "Mon": 7301,
      "bank": 7302,
      "stitch": 7303,
      "grant": 7304,
      "However": 7305,
      "lined": 7306,
      "breaking": 7307,
      "urged": 7308,
      "singer": 7309,
      "victory": 7310,
      "beat": 7311,
      "floating": 7312,
      "grin": 7313,
      "jogging": 7314,
      "muscles": 7315,
      "ren": 7316,
      "guessed": 7317,
      "measured": 7318,
      "Christ": 7319,
      "perfectly": 7320,
      "War": 7321,
      "marching": 7322,
      "pets": 7323,
      "gover": 7324,
      "supposed": 7325,
      "antly": 7326,
      "beds": 7327,
      "silence": 7328,
      "stuffed": 7329,
      "Suzy": 7330,
      "ising": 7331,
      "Meow": 7332,
      "punished": 7333,
      "!'": 7334,
      "company": 7335,
      "hurried": 7336,
      "eight": 7337,
      "Someone": 7338,
      "tran": 7339,
      "actor": 7340,
      "tonight": 7341,
      "turning": 7342,
      "vi": 7343,
      "ana": 7344,
      "kicking": 7345,
      "izard": 7346,
      "fortunately": 7347,
      "melted": 7348,
      "uture": 7349,
      "olives": 7350,
      ",[": 7351,
      "encouraged": 7352,
      "jewels": 7353,
      "12": 7354,
      "ids": 7355,
      "Love": 7356,
      "ordered": 7357,
      "slice": 7358,
      "die": 7359,
      "obey": 7360,
      "mouths": 7361,
      "fetch": 7362,
      "Stay": 7363,
      "sip": 7364,
      "eday": 7365,
      "trapped": 7366,
      "Rocky": 7367,
      "breeze": 7368,
      "grey": 7369,
      "patterns": 7370,
      "begged": 7371,
      "officer": 7372,
      "fle": 7373,
      "Sky": 7374,
      "len": 7375,
      "pupil": 7376,
      "shadows": 7377,
      "Friend": 7378,
      "Man": 7379,
      "setting": 7380,
      "potatoes": 7381,
      "waffles": 7382,
      "owned": 7383,
      "uke": 7384,
      "drinks": 7385,
      "iam": 7386,
      "prov": 7387,
      "conf": 7388,
      "peaches": 7389,
      "permission": 7390,
      "decis": 7391,
      "invest": 7392,
      "bak": 7393,
      "Toto": 7394,
      "Lou": 7395,
      "icing": 7396,
      "common": 7397,
      "Steve": 7398,
      "settled": 7399,
      "Ray": 7400,
      "twink": 7401,
      "someday": 7402,
      "pres": 7403,
      "applaud": 7404,
      "whose": 7405,
      "flap": 7406,
      "headed": 7407,
      "fields": 7408,
      "future": 7409,
      "Pepper": 7410,
      "text": 7411,
      "Thom": 7412,
      "15": 7413,
      "achie": 7414,
      "bum": 7415,
      "ann": 7416,
      "relaxed": 7417,
      "Ye": 7418,
      "fishing": 7419,
      "ringing": 7420,
      "whistling": 7421,
      "Ear": 7422,
      "costum": 7423,
      "tles": 7424,
      "paints": 7425,
      "glish": 7426,
      "costumes": 7427,
      "cot": 7428,
      "teasing": 7429,
      "proper": 7430,
      "succeeded": 7431,
      "lap": 7432,
      "anna": 7433,
      "colours": 7434,
      "Time": 7435,
      "ol": 7436,
      "gency": 7437,
      "disagreed": 7438,
      "watches": 7439,
      "sorted": 7440,
      "warmth": 7441,
      "leader": 7442,
      "Chicky": 7443,
      "Keep": 7444,
      "moments": 7445,
      "skipping": 7446,
      "roots": 7447,
      "Brit": 7448,
      "Rab": 7449,
      "wizard": 7450,
      "shock": 7451,
      "Milly": 7452,
      "fied": 7453,
      "Rac": 7454,
      "burning": 7455,
      "inch": 7456,
      "youth": 7457,
      "bun": 7458,
      "ilo": 7459,
      "herbs": 7460,
      "crun": 7461,
      "sniff": 7462,
      "struck": 7463,
      "13": 7464,
      "vor": 7465,
      "album": 7466,
      "Something": 7467,
      "threat": 7468,
      "admir": 7469,
      "ene": 7470,
      "Gu": 7471,
      "seas": 7472,
      "ens": 7473,
      "sneak": 7474,
      "Thanks": 7475,
      "napping": 7476,
      "Great": 7477,
      "investig": 7478,
      "esca": 7479,
      "Bug": 7480,
      "trembling": 7481,
      "March": 7482,
      "stamps": 7483,
      "sides": 7484,
      "studied": 7485,
      "ishes": 7486,
      "sisters": 7487,
      "states": 7488,
      "kneeled": 7489,
      "Dino": 7490,
      "cartoons": 7491,
      "Really": 7492,
      "uct": 7493,
      "safety": 7494,
      "16": 7495,
      "prec": 7496,
      "lily": 7497,
      "Hope": 7498,
      "rs": 7499,
      "mixing": 7500,
      "cones": 7501,
      "importance": 7502,
      "strangers": 7503,
      "respons": 7504,
      "motion": 7505,
      "melting": 7506,
      "sidewalk": 7507,
      "ov": 7508,
      "Squ": 7509,
      "revealed": 7510,
      "ud": 7511,
      "Par": 7512,
      "Rabbit": 7513,
      "During": 7514,
      "decorations": 7515,
      "pearl": 7516,
      "Aunt": 7517,
      "Oc": 7518,
      "theirs": 7519,
      "Zigzag": 7520,
      "stirring": 7521,
      "Green": 7522,
      "opinion": 7523,
      "sim": 7524,
      "Thomas": 7525,
      "keys": 7526,
      "pril": 7527,
      "Those": 7528,
      "fy": 7529,
      "stealing": 7530,
      "escaped": 7531,
      "hesit": 7532,
      "shooting": 7533,
      "wiggle": 7534,
      "sore": 7535,
      "twigs": 7536,
      "Lizzy": 7537,
      "waits": 7538,
      "atur": 7539,
      "emergency": 7540,
      "bravely": 7541,
      "nails": 7542,
      "!\",": 7543,
      "alright": 7544,
      "touching": 7545,
      "screams": 7546,
      "ips": 7547,
      "Sep": 7548,
      "tucked": 7549,
      "ena": 7550,
      "mister": 7551,
      "bridges": 7552,
      "Put": 7553,
      "babies": 7554,
      "matched": 7555,
      "scratched": 7556,
      "Moo": 7557,
      "ev": 7558,
      "contain": 7559,
      "certain": 7560,
      "als": 7561,
      "April": 7562,
      "answers": 7563,
      "opening": 7564,
      "ripped": 7565,
      "playtime": 7566,
      "tember": 7567,
      "seems": 7568,
      "twin": 7569,
      "zen": 7570,
      "texture": 7571,
      "thri": 7572,
      "marks": 7573,
      "lia": 7574,
      "Rachel": 7575,
      "Two": 7576,
      "amaze": 7577,
      "September": 7578,
      "Cla": 7579,
      "Get": 7580,
      "ork": 7581,
      "dot": 7582,
      "Leave": 7583,
      "partic": 7584,
      "Unfortunately": 7585,
      "ppers": 7586,
      "pupp": 7587,
      "tit": 7588,
      "keeps": 7589,
      "amer": 7590,
      "bringing": 7591,
      "investigate": 7592,
      "amazement": 7593,
      "gained": 7594,
      "piles": 7595,
      "pride": 7596,
      "appreciate": 7597,
      "lier": 7598,
      "ists": 7599,
      "among": 7600,
      "Katie": 7601,
      "Hold": 7602,
      "II": 7603,
      "chewing": 7604,
      "powers": 7605,
      "repeated": 7606,
      "boom": 7607,
      "wooden": 7608,
      "lon": 7609,
      "fact": 7610,
      "muffins": 7611,
      "master": 7612,
      "tails": 7613,
      "slapped": 7614,
      "Slowly": 7615,
      "broom": 7616,
      "contro": 7617,
      "dads": 7618,
      "India": 7619,
      "rings": 7620,
      "loose": 7621,
      "ruler": 7622,
      "challen": 7623,
      "Abig": 7624,
      "iggy": 7625,
      "acting": 7626,
      "ron": 7627,
      "kill": 7628,
      "rides": 7629,
      "hardly": 7630,
      "Joy": 7631,
      "aven": 7632,
      "jor": 7633,
      "hated": 7634,
      "Abigail": 7635,
      "recognized": 7636,
      "families": 7637,
      "sparkle": 7638,
      "cept": 7639,
      "satis": 7640,
      "soared": 7641,
      "soaked": 7642,
      "quack": 7643,
      "dent": 7644,
      "inst": 7645,
      "approached": 7646,
      "Jess": 7647,
      "dies": 7648,
      "foods": 7649,
      "'.": 7650,
      "brushes": 7651,
      "Jam": 7652,
      "force": 7653,
      "vers": 7654,
      "main": 7655,
      "shopping": 7656,
      "11": 7657,
      "praised": 7658,
      "tune": 7659,
      "ee": 7660,
      "ress": 7661,
      "Octo": 7662,
      "curled": 7663,
      "prepared": 7664,
      "downstairs": 7665,
      "pose": 7666,
      "opp": 7667,
      "ugust": 7668,
      "eats": 7669,
      "however": 7670,
      "neighborhood": 7671,
      "studying": 7672,
      "dinosaurs": 7673,
      "Zoe": 7674,
      "irts": 7675,
      "Spl": 7676,
      "195": 7677,
      "Mmm": 7678,
      "mi": 7679,
      "14": 7680,
      "aster": 7681,
      "glowed": 7682,
      "spaceship": 7683,
      "trips": 7684,
      "Earth": 7685,
      "English": 7686,
      "tickle": 7687,
      "collecting": 7688,
      "slim": 7689,
      "beside": 7690,
      "Bad": 7691,
      "deser": 7692,
      "beamed": 7693,
      "disturbed": 7694,
      "Spr": 7695,
      "eath": 7696,
      "ada": 7697,
      "crawling": 7698,
      "chirp": 7699,
      "monsters": 7700,
      "Ah": 7701,
      "Water": 7702,
      "zes": 7703,
      "tastes": 7704,
      "ker": 7705,
      "least": 7706,
      "measuring": 7707,
      "posit": 7708,
      "ourselves": 7709,
      "oat": 7710,
      "Listen": 7711,
      "situ": 7712,
      "bleeding": 7713,
      "expected": 7714,
      "rent": 7715,
      "mittens": 7716,
      "ility": 7717,
      "August": 7718,
      "Sha": 7719,
      "yesterday": 7720,
      "asc": 7721,
      "San": 7722,
      "Mart": 7723,
      "reason": 7724,
      "nment": 7725,
      "Mir": 7726,
      "usually": 7727,
      "agreement": 7728,
      "wanting": 7729,
      "chir": 7730,
      "cuddled": 7731,
      "whatever": 7732,
      "Sad": 7733,
      "anta": 7734,
      "Behind": 7735,
      "sprinkles": 7736,
      "Take": 7737,
      "osity": 7738,
      "sire": 7739,
      "episode": 7740,
      "month": 7741,
      "ladybug": 7742,
      "hael": 7743,
      "Beth": 7744,
      "peel": 7745,
      "Sou": 7746,
      "system": 7747,
      "youn": 7748,
      "ks": 7749,
      "remembers": 7750,
      "Yummy": 7751,
      "tallest": 7752,
      "weighed": 7753,
      "crunchy": 7754,
      "ific": 7755,
      "July": 7756,
      "British": 7757,
      "behaved": 7758,
      "nicer": 7759,
      "refu": 7760,
      "mov": 7761,
      "earlier": 7762,
      "Mad": 7763,
      "Friends": 7764,
      "worker": 7765,
      "draws": 7766,
      "sneaky": 7767,
      "Quick": 7768,
      "October": 7769,
      "loving": 7770,
      "wonders": 7771,
      "wedding": 7772,
      "wins": 7773,
      "ory": 7774,
      "precious": 7775,
      "Splash": 7776,
      "2016": 7777,
      "scaring": 7778,
      "strings": 7779,
      "sever": 7780,
      "snowball": 7781,
      "stro": 7782,
      "control": 7783,
      "introduced": 7784,
      "chef": 7785,
      "death": 7786,
      "tickets": 7787,
      "goals": 7788,
      "pause": 7789,
      "challenge": 7790,
      "hus": 7791,
      "firemen": 7792,
      "wound": 7793,
      "ount": 7794,
      "based": 7795,
      "Vel": 7796,
      "poems": 7797,
      "secrets": 7798,
      "rab": 7799,
      "apologized": 7800,
      "covery": 7801,
      "naps": 7802,
      "ners": 7803,
      "woof": 7804,
      "fir": 7805,
      "decides": 7806,
      "rubbing": 7807,
      "crashed": 7808,
      "stron": 7809,
      "removed": 7810,
      "ics": 7811,
      "sequ": 7812,
      "rather": 7813,
      "decorated": 7814,
      "Velvet": 7815,
      "siren": 7816,
      "happiest": 7817,
      "poking": 7818,
      "Pippa": 7819,
      "kindly": 7820,
      "tricked": 7821,
      "yelling": 7822,
      "Flo": 7823,
      "indy": 7824,
      "Being": 7825,
      "Sup": 7826,
      "Robby": 7827,
      "weeks": 7828,
      "role": 7829,
      "horns": 7830,
      "grinned": 7831,
      "fault": 7832,
      "Wis": 7833,
      "Jon": 7834,
      "suppl": 7835,
      "episodes": 7836,
      "peas": 7837,
      "frozen": 7838,
      "loaded": 7839,
      "knelt": 7840,
      "seesaw": 7841,
      "Exc": 7842,
      "zooming": 7843,
      "decision": 7844,
      "scooped": 7845,
      "movies": 7846,
      "spending": 7847,
      "rescu": 7848,
      "Ja": 7849,
      "Ba": 7850,
      "Fl": 7851,
      "uggling": 7852,
      "doggy": 7853,
      "actions": 7854,
      "Sn": 7855,
      "rule": 7856,
      "stored": 7857,
      "writes": 7858,
      "sneaked": 7859,
      "Achoo": 7860,
      "husband": 7861,
      "ledge": 7862,
      "Adam": 7863,
      "roads": 7864,
      "Quack": 7865,
      "beard": 7866,
      "anytime": 7867,
      "pedals": 7868,
      "deal": 7869,
      "curiosity": 7870,
      "Run": 7871,
      "including": 7872,
      "bunnies": 7873,
      "ads": 7874,
      "othing": 7875,
      "actually": 7876,
      "stitution": 7877,
      "within": 7878,
      "sparkling": 7879,
      "flavor": 7880,
      "goodnight": 7881,
      "iles": 7882,
      "surrounded": 7883,
      "sew": 7884,
      "Stitch": 7885,
      "Spring": 7886,
      "direct": 7887,
      "tugged": 7888,
      "ime": 7889,
      "Dare": 7890,
      "Que": 7891,
      "pub": 7892,
      "Bree": 7893,
      "pockets": 7894,
      "national": 7895,
      "uary": 7896,
      "responsible": 7897,
      "Fish": 7898,
      "Ava": 7899,
      "iders": 7900,
      "Julie": 7901,
      "exact": 7902,
      "Josh": 7903,
      "demanded": 7904,
      "discovery": 7905,
      "dou": 7906,
      "champ": 7907,
      "gaze": 7908,
      "National": 7909,
      "toss": 7910,
      "struggled": 7911,
      "chirped": 7912,
      "cub": 7913,
      "sts": 7914,
      "Ph": 7915,
      "claps": 7916,
      "staying": 7917,
      "granted": 7918,
      "particular": 7919,
      "polished": 7920,
      "Birdie": 7921,
      "balancing": 7922,
      "affes": 7923,
      "performed": 7924,
      "parties": 7925,
      "urry": 7926,
      "heroes": 7927,
      "snowballs": 7928,
      "Bouncy": 7929,
      "aren": 7930,
      "inated": 7931,
      "admiring": 7932,
      "neither": 7933,
      "Gogo": 7934,
      "giraffes": 7935,
      "tions": 7936,
      "activ": 7937,
      "Am": 7938,
      "Mouse": 7939,
      "hissed": 7940,
      "machines": 7941,
      "brushed": 7942,
      "final": 7943,
      "folding": 7944,
      "ustra": 7945,
      "frosting": 7946,
      "Jeff": 7947,
      "hour": 7948,
      "buzzing": 7949,
      "completed": 7950,
      "belly": 7951,
      "reply": 7952,
      "Jamie": 7953,
      "stom": 7954,
      "BC": 7955,
      "protected": 7956,
      "stripes": 7957,
      "Ca": 7958,
      "slimy": 7959,
      "beginning": 7960,
      "Zero": 7961,
      "steep": 7962,
      "sweeties": 7963,
      "traveled": 7964,
      "Kids": 7965,
      "eagle": 7966,
      "cracked": 7967,
      "bloomed": 7968,
      "January": 7969,
      "Wisdom": 7970,
      "pots": 7971,
      "rocking": 7972,
      "comfy": 7973,
      "Olly": 7974,
      "Play": 7975,
      "inda": 7976,
      "president": 7977,
      "mountains": 7978,
      "buildings": 7979,
      "government": 7980,
      "stare": 7981,
      "instruc": 7982,
      "194": 7983,
      "loe": 7984,
      "observed": 7985,
      "thrilled": 7986,
      "struggling": 7987,
      "Prin": 7988,
      "circus": 7989,
      "Sk": 7990,
      "paintings": 7991,
      "ounced": 7992,
      "fasc": 7993,
      "project": 7994,
      "continue": 7995,
      "ans": 7996,
      "Bro": 7997,
      "sunlight": 7998,
      "meaning": 7999,
      "pebbles": 8000,
      "Michael": 8001,
      "passing": 8002,
      "Oli": 8003,
      "catches": 8004,
      "hugging": 8005,
      "var": 8006,
      "ude": 8007,
      "prof": 8008,
      "Abby": 8009,
      "Only": 8010,
      "zookeeper": 8011,
      "spraying": 8012,
      "entire": 8013,
      "india": 8014,
      "crumb": 8015,
      "Hanna": 8016,
      "creation": 8017,
      "action": 8018,
      "glitter": 8019,
      "comforted": 8020,
      "radishes": 8021,
      "several": 8022,
      "rees": 8023,
      "planets": 8024,
      "sled": 8025,
      "petted": 8026,
      "lied": 8027,
      "matching": 8028,
      "cuts": 8029,
      "smallest": 8030,
      "neighbors": 8031,
      "ribbons": 8032,
      "argued": 8033,
      "apologize": 8034,
      "splashes": 8035,
      "thro": 8036,
      "Nina": 8037,
      "chases": 8038,
      "sadness": 8039,
      "York": 8040,
      "filmed": 8041,
      "Kay": 8042,
      "30": 8043,
      "flutter": 8044,
      "gathering": 8045,
      "tempt": 8046,
      "El": 8047,
      "elect": 8048,
      "rocked": 8049,
      "Everyday": 8050,
      "develo": 8051,
      "dragons": 8052,
      "diving": 8053,
      "nine": 8054,
      "Chloe": 8055,
      "rench": 8056,
      "nect": 8057,
      "shirts": 8058,
      "Ball": 8059,
      "dragged": 8060,
      "wondering": 8061,
      "cough": 8062,
      "type": 8063,
      "Min": 8064,
      "dipped": 8065,
      "safer": 8066,
      "Chris": 8067,
      "organizing": 8068,
      "Nove": 8069,
      "brand": 8070,
      "thou": 8071,
      "Want": 8072,
      "smiley": 8073,
      "ops": 8074,
      "hum": 8075,
      "speaking": 8076,
      "Anne": 8077,
      "purred": 8078,
      "weed": 8079,
      "villag": 8080,
      "hunt": 8081,
      "William": 8082,
      "knowledge": 8083,
      "clearing": 8084,
      "peered": 8085,
      "bottles": 8086,
      "shoulders": 8087,
      "caused": 8088,
      "range": 8089,
      "whom": 8090,
      "included": 8091,
      "drives": 8092,
      "beneath": 8093,
      "grandmother": 8094,
      "pastels": 8095,
      "lower": 8096,
      "dolph": 8097,
      "buckets": 8098,
      "flict": 8099,
      "November": 8100,
      "plain": 8101,
      "smar": 8102,
      "roaring": 8103,
      "firm": 8104,
      "cember": 8105,
      "indeed": 8106,
      "sausages": 8107,
      "itor": 8108,
      "wherever": 8109,
      "Univer": 8110,
      "Robert": 8111,
      "unic": 8112,
      "sighs": 8113,
      "spiders": 8114,
      "patience": 8115,
      "Princess": 8116,
      "polishing": 8117,
      "French": 8118,
      "express": 8119,
      "Ger": 8120,
      "strum": 8121,
      "posed": 8122,
      "crabs": 8123,
      "source": 8124,
      "Juli": 8125,
      "knights": 8126,
      "Fire": 8127,
      "Silly": 8128,
      "serv": 8129,
      "limes": 8130,
      "arguing": 8131,
      "bie": 8132,
      "Hippy": 8133,
      "teaches": 8134,
      "December": 8135,
      "stretching": 8136,
      ",'": 8137,
      "reg": 8138,
      "teased": 8139,
      "mane": 8140,
      "Nothing": 8141,
      "Ange": 8142,
      "pouring": 8143,
      "wiggled": 8144,
      "copy": 8145,
      "Jones": 8146,
      "sense": 8147,
      "North": 8148,
      "dusty": 8149,
      "fears": 8150,
      "urope": 8151,
      "rious": 8152,
      "La": 8153,
      "signed": 8154,
      "accompl": 8155,
      "joyed": 8156,
      "conflict": 8157,
      "peppers": 8158,
      "guns": 8159,
      "realize": 8160,
      "staring": 8161,
      "ives": 8162,
      "produc": 8163,
      "Jump": 8164,
      "darker": 8165,
      "Har": 8166,
      "formed": 8167,
      "lym": 8168,
      "overjoyed": 8169,
      "Bop": 8170,
      "soaring": 8171,
      "replaced": 8172,
      "shivered": 8173,
      "awake": 8174,
      "chat": 8175,
      "lan": 8176,
      "exactly": 8177,
      "cubes": 8178,
      "produced": 8179,
      "ibb": 8180,
      "battle": 8181,
      "becoming": 8182,
      "public": 8183,
      "ends": 8184,
      "bbed": 8185,
      "onwards": 8186,
      "sparkles": 8187,
      "court": 8188,
      "cuddle": 8189,
      "date": 8190,
      "flags": 8191
    },
    "merges": [
      [
        "h",
        "e"
      ],
      [
        "a",
        "n"
      ],
      [
        "t",
        "he"
      ],
      [
        "e",
        "d"
      ],
      [
        "t",
        "o"
      ],
      [
        "an",
        "d"
      ],
      [
        "i",
        "n"
      ],
      [
        "r",
        "e"
      ],
      [
        "i",
        "t"
      ],
      [
        "o",
        "u"
      ],
      [
        "w",
        "a"
      ],
      [
        "e",
        "n"
      ],
      [
        "h",
        "a"
      ],
      [
        "T",
        "he"
      ],
      [
        "e",
        "r"
      ],
      [
        "wa",
        "s"
      ],
      [
        "a",
        "y"
      ],
      [
        "o",
        "m"
      ],
      [
        "i",
        "s"
      ],
      [
        "o",
        "n"
      ],
      [
        "a",
        "r"
      ],
      [
        "i",
        "m"
      ],
      [
        "l",
        "l"
      ],
      [
        "i",
        "d"
      ],
      [
        "s",
        "a"
      ],
      [
        "l",
        "e"
      ],
      [
        "in",
        "g"
      ],
      [
        "s",
        "t"
      ],
      [
        "en",
        "d"
      ],
      [
        "o",
        "r"
      ],
      [
        "o",
        "t"
      ],
      [
        "o",
        "f"
      ],
      [
        "a",
        "m"
      ],
      [
        "i",
        "r"
      ],
      [
        "n",
        "e"
      ],
      [
        "The",
        "y"
      ],
      [
        "a",
        "t"
      ],
      [
        "p",
        "l"
      ],
      [
        "i",
        "g"
      ],
      [
        "H",
        "e"
      ],
      [
        "b",
        "e"
      ],
      [
        "i",
        "l"
      ],
      [
        "l",
        "o"
      ],
      [
        "a",
        "ll"
      ],
      [
        "r",
        "i"
      ],
      [
        "v",
        "er"
      ],
      [
        "h",
        "is"
      ],
      [
        "u",
        "t"
      ],
      [
        "s",
        "e"
      ],
      [
        "d",
        "ay"
      ],
      [
        "pl",
        "ay"
      ],
      [
        "it",
        "h"
      ],
      [
        "sa",
        "id"
      ],
      [
        "w",
        "ith"
      ],
      [
        "T",
        "im"
      ],
      [
        "p",
        "p"
      ],
      [
        "o",
        "w"
      ],
      [
        "c",
        "e"
      ],
      [
        "he",
        "r"
      ],
      [
        "k",
        "ed"
      ],
      [
        "u",
        "n"
      ],
      [
        "ha",
        "t"
      ],
      [
        "k",
        "e"
      ],
      [
        "S",
        "he"
      ],
      [
        "l",
        "d"
      ],
      [
        "t",
        "h"
      ],
      [
        "y",
        "ou"
      ],
      [
        "v",
        "e"
      ],
      [
        "b",
        "ig"
      ],
      [
        "e",
        "x"
      ],
      [
        "ver",
        "y"
      ],
      [
        "t",
        "ed"
      ],
      [
        "l",
        "i"
      ],
      [
        "c",
        "k"
      ],
      [
        "w",
        "e"
      ],
      [
        "ha",
        "pp"
      ],
      [
        "u",
        "p"
      ],
      [
        "ri",
        "end"
      ],
      [
        "f",
        "riend"
      ],
      [
        "a",
        "d"
      ],
      [
        "il",
        "y"
      ],
      [
        "the",
        "y"
      ],
      [
        "ha",
        "d"
      ],
      [
        "n",
        "ot"
      ],
      [
        "of",
        "t"
      ],
      [
        "g",
        "e"
      ],
      [
        "w",
        "an"
      ],
      [
        "ex",
        "t"
      ],
      [
        "it",
        "t"
      ],
      [
        "a",
        "l"
      ],
      [
        "om",
        "e"
      ],
      [
        "the",
        "r"
      ],
      [
        "d",
        "o"
      ],
      [
        "<",
        "|"
      ],
      [
        "|",
        ">"
      ],
      [
        "end",
        "oft"
      ],
      [
        "endoft",
        "ext"
      ],
      [
        "n",
        "d"
      ],
      [
        "c",
        "h"
      ],
      [
        "en",
        "t"
      ],
      [
        "f",
        "or"
      ],
      [
        "b",
        "o"
      ],
      [
        "t",
        "hat"
      ],
      [
        "a",
        "s"
      ],
      [
        "happ",
        "y"
      ],
      [
        "L",
        "ily"
      ],
      [
        "sa",
        "w"
      ],
      [
        "ou",
        "ld"
      ],
      [
        "O",
        "ne"
      ],
      [
        "s",
        "he"
      ],
      [
        "e",
        "s"
      ],
      [
        "m",
        "om"
      ],
      [
        "itt",
        "le"
      ],
      [
        "s",
        "o"
      ],
      [
        "l",
        "ittle"
      ],
      [
        "t",
        "im"
      ],
      [
        "r",
        "o"
      ],
      [
        "T",
        "om"
      ],
      [
        "f",
        "e"
      ],
      [
        "n",
        "am"
      ],
      [
        "tim",
        "e"
      ],
      [
        "ou",
        "nd"
      ],
      [
        ".",
        "\""
      ],
      [
        "o",
        "o"
      ],
      [
        "the",
        "re"
      ],
      [
        "nam",
        "ed"
      ],
      [
        "s",
        "m"
      ],
      [
        "we",
        "re"
      ],
      [
        "I",
        "t"
      ],
      [
        "b",
        "ut"
      ],
      [
        "wan",
        "ted"
      ],
      [
        "h",
        "t"
      ],
      [
        "s",
        "h"
      ],
      [
        "v",
        "ed"
      ],
      [
        "friend",
        "s"
      ],
      [
        "!",
        "\""
      ],
      [
        "r",
        "a"
      ],
      [
        "ir",
        "d"
      ],
      [
        "r",
        "y"
      ],
      [
        "a",
        "re"
      ],
      [
        "to",
        "o"
      ],
      [
        "b",
        "ird"
      ],
      [
        "t",
        "er"
      ],
      [
        "ou",
        "t"
      ],
      [
        "m",
        "y"
      ],
      [
        "O",
        "n"
      ],
      [
        "u",
        "g"
      ],
      [
        "a",
        "ke"
      ],
      [
        "id",
        "e"
      ],
      [
        "l",
        "p"
      ],
      [
        "w",
        "ent"
      ],
      [
        "u",
        "e"
      ],
      [
        "c",
        "ar"
      ],
      [
        "lo",
        "o"
      ],
      [
        "On",
        "ce"
      ],
      [
        "he",
        "lp"
      ],
      [
        "up",
        "on"
      ],
      [
        "th",
        "ing"
      ],
      [
        "i",
        "ll"
      ],
      [
        "in",
        "d"
      ],
      [
        "l",
        "y"
      ],
      [
        "f",
        "un"
      ],
      [
        "am",
        "e"
      ],
      [
        "u",
        "r"
      ],
      [
        "to",
        "y"
      ],
      [
        "d",
        "id"
      ],
      [
        "p",
        "e"
      ],
      [
        "m",
        "e"
      ],
      [
        "on",
        "e"
      ],
      [
        "ge",
        "ther"
      ],
      [
        "wa",
        "y"
      ],
      [
        "s",
        "ome"
      ],
      [
        "c",
        "at"
      ],
      [
        "o",
        "re"
      ],
      [
        "to",
        "gether"
      ],
      [
        "a",
        "g"
      ],
      [
        "a",
        "ck"
      ],
      [
        "t",
        "re"
      ],
      [
        "i",
        "c"
      ],
      [
        "ne",
        "w"
      ],
      [
        "c",
        "an"
      ],
      [
        "c",
        "ame"
      ],
      [
        "c",
        "ould"
      ],
      [
        "oo",
        "d"
      ],
      [
        "do",
        "g"
      ],
      [
        "h",
        "o"
      ],
      [
        "the",
        "ir"
      ],
      [
        "b",
        "all"
      ],
      [
        "h",
        "im"
      ],
      [
        "p",
        "ar"
      ],
      [
        "g",
        "o"
      ],
      [
        "g",
        "ir"
      ],
      [
        "play",
        "ed"
      ],
      [
        "B",
        "ut"
      ],
      [
        "gir",
        "l"
      ],
      [
        "m",
        "an"
      ],
      [
        "?",
        "\""
      ],
      [
        "f",
        "u"
      ],
      [
        "he",
        "n"
      ],
      [
        "u",
        "m"
      ],
      [
        "the",
        "m"
      ],
      [
        "r",
        "om"
      ],
      [
        "a",
        "x"
      ],
      [
        "ha",
        "ve"
      ],
      [
        "sa",
        "d"
      ],
      [
        "S",
        "ue"
      ],
      [
        "bo",
        "y"
      ],
      [
        "he",
        "d"
      ],
      [
        "tre",
        "e"
      ],
      [
        "M",
        "ax"
      ],
      [
        "ou",
        "g"
      ],
      [
        "a",
        "b"
      ],
      [
        "loo",
        "ked"
      ],
      [
        "lo",
        "ved"
      ],
      [
        "f",
        "ound"
      ],
      [
        "st",
        "ar"
      ],
      [
        "l",
        "a"
      ],
      [
        "s",
        "ide"
      ],
      [
        "o",
        "ther"
      ],
      [
        "a",
        "in"
      ],
      [
        "d",
        "e"
      ],
      [
        "b",
        "ack"
      ],
      [
        "B",
        "en"
      ],
      [
        "l",
        "t"
      ],
      [
        "ow",
        "n"
      ],
      [
        "li",
        "ke"
      ],
      [
        "par",
        "k"
      ],
      [
        "o",
        "p"
      ],
      [
        "fu",
        "l"
      ],
      [
        "on",
        "g"
      ],
      [
        "S",
        "am"
      ],
      [
        "ig",
        "ht"
      ],
      [
        "e",
        "t"
      ],
      [
        "p",
        "r"
      ],
      [
        "n",
        "o"
      ],
      [
        "f",
        "a"
      ],
      [
        "r",
        "an"
      ],
      [
        "c",
        "o"
      ],
      [
        "w",
        "ould"
      ],
      [
        "s",
        "to"
      ],
      [
        "p",
        "ot"
      ],
      [
        "li",
        "ked"
      ],
      [
        "m",
        "ake"
      ],
      [
        "n",
        "ow"
      ],
      [
        "Y",
        "ou"
      ],
      [
        "se",
        "e"
      ],
      [
        "fe",
        "lt"
      ],
      [
        "c",
        "a"
      ],
      [
        "wan",
        "t"
      ],
      [
        "ar",
        "d"
      ],
      [
        "as",
        "ked"
      ],
      [
        "ou",
        "se"
      ],
      [
        "star",
        "ted"
      ],
      [
        "oug",
        "ht"
      ],
      [
        "il",
        "ed"
      ],
      [
        "i",
        "ce"
      ],
      [
        "w",
        "or"
      ],
      [
        "g",
        "ood"
      ],
      [
        "sm",
        "all"
      ],
      [
        "m",
        "ore"
      ],
      [
        "s",
        "ay"
      ],
      [
        "ri",
        "ed"
      ],
      [
        "m",
        "ad"
      ],
      [
        "sm",
        "iled"
      ],
      [
        "r",
        "ed"
      ],
      [
        "g",
        "r"
      ],
      [
        "s",
        "car"
      ],
      [
        "w",
        "hat"
      ],
      [
        "f",
        "rom"
      ],
      [
        "k",
        "ing"
      ],
      [
        "S",
        "pot"
      ],
      [
        "t",
        "y"
      ],
      [
        "p",
        "ut"
      ],
      [
        "u",
        "c"
      ],
      [
        "f",
        "ind"
      ],
      [
        "h",
        "ome"
      ],
      [
        "a",
        "way"
      ],
      [
        "i",
        "a"
      ],
      [
        "M",
        "om"
      ],
      [
        "mad",
        "e"
      ],
      [
        "s",
        "ha"
      ],
      [
        "some",
        "thing"
      ],
      [
        "th",
        "ought"
      ],
      [
        "en",
        "ed"
      ],
      [
        "m",
        "u"
      ],
      [
        "play",
        "ing"
      ],
      [
        "a",
        "ch"
      ],
      [
        "e",
        "very"
      ],
      [
        "wa",
        "l"
      ],
      [
        "ar",
        "n"
      ],
      [
        "s",
        "s"
      ],
      [
        "i",
        "le"
      ],
      [
        "p",
        "re"
      ],
      [
        "M",
        "ia"
      ],
      [
        "ag",
        "ain"
      ],
      [
        "h",
        "ouse"
      ],
      [
        "u",
        "re"
      ],
      [
        "bo",
        "x"
      ],
      [
        "u",
        "se"
      ],
      [
        "la",
        "ug"
      ],
      [
        "d",
        "own"
      ],
      [
        "w",
        "ill"
      ],
      [
        "too",
        "k"
      ],
      [
        "w",
        "hen"
      ],
      [
        "le",
        "arn"
      ],
      [
        "ge",
        "t"
      ],
      [
        "n",
        "y"
      ],
      [
        "scar",
        "ed"
      ],
      [
        "is",
        "h"
      ],
      [
        "w",
        "ho"
      ],
      [
        "d",
        "er"
      ],
      [
        "toy",
        "s"
      ],
      [
        "you",
        "r"
      ],
      [
        "e",
        "p"
      ],
      [
        "e",
        "l"
      ],
      [
        "g",
        "ot"
      ],
      [
        "d",
        "d"
      ],
      [
        "thing",
        "s"
      ],
      [
        "ar",
        "ound"
      ],
      [
        "i",
        "e"
      ],
      [
        "i",
        "ck"
      ],
      [
        "pe",
        "c"
      ],
      [
        "lo",
        "w"
      ],
      [
        "the",
        "n"
      ],
      [
        "t",
        "e"
      ],
      [
        "a",
        "ve"
      ],
      [
        "li",
        "ved"
      ],
      [
        "o",
        "b"
      ],
      [
        "s",
        "un"
      ],
      [
        "l",
        "ot"
      ],
      [
        "S",
        "o"
      ],
      [
        "ou",
        "d"
      ],
      [
        "i",
        "f"
      ],
      [
        ",",
        "\""
      ],
      [
        "r",
        "u"
      ],
      [
        "n",
        "a"
      ],
      [
        "pp",
        "ed"
      ],
      [
        "an",
        "t"
      ],
      [
        "b",
        "ot"
      ],
      [
        "b",
        "y"
      ],
      [
        "u",
        "s"
      ],
      [
        "L",
        "uc"
      ],
      [
        "Luc",
        "y"
      ],
      [
        "it",
        "ed"
      ],
      [
        "k",
        "now"
      ],
      [
        "ro",
        "om"
      ],
      [
        "an",
        "y"
      ],
      [
        "t",
        "ried"
      ],
      [
        "um",
        "p"
      ],
      [
        "say",
        "s"
      ],
      [
        "man",
        "y"
      ],
      [
        "p",
        "ic"
      ],
      [
        "ab",
        "out"
      ],
      [
        "is",
        "t"
      ],
      [
        "ou",
        "s"
      ],
      [
        "at",
        "e"
      ],
      [
        "c",
        "are"
      ],
      [
        "pre",
        "t"
      ],
      [
        "W",
        "e"
      ],
      [
        "de",
        "c"
      ],
      [
        "q",
        "u"
      ],
      [
        "m",
        "o"
      ],
      [
        "all",
        "y"
      ],
      [
        "is",
        "e"
      ],
      [
        "i",
        "ve"
      ],
      [
        "he",
        "re"
      ],
      [
        "k",
        "new"
      ],
      [
        "g",
        "re"
      ],
      [
        "u",
        "st"
      ],
      [
        "p",
        "u"
      ],
      [
        "A",
        "nd"
      ],
      [
        "f",
        "ter"
      ],
      [
        "p",
        "o"
      ],
      [
        "way",
        "s"
      ],
      [
        "th",
        "an"
      ],
      [
        "b",
        "l"
      ],
      [
        "wa",
        "ter"
      ],
      [
        "l",
        "ong"
      ],
      [
        "learn",
        "ed"
      ],
      [
        "be",
        "st"
      ],
      [
        "be",
        "came"
      ],
      [
        "er",
        "s"
      ],
      [
        "w",
        "h"
      ],
      [
        "ne",
        "x"
      ],
      [
        "ca",
        "use"
      ],
      [
        "it",
        "e"
      ],
      [
        "c",
        "l"
      ],
      [
        "ex",
        "c"
      ],
      [
        "f",
        "ore"
      ],
      [
        "in",
        "to"
      ],
      [
        "loo",
        "k"
      ],
      [
        "sh",
        "ow"
      ],
      [
        "out",
        "side"
      ],
      [
        "laug",
        "hed"
      ],
      [
        "al",
        "ways"
      ],
      [
        "an",
        "g"
      ],
      [
        "id",
        "ed"
      ],
      [
        "e",
        "at"
      ],
      [
        "be",
        "cause"
      ],
      [
        "m",
        "a"
      ],
      [
        "c",
        "le"
      ],
      [
        "dec",
        "ided"
      ],
      [
        "i",
        "on"
      ],
      [
        "bot",
        "h"
      ],
      [
        "r",
        "un"
      ],
      [
        "t",
        "his"
      ],
      [
        "L",
        "et"
      ],
      [
        "The",
        "n"
      ],
      [
        "j",
        "ump"
      ],
      [
        "o",
        "k"
      ],
      [
        "A",
        "n"
      ],
      [
        "h",
        "ug"
      ],
      [
        "s",
        "ur"
      ],
      [
        "d",
        "ad"
      ],
      [
        "a",
        "c"
      ],
      [
        "fa",
        "st"
      ],
      [
        "c",
        "ome"
      ],
      [
        "c",
        "lo"
      ],
      [
        "W",
        "hen"
      ],
      [
        "o",
        "ld"
      ],
      [
        "fe",
        "el"
      ],
      [
        "exc",
        "ited"
      ],
      [
        "s",
        "or"
      ],
      [
        "b",
        "u"
      ],
      [
        "n",
        "ice"
      ],
      [
        "ou",
        "r"
      ],
      [
        "Y",
        "es"
      ],
      [
        "b",
        "r"
      ],
      [
        "in",
        "k"
      ],
      [
        "b",
        "b"
      ],
      [
        "s",
        "k"
      ],
      [
        "p",
        "a"
      ],
      [
        "to",
        "ld"
      ],
      [
        "B",
        "ob"
      ],
      [
        "in",
        "side"
      ],
      [
        "f",
        "ish"
      ],
      [
        "H",
        "is"
      ],
      [
        "h",
        "ow"
      ],
      [
        "sur",
        "pr"
      ],
      [
        "oo",
        "k"
      ],
      [
        "in",
        "y"
      ],
      [
        "it",
        "s"
      ],
      [
        "t",
        "ake"
      ],
      [
        "c",
        "re"
      ],
      [
        "pret",
        "ty"
      ],
      [
        "t",
        "a"
      ],
      [
        "ar",
        "a"
      ],
      [
        "le",
        "t"
      ],
      [
        "v",
        "en"
      ],
      [
        "f",
        "ly"
      ],
      [
        "g",
        "ave"
      ],
      [
        "un",
        "der"
      ],
      [
        "j",
        "o"
      ],
      [
        "mu",
        "ch"
      ],
      [
        "e",
        "ach"
      ],
      [
        "ab",
        "le"
      ],
      [
        "An",
        "na"
      ],
      [
        "le",
        "w"
      ],
      [
        "an",
        "im"
      ],
      [
        "anim",
        "al"
      ],
      [
        "an",
        "k"
      ],
      [
        "ha",
        "r"
      ],
      [
        "A",
        "my"
      ],
      [
        "ne",
        "ed"
      ],
      [
        "u",
        "dd"
      ],
      [
        "A",
        "s"
      ],
      [
        "t",
        "ur"
      ],
      [
        "f",
        "low"
      ],
      [
        "s",
        "w"
      ],
      [
        "e",
        "ll"
      ],
      [
        "T",
        "h"
      ],
      [
        "sor",
        "ry"
      ],
      [
        "C",
        "an"
      ],
      [
        "u",
        "ck"
      ],
      [
        "g",
        "ed"
      ],
      [
        "d",
        "re"
      ],
      [
        "is",
        "ed"
      ],
      [
        "S",
        "ara"
      ],
      [
        "ro",
        "ck"
      ],
      [
        "h",
        "and"
      ],
      [
        "in",
        "e"
      ],
      [
        "wa",
        "r"
      ],
      [
        "Th",
        "ank"
      ],
      [
        "I",
        "n"
      ],
      [
        "wal",
        "ked"
      ],
      [
        "le",
        "a"
      ],
      [
        "be",
        "ar"
      ],
      [
        "t",
        "ry"
      ],
      [
        "be",
        "t"
      ],
      [
        "ra",
        "in"
      ],
      [
        "k",
        "ind"
      ],
      [
        "st",
        "r"
      ],
      [
        "j",
        "ust"
      ],
      [
        "c",
        "om"
      ],
      [
        "ig",
        "h"
      ],
      [
        "b",
        "er"
      ],
      [
        "v",
        "ing"
      ],
      [
        "f",
        "i"
      ],
      [
        "s",
        "pec"
      ],
      [
        "l",
        "ist"
      ],
      [
        "H",
        "er"
      ],
      [
        "happ",
        "ened"
      ],
      [
        "f",
        "ood"
      ],
      [
        "did",
        "n"
      ],
      [
        "ne",
        "ar"
      ],
      [
        "wa",
        "t"
      ],
      [
        "animal",
        "s"
      ],
      [
        "sk",
        "y"
      ],
      [
        "t",
        "w"
      ],
      [
        "n",
        "t"
      ],
      [
        "re",
        "ad"
      ],
      [
        "c",
        "he"
      ],
      [
        "w",
        "here"
      ],
      [
        "ke",
        "t"
      ],
      [
        "ne",
        "ver"
      ],
      [
        "f",
        "f"
      ],
      [
        "a",
        "ce"
      ],
      [
        "bet",
        "ter"
      ],
      [
        "b",
        "ug"
      ],
      [
        "F",
        "rom"
      ],
      [
        "ide",
        "a"
      ],
      [
        "he",
        "ard"
      ],
      [
        "p",
        "er"
      ],
      [
        "b",
        "ro"
      ],
      [
        "l",
        "f"
      ],
      [
        "t",
        "al"
      ],
      [
        "b",
        "ed"
      ],
      [
        "i",
        "al"
      ],
      [
        "lo",
        "ve"
      ],
      [
        "tur",
        "n"
      ],
      [
        "as",
        "s"
      ],
      [
        "co",
        "l"
      ],
      [
        "to",
        "w"
      ],
      [
        "sha",
        "re"
      ],
      [
        "care",
        "ful"
      ],
      [
        "ur",
        "t"
      ],
      [
        "f",
        "lew"
      ],
      [
        "any",
        "more"
      ],
      [
        "d",
        "on"
      ],
      [
        "spec",
        "ial"
      ],
      [
        "lot",
        "s"
      ],
      [
        "o",
        "ver"
      ],
      [
        "bo",
        "ok"
      ],
      [
        "g",
        "ive"
      ],
      [
        "c",
        "t"
      ],
      [
        "w",
        "ind"
      ],
      [
        "l",
        "ad"
      ],
      [
        "T",
        "hat"
      ],
      [
        "e",
        "ven"
      ],
      [
        "E",
        "very"
      ],
      [
        "op",
        "le"
      ],
      [
        "sa",
        "fe"
      ],
      [
        "gr",
        "ound"
      ],
      [
        "cle",
        "an"
      ],
      [
        "s",
        "p"
      ],
      [
        "e",
        "ar"
      ],
      [
        "m",
        "ag"
      ],
      [
        "a",
        "fter"
      ],
      [
        "udd",
        "en"
      ],
      [
        "c",
        "ake"
      ],
      [
        "sh",
        "iny"
      ],
      [
        "e",
        "ver"
      ],
      [
        "f",
        "am"
      ],
      [
        "D",
        "o"
      ],
      [
        "a",
        "pp"
      ],
      [
        "f",
        "o"
      ],
      [
        "pe",
        "ople"
      ],
      [
        "b",
        "ad"
      ],
      [
        "do",
        "or"
      ],
      [
        "udden",
        "ly"
      ],
      [
        "h",
        "igh"
      ],
      [
        "pr",
        "oud"
      ],
      [
        "oug",
        "h"
      ],
      [
        "pl",
        "ace"
      ],
      [
        "ra",
        "bb"
      ],
      [
        "surpr",
        "ised"
      ],
      [
        "g",
        "ard"
      ],
      [
        "f",
        "ar"
      ],
      [
        "W",
        "hat"
      ],
      [
        "pec",
        "ted"
      ],
      [
        "h",
        "urt"
      ],
      [
        "of",
        "f"
      ],
      [
        "har",
        "d"
      ],
      [
        "be",
        "a"
      ],
      [
        "gard",
        "en"
      ],
      [
        "op",
        "ened"
      ],
      [
        "cl",
        "im"
      ],
      [
        "pic",
        "ked"
      ],
      [
        "c",
        "all"
      ],
      [
        "un",
        "t"
      ],
      [
        "u",
        "nex"
      ],
      [
        "unex",
        "pected"
      ],
      [
        "st",
        "ill"
      ],
      [
        "N",
        "o"
      ],
      [
        "col",
        "or"
      ],
      [
        "bl",
        "ue"
      ],
      [
        "m",
        "or"
      ],
      [
        "than",
        "ked"
      ],
      [
        "J",
        "o"
      ],
      [
        "c",
        "ha"
      ],
      [
        "hug",
        "ged"
      ],
      [
        "W",
        "h"
      ],
      [
        "sh",
        "ould"
      ],
      [
        "mag",
        "ic"
      ],
      [
        "l",
        "oud"
      ],
      [
        "um",
        "my"
      ],
      [
        "oo",
        "l"
      ],
      [
        "fam",
        "ily"
      ],
      [
        "jump",
        "ed"
      ],
      [
        "b",
        "le"
      ],
      [
        "gre",
        "at"
      ],
      [
        "or",
        "t"
      ],
      [
        "re",
        "l"
      ],
      [
        "wal",
        "k"
      ],
      [
        "k",
        "id"
      ],
      [
        "s",
        "qu"
      ],
      [
        "sm",
        "ile"
      ],
      [
        "n",
        "ing"
      ],
      [
        "ro",
        "g"
      ],
      [
        "ar",
        "k"
      ],
      [
        "u",
        "ff"
      ],
      [
        "d",
        "y"
      ],
      [
        "p",
        "t"
      ],
      [
        "b",
        "ra"
      ],
      [
        "es",
        "s"
      ],
      [
        "st",
        "ay"
      ],
      [
        "s",
        "l"
      ],
      [
        "S",
        "uddenly"
      ],
      [
        "d",
        "an"
      ],
      [
        "str",
        "ong"
      ],
      [
        "t",
        "ru"
      ],
      [
        "fore",
        "st"
      ],
      [
        "unt",
        "il"
      ],
      [
        "itt",
        "y"
      ],
      [
        "T",
        "his"
      ],
      [
        "bea",
        "ut"
      ],
      [
        "f",
        "rog"
      ],
      [
        "nex",
        "t"
      ],
      [
        "i",
        "p"
      ],
      [
        "t",
        "ure"
      ],
      [
        "bo",
        "at"
      ],
      [
        "st",
        "ick"
      ],
      [
        "re",
        "e"
      ],
      [
        "S",
        "ally"
      ],
      [
        "lea",
        "se"
      ],
      [
        "s",
        "ed"
      ],
      [
        "A",
        "fter"
      ],
      [
        "y",
        "es"
      ],
      [
        "c",
        "on"
      ],
      [
        "K",
        "itty"
      ],
      [
        "a",
        "k"
      ],
      [
        "st",
        "e"
      ],
      [
        "c",
        "u"
      ],
      [
        "le",
        "s"
      ],
      [
        "list",
        "en"
      ],
      [
        "wh",
        "ile"
      ],
      [
        "happ",
        "ily"
      ],
      [
        "beaut",
        "i"
      ],
      [
        "beauti",
        "ful"
      ],
      [
        "kid",
        "s"
      ],
      [
        "sto",
        "ry"
      ],
      [
        "s",
        "ing"
      ],
      [
        "c",
        "hed"
      ],
      [
        "help",
        "ed"
      ],
      [
        "be",
        "ing"
      ],
      [
        "A",
        "t"
      ],
      [
        "show",
        "ed"
      ],
      [
        "tow",
        "n"
      ],
      [
        "ll",
        "y"
      ],
      [
        "im",
        "p"
      ],
      [
        "ir",
        "st"
      ],
      [
        "un",
        "ny"
      ],
      [
        "ke",
        "ep"
      ],
      [
        "call",
        "ed"
      ],
      [
        "pic",
        "ture"
      ],
      [
        "me",
        "t"
      ],
      [
        "ra",
        "w"
      ],
      [
        "g",
        "ame"
      ],
      [
        "every",
        "one"
      ],
      [
        "s",
        "er"
      ],
      [
        "N",
        "ow"
      ],
      [
        "sto",
        "pped"
      ],
      [
        "w",
        "on"
      ],
      [
        "an",
        "e"
      ],
      [
        "v",
        "ent"
      ],
      [
        "op",
        "en"
      ],
      [
        "m",
        "on"
      ],
      [
        "il",
        "d"
      ],
      [
        "jo",
        "y"
      ],
      [
        "F",
        "in"
      ],
      [
        "s",
        "oft"
      ],
      [
        "ang",
        "ry"
      ],
      [
        "tw",
        "o"
      ],
      [
        "wor",
        "k"
      ],
      [
        "uff",
        "y"
      ],
      [
        "se",
        "lf"
      ],
      [
        "is",
        "hed"
      ],
      [
        "lo",
        "st"
      ],
      [
        "al",
        "so"
      ],
      [
        "c",
        "ry"
      ],
      [
        "tru",
        "ck"
      ],
      [
        "J",
        "ack"
      ],
      [
        "as",
        "k"
      ],
      [
        "l",
        "uffy"
      ],
      [
        "y",
        "ummy"
      ],
      [
        "g",
        "an"
      ],
      [
        "to",
        "r"
      ],
      [
        "war",
        "m"
      ],
      [
        "fa",
        "ce"
      ],
      [
        "le",
        "ss"
      ],
      [
        "bra",
        "ve"
      ],
      [
        "m",
        "ouse"
      ],
      [
        "le",
        "ave"
      ],
      [
        "r",
        "ight"
      ],
      [
        "wat",
        "ch"
      ],
      [
        "fe",
        "ll"
      ],
      [
        "do",
        "ll"
      ],
      [
        "could",
        "n"
      ],
      [
        "i",
        "z"
      ],
      [
        "flow",
        "er"
      ],
      [
        "v",
        "o"
      ],
      [
        "p",
        "on"
      ],
      [
        "gre",
        "en"
      ],
      [
        "flow",
        "ers"
      ],
      [
        "ll",
        "o"
      ],
      [
        "laug",
        "h"
      ],
      [
        "lo",
        "ck"
      ],
      [
        "i",
        "es"
      ],
      [
        "be",
        "fore"
      ],
      [
        "ow",
        "l"
      ],
      [
        "m",
        "ber"
      ],
      [
        "he",
        "ar"
      ],
      [
        "L",
        "ook"
      ],
      [
        "no",
        "ise"
      ],
      [
        "to",
        "p"
      ],
      [
        "so",
        "on"
      ],
      [
        "sa",
        "t"
      ],
      [
        "w",
        "r"
      ],
      [
        "f",
        "irst"
      ],
      [
        "sto",
        "re"
      ],
      [
        "t",
        "r"
      ],
      [
        "ir",
        "ed"
      ],
      [
        "us",
        "ed"
      ],
      [
        "cre",
        "am"
      ],
      [
        "ha",
        "s"
      ],
      [
        "ke",
        "y"
      ],
      [
        "un",
        "g"
      ],
      [
        "ra",
        "ce"
      ],
      [
        "ho",
        "le"
      ],
      [
        "sl",
        "ide"
      ],
      [
        "se",
        "t"
      ],
      [
        "H",
        "i"
      ],
      [
        "u",
        "ch"
      ],
      [
        "F",
        "luffy"
      ],
      [
        "t",
        "able"
      ],
      [
        "ill",
        "y"
      ],
      [
        "ir",
        "rel"
      ],
      [
        "ke",
        "pt"
      ],
      [
        "he",
        "ad"
      ],
      [
        "y",
        "ard"
      ],
      [
        "re",
        "st"
      ],
      [
        "f",
        "in"
      ],
      [
        "no",
        "dd"
      ],
      [
        "D",
        "on"
      ],
      [
        "go",
        "ing"
      ],
      [
        "squ",
        "irrel"
      ],
      [
        "ex",
        "pl"
      ],
      [
        "ha",
        "ving"
      ],
      [
        "nodd",
        "ed"
      ],
      [
        "p",
        "ain"
      ],
      [
        "hand",
        "s"
      ],
      [
        "d",
        "s"
      ],
      [
        "a",
        "ge"
      ],
      [
        "ing",
        "s"
      ],
      [
        "th",
        "r"
      ],
      [
        "loo",
        "king"
      ],
      [
        "bird",
        "s"
      ],
      [
        "th",
        "ink"
      ],
      [
        "rabb",
        "it"
      ],
      [
        "ug",
        "ht"
      ],
      [
        "c",
        "ou"
      ],
      [
        "n",
        "ight"
      ],
      [
        "fun",
        "ny"
      ],
      [
        "le",
        "ep"
      ],
      [
        "t",
        "ing"
      ],
      [
        "ay",
        "be"
      ],
      [
        "cat",
        "ch"
      ],
      [
        "te",
        "ll"
      ],
      [
        "y",
        "ell"
      ],
      [
        "me",
        "an"
      ],
      [
        "ll",
        "ed"
      ],
      [
        "am",
        "a"
      ],
      [
        "ri",
        "es"
      ],
      [
        "fi",
        "x"
      ],
      [
        "t",
        "le"
      ],
      [
        "s",
        "n"
      ],
      [
        "t",
        "ired"
      ],
      [
        "b",
        "unny"
      ],
      [
        "at",
        "h"
      ],
      [
        "me",
        "mber"
      ],
      [
        "s",
        "ound"
      ],
      [
        "Wh",
        "y"
      ],
      [
        "k",
        "it"
      ],
      [
        "d",
        "if"
      ],
      [
        "st",
        "er"
      ],
      [
        "i",
        "ous"
      ],
      [
        "co",
        "ld"
      ],
      [
        "c",
        "ut"
      ],
      [
        "other",
        "s"
      ],
      [
        "or",
        "n"
      ],
      [
        "c",
        "ook"
      ],
      [
        "e",
        "yes"
      ],
      [
        "pon",
        "d"
      ],
      [
        "tal",
        "k"
      ],
      [
        "wa",
        "it"
      ],
      [
        "f",
        "lo"
      ],
      [
        "f",
        "t"
      ],
      [
        "sun",
        "ny"
      ],
      [
        "p",
        "ie"
      ],
      [
        "c",
        "hen"
      ],
      [
        "d",
        "is"
      ],
      [
        "kit",
        "chen"
      ],
      [
        "l",
        "ight"
      ],
      [
        "ll",
        "ow"
      ],
      [
        "s",
        "we"
      ],
      [
        "D",
        "ad"
      ],
      [
        "imp",
        "ort"
      ],
      [
        "fa",
        "v"
      ],
      [
        "He",
        "llo"
      ],
      [
        "re",
        "member"
      ],
      [
        "b",
        "ar"
      ],
      [
        "mom",
        "my"
      ],
      [
        "as",
        "h"
      ],
      [
        "par",
        "ty"
      ],
      [
        "mo",
        "ve"
      ],
      [
        "clim",
        "b"
      ],
      [
        "p",
        "h"
      ],
      [
        "s",
        "ong"
      ],
      [
        "tim",
        "es"
      ],
      [
        "s",
        "and"
      ],
      [
        "h",
        "n"
      ],
      [
        "import",
        "ant"
      ],
      [
        "cu",
        "ri"
      ],
      [
        "dre",
        "ss"
      ],
      [
        "Jo",
        "hn"
      ],
      [
        "mor",
        "al"
      ],
      [
        "d",
        "uck"
      ],
      [
        "z",
        "y"
      ],
      [
        "be",
        "gan"
      ],
      [
        "turn",
        "ed"
      ],
      [
        "q",
        "ue"
      ],
      [
        "sha",
        "red"
      ],
      [
        "ma",
        "king"
      ],
      [
        "b",
        "re"
      ],
      [
        "ad",
        "vent"
      ],
      [
        "do",
        "es"
      ],
      [
        "ok",
        "ay"
      ],
      [
        "wor",
        "ked"
      ],
      [
        "en",
        "joy"
      ],
      [
        "br",
        "ight"
      ],
      [
        "B",
        "o"
      ],
      [
        "k",
        "en"
      ],
      [
        "M",
        "r"
      ],
      [
        "curi",
        "ous"
      ],
      [
        "re",
        "ed"
      ],
      [
        "fi",
        "re"
      ],
      [
        "t",
        "all"
      ],
      [
        "f",
        "ru"
      ],
      [
        "s",
        "leep"
      ],
      [
        "g",
        "u"
      ],
      [
        "d",
        "ir"
      ],
      [
        "h",
        "id"
      ],
      [
        "Mom",
        "my"
      ],
      [
        "fav",
        "or"
      ],
      [
        "d",
        "raw"
      ],
      [
        "fo",
        "llow"
      ],
      [
[...]
