{
  "version": "1.0",
  "truncation": null,
  "padding": null,
  "added_tokens": [
    {
      "id": 0,
      "content": "<PAD>",
      "single_word": false,
      "lstrip": false,
      "rstrip": false,
      "normalized": false,
      "special": true
    },
    {
      "id": 1,
      "content": "<UNK>",
      "single_word": false,
      "lstrip": false,
      "rstrip": false,
      "normalized": false,
      "special": true
    },
    {
      "id": 2,
      "content": "<BOS>",
      "single_word": false,
      "lstrip": false,
      "rstrip": false,
      "normalized": false,
      "special": true
    },
    {
      "id": 3,
      "content": "<EOS>",
      "single_word": false,
      "lstrip": false,
      "rstrip": false,
      "normalized": false,
      "special": true
    }
  ],
  "normalizer": null,
  "pre_tokenizer": {
    "type": "ByteLevel",
    "add_prefix_space": false,
    "trim_offsets": true,
    "use_regex": true
  },
  "post_processor": null,
  "decoder": {
    "type": "ByteLevel",
    "add_prefix_space": true,
    "trim_offsets": true,
    "use_regex": true
  },
  "model": {
    "type": "BPE",
    "dropout": null,
    "unk_token": "<UNK>",
    "continuing_subword_prefix": null,
    "end_of_word_suffix": null,
    "fuse_unk": false,
    "byte_fallback": false,
    "ignore_merges": false,
    "vocab": {
      "<PAD>": 0,
      "<UNK>": 1,
      "<BOS>": 2,
      "<EOS>": 3,
      "!": 4,
      "\"": 5,
      "#": 6,
      "$": 7,
      "%": 8,
      "&": 9,
      "'": 10,
      "(": 11,
      ")": 12,
      "*": 13,
      "+": 14,
      ",": 15,
      "-": 16,
      ".": 17,
      "/": 18,
      "0": 19,
      "1": 20,
      "2": 21,
      "3": 22,
      "4": 23,
      "5": 24,
      "6": 25,
      "7": 26,
      "8": 27,
      "9": 28,
      ":": 29,
      ";": 30,
      "<": 31,
      "=": 32,
      ">": 33,
      "?": 34,
      "@": 35,
      "A": 36,
      "B": 37,
      "C": 38,
      "D": 39,
      "E": 40,
      "F": 41,
      "G": 42,
      "H": 43,
      "I": 44,
      "J": 45,
      "K": 46,
      "L": 47,
      "M": 48,
      "N": 49,
      "O": 50,
      "P": 51,
      "Q": 52,
      "R": 53,
      "S": 54,
      "T": 55,
      "U": 56,
      "V": 57,
      "W": 58,
      "X": 59,
      "Y": 60,
      "Z": 61,
      "[": 62,
      "\\": 63,
      "]": 64,
      "^": 65,
      "_": 66,
      "`": 67,
      "a": 68,
      "b": 69,
      "c": 70,
      "d": 71,
      "e": 72,
      "f": 73,
      "g": 74,
      "h": 75,
      "i": 76,
      "j": 77,
      "k": 78,
      "l": 79,
      "m": 80,
      "n": 81,
      "o": 82,
      "p": 83,
      "q": 84,
      "r": 85,
      "s": 86,
      "t": 87,
      "u": 88,
      "v": 89,
      "w": 90,
      "x": 91,
      "y": 92,
      "z": 93,
      "{": 94,
      "|": 95,
      "}": 96,
      "~": 97,
      "¡": 98,
      "¢": 99,
      "£": 100,
      "¤": 101,
      "¥": 102,
      "¦": 103,
      "§": 104,
      "¨": 105,
      "©": 106,
      "ª": 107,
      "«": 108,
      "¬": 109,
      "®": 110,
      "¯": 111,
      "°": 112,
      "±": 113,
      "²": 114,
      "³": 115,
      "´": 116,
      "µ": 117,
      "¶": 118,
      "·": 119,
      "¸": 120,
      "¹": 121,
      "º": 122,
      "»": 123,
      "¼": 124,
      "½": 125,
      "¾": 126,
      "¿": 127,
      "Â": 128,
      "Ã": 129,
      "Ä": 130,
      "Å": 131,
      "Æ": 132,
      "Ç": 133,
      "È": 134,
      "É": 135,
      "Ê": 136,
      "Ë": 137,
      "Ì": 138,
      "Í": 139,
      "Î": 140,
      "Ï": 141,
      "Ð": 142,
      "Ñ": 143,
      "Ò": 144,
      "Ó": 145,
      "Ô": 146,
      "Õ": 147,
      "Ö": 148,
      "×": 149,
      "Ø": 150,
      "Ù": 151,
      "Ú": 152,
      "Û": 153,
      "Ü": 154,
      "Ý": 155,
      "Þ": 156,
      "à": 157,
      "á": 158,
      "â": 159,
      "ã": 160,
      "ä": 161,
      "å": 162,
      "æ": 163,
      "ç": 164,
      "è": 165,
      "é": 166,
      "ê": 167,
      "ë": 168,
      "ì": 169,
      "í": 170,
      "î": 171,
      "ï": 172,
      "ð": 173,
      "ô": 174,
      "ĉ": 175,
      "Ċ": 176,
      "Ġ": 177,
      "Ģ": 178,
      "ģ": 179,
      "Ĥ": 180,
      "ĥ": 181,
      "Ħ": 182,
      "ħ": 183,
      "Ĩ": 184,
      "ĩ": 185,
      "Ī": 186,
      "ī": 187,
      "Ĭ": 188,
      "ĭ": 189,
      "Į": 190,
      "į": 191,
      "İ": 192,
      "ı": 193,
      "Ĳ": 194,
      "ĳ": 195,
      "Ĵ": 196,
      "ĵ": 197,
      "Ķ": 198,
      "ķ": 199,
      "ĸ": 200,
      "Ĺ": 201,
      "ĺ": 202,
      "Ļ": 203,
      "ļ": 204,
      "Ľ": 205,
      "ľ": 206,
      "Ŀ": 207,
      "ŀ": 208,
      "Ł": 209,
      "ł": 210,
      "Ń": 211,
      "Ġt": 212,
      "he": 213,
      "Ġa": 214,
      "Ġs": 215,
      "Ġw": 216,
      "nd": 217,
      "Ġthe": 218,
      "ed": 219,
      "Ġb": 220,
      "Ġto": 221,
      "Ġand": 222,
      "Ġh": 223,
      "Ġf": 224,
      "in": 225,
      "ĠT": 226,
      "Ġwa": 227,
      "re": 228,
      "it": 229,
      "ou": 230,
      "Ġl": 231,
      "Ġd": 232,
      "Ġc": 233,
      "Ġp": 234,
      "ay": 235,
      "er": 236,
      "Ġm": 237,
      "Ġwas": 238,
      "om": 239,
      "ĠThe": 240,
      "Ġhe": 241,
      "is": 242,
      "on": 243,
      "ar": 244,
      "Ġn": 245,
      "im": 246,
      "ll": 247,
      "Ġsa": 248,
      "id": 249,
      "at": 250,
      "Ġha": 251,
      "Ġg": 252,
      "ing": 253,
      "ĠS": 254,
      "ot": 255,
      "en": 256,
      "an": 257,
      "le": 258,
      "or": 259,
      "end": 260,
      "of": 261,
      "ir": 262,
      "am": 263,
      "et": 264,
      "Ġth": 265,
      "ĠH": 266,
      "Ġit": 267,
      "ig": 268,
      "Ġin": 269,
      "ĠThey": 270,
      "il": 271,
      "Ġpl": 272,
      "ĠHe": 273,
      "ow": 274,
      "Ġ\"": 275,
      "ver": 276,
      "ri": 277,
      "ut": 278,
      "Ġbe": 279,
      "Ġu": 280,
      "ith": 281,
      "Ġsaid": 282,
      "Ġplay": 283,
      "Ġwith": 284,
      "Ġy": 285,
      "pp": 286,
      "Ġday": 287,
      "On": 288,
      "oo": 289,
      "Ġr": 290,
      "ked": 291,
      "ce": 292,
      "ĠI": 293,
      "Ġher": 294,
      "ex": 295,
      "ld": 296,
      "Ġhis": 297,
      "ĠShe": 298,
      "es": 299,
      "ĠTim": 300,
      "Ġst": 301,
      "ck": 302,
      "nt": 303,
      "Ġyou": 304,
      "Ġbig": 305,
      "very": 306,
      "ke": 307,
      "st": 308,
      "Ġon": 309,
      "ve": 310,
      "un": 311,
      "Ġhapp": 312,
      "Ġof": 313,
      "all": 314,
      "riend": 315,
      "Ġfriend": 316,
      "ĠL": 317,
      "ily": 318,
      "Ġthey": 319,
      "ext": 320,
      "Ġwe": 321,
      "Ġhad": 322,
      "Ġnot": 323,
      "oft": 324,
      "her": 325,
      "Ġli": 326,
      "Ġup": 327,
      "ad": 328,
      "Ġwant": 329,
      "ĠB": 330,
      "itt": 331,
      "Ġe": 332,
      "<|": 333,
      "|>": 334,
      "endoft": 335,
      "endoftext": 336,
      "Ġdo": 337,
      "se": 338,
      "ent": 339,
      "ĠM": 340,
      "Ġthat": 341,
      "Ġhappy": 342,
      "Ġvery": 343,
      "'s": 344,
      "Ġfor": 345,
      "Ġsaw": 346,
      "ould": 347,
      "One": 348,
      "Ġsh": 349,
      "Ġmom": 350,
      "ittle": 351,
      "Ġlittle": 352,
      "ch": 353,
      "Ġshe": 354,
      "ime": 355,
      "Ġk": 356,
      "Ġnam": 357,
      "Ġtime": 358,
      "Ġso": 359,
      "ound": 360,
      ".\"": 361,
      "Ġthere": 362,
      "Ġnamed": 363,
      "Ġbo": 364,
      "Ġsm": 365,
      "Ġwere": 366,
      "out": 367,
      "al": 368,
      "ĠLily": 369,
      "Ġbut": 370,
      "ht": 371,
      "Ġwanted": 372,
      "The": 373,
      "ved": 374,
      "Ġfriends": 375,
      "Ġwh": 376,
      "Ġne": 377,
      "el": 378,
      "!\"": 379,
      "ĠTom": 380,
      "ird": 381,
      "Ġan": 382,
      "Ġis": 383,
      "Ġbird": 384,
      "ome": 385,
      "ĠIt": 386,
      "ug": 387,
      "Ġtoo": 388,
      "ĠA": 389,
      "ide": 390,
      "Ġwent": 391,
      "Ġhel": 392,
      "Ġall": 393,
      "Once": 394,
      "ter": 395,
      "Ġhelp": 396,
      "ake": 397,
      "Ġlo": 398,
      "Ġloo": 399,
      "ue": 400,
      "ry": 401,
      "Ġupon": 402,
      "ore": 403,
      "Ġas": 404,
      "ill": 405,
      "ind": 406,
      "Ġre": 407,
      "ra": 408,
      "Ġat": 409,
      "Ġfun": 410,
      "ame": 411,
      "get": 412,
      "Ġtoy": 413,
      "ur": 414,
      "Ġdid": 415,
      "Ġj": 416,
      "Ġo": 417,
      "Ġse": 418,
      "gether": 419,
      "ly": 420,
      "ic": 421,
      "ack": 422,
      "Ġtogether": 423,
      "Ġcat": 424,
      "ood": 425,
      "Ġtre": 426,
      "ted": 427,
      "Ġcould": 428,
      "Ġcan": 429,
      "Ġdog": 430,
      "ard": 431,
      "Ġtheir": 432,
      "ec": 433,
      "Ġhim": 434,
      "ark": 435,
      "Ġro": 436,
      "irl": 437,
      "Ġplayed": 438,
      "Ġfr": 439,
      "Ġare": 440,
      "Ġgo": 441,
      "hen": 442,
      "Ġball": 443,
      "ain": 444,
      "Ġgirl": 445,
      "way": 446,
      "?\"": 447,
      "hed": 448,
      "Ġout": 449,
      "Ġle": 450,
      "um": 451,
      "my": 452,
      "Ġkn": 453,
      "Ġthem": 454,
      "'t": 455,
      "ul": 456,
      "ax": 457,
      "Ġsad": 458,
      "Ġhave": 459,
      "other": 460,
      "Ġman": 461,
      "Ġboy": 462,
      "Ġtree": 463,
      "oug": 464,
      "Ġcl": 465,
      "Ġsp": 466,
      "Ġlooked": 467,
      "Ġloved": 468,
      "Ġfound": 469,
      "Ġstar": 470,
      "hing": 471,
      "ĠSue": 472,
      "Ġsc": 473,
      "own": 474,
      "one": 475,
      "Ġback": 476,
      "Ġme": 477,
      "are": 478,
      "ĠMax": 479,
      "ong": 480,
      "ight": 481,
      "ful": 482,
      "Ġbec": 483,
      "side": 484,
      "op": 485,
      "ĠW": 486,
      "Ġcar": 487,
      "Ġpark": 488,
      "Ġla": 489,
      "Ġwould": 490,
      "elt": 491,
      "ĠOne": 492,
      "Ġfa": 493,
      "ag": 494,
      "ell": 495,
      "Ġliked": 496,
      "Ġlike": 497,
      "round": 498,
      "You": 499,
      "ss": 500,
      "Ġfelt": 501,
      "Ġsee": 502,
      "ĠBut": 503,
      "Ġno": 504,
      "ice": 505,
      "omet": 506,
      "Ġasked": 507,
      "Ġnew": 508,
      "Ġal": 509,
      "ĠSam": 510,
      "ared": 511,
      "Ġcame": 512,
      "Ġstarted": 513,
      "ĠBen": 514,
      "Ġother": 515,
      "ouse": 516,
      "ought": 517,
      "iled": 518,
      "Ġag": 519,
      "Ġmake": 520,
      "Ġsomet": 521,
      "Ġgood": 522,
      "Ġbr": 523,
      "Ġsmall": 524,
      "ade": 525,
      "ings": 526,
      "Ġsay": 527,
      "ried": 528,
      "ob": 529,
      "Ġsmiled": 530,
      "ĠĊ": 531,
      "Ġwhat": 532,
      "Ġfrom": 533,
      "Ġwor": 534,
      "ia": 535,
      "pot": 536,
      "Ġex": 537,
      "ty": 538,
      "Ġfind": 539,
      "us": 540,
      "Ġco": 541,
      "Ġaway": 542,
      "Ġmade": 543,
      "Ġput": 544,
      "ĠF": 545,
      "Ġsomething": 546,
      "Ġthought": 547,
      "ened": 548,
      "Ġhome": 549,
      "ĠJ": 550,
      "uc": 551,
      "Ġplaying": 552,
      "ook": 553,
      "Ġevery": 554,
      "ach": 555,
      "Ġwal": 556,
      "ie": 557,
      "arn": 558,
      "ile": 559,
      "Ġpr": 560,
      "Ġran": 561,
      "ĠSpot": 562,
      "if": 563,
      "ust": 564,
      "Ġagain": 565,
      "Ġsome": 566,
      "as": 567,
      "ure": 568,
      "dd": 569,
      "king": 570,
      "Ġwhen": 571,
      "Ġfl": 572,
      "Ġlaug": 573,
      "ab": 574,
      "Ġdown": 575,
      "ep": 576,
      "Ġmy": 577,
      "Ġtook": 578,
      "Ġwill": 579,
      "ny": 580,
      "Ġscared": 581,
      "ĠYou": 582,
      "Ġhouse": 583,
      "ick": 584,
      "Ġlearn": 585,
      "Ġwho": 586,
      "Ġtoys": 587,
      "ret": 588,
      "Ġyour": 589,
      "Ġch": 590,
      "Ġbox": 591,
      "ish": 592,
      "Ġbl": 593,
      "Ġthings": 594,
      "Ġaround": 595,
      "oud": 596,
      "uck": 597,
      "Ġthen": 598,
      "Ġfe": 599,
      "Ġlived": 600,
      "Ġab": 601,
      "Ġsun": 602,
      "ist": 603,
      "Ġsw": 604,
      ",\"": 605,
      "pped": 606,
      "ank": 607,
      "ap": 608,
      "Ġget": 609,
      "ĠMia": 610,
      "ĠD": 611,
      "ump": 612,
      "Th": 613,
      "ucy": 614,
      "Tim": 615,
      "uch": 616,
      "ited": 617,
      "qu": 618,
      "Ġlot": 619,
      "oth": 620,
      "Ġknow": 621,
      "Ġv": 622,
      "ew": 623,
      "Ġtried": 624,
      "Ġgot": 625,
      "ave": 626,
      "Ġsays": 627,
      "Ġint": 628,
      "ous": 629,
      "Ġmany": 630,
      "nder": 631,
      "Ġabout": 632,
      "Ġany": 633,
      "Lily": 634,
      "ace": 635,
      "Ġpret": 636,
      "Ġdec": 637,
      "Ġred": 638,
      "Ġmore": 639,
      "ally": 640,
      "Ġpo": 641,
      "ise": 642,
      "Ġknew": 643,
      "use": 644,
      "fter": 645,
      "ant": 646,
      "Ġcare": 647,
      "ive": 648,
      "Ġpic": 649,
      "ers": 650,
      "Ġgre": 651,
      "Ġwater": 652,
      "Ġhug": 653,
      "âĢ": 654,
      "ĠLucy": 655,
      "Ġop": 656,
      "Ġbest": 657,
      "Ġlearned": 658,
      "Ġun": 659,
      "Ġbecame": 660,
      "ause": 661,
      "ĠC": 662,
      "ways": 663,
      "fe": 664,
      "urp": 665,
      "Ġexc": 666,
      "ĠE": 667,
      "Ġinto": 668,
      "Ġlook": 669,
      "Ġshow": 670,
      "Ġoutside": 671,
      "Ġlaughed": 672,
      "Ġalways": 673,
      "Ġho": 674,
      "ite": 675,
      "ided": 676,
      "ĠAnd": 677,
      "Ġroom": 678,
      "Ġone": 679,
      "Ġbecause": 680,
      "ĠSo": 681,
      "ĠBob": 682,
      "Ġpe": 683,
      "Ġdecided": 684,
      "ion": 685,
      "Ġeat": 686,
      "Ġboth": 687,
      "Ġthis": 688,
      "Ġjump": 689,
      "udd": 690,
      "our": 691,
      "Ġke": 692,
      "ĠMom": 693,
      "Ġdad": 694,
      "They": 695,
      "ak": 696,
      "Ġmo": 697,
      "nn": 698,
      "Ġlong": 699,
      "Ġam": 700,
      "Yes": 701,
      "Ġfeel": 702,
      "Ġfast": 703,
      "Ġrun": 704,
      "Ġexcited": 705,
      "Ġnice": 706,
      "Tom": 707,
      "Ġtr": 708,
      "Ġor": 709,
      "ull": 710,
      "Ġtold": 711,
      "Ġsk": 712,
      "urpr": 713,
      "ink": 714,
      "Ġinside": 715,
      "ro": 716,
      "Ġsurpr": 717,
      "Ġhow": 718,
      "Ġpretty": 719,
      "iny": 720,
      "Ġsor": 721,
      "Wh": 722,
      "ven": 723,
      "and": 724,
      "Ġsl": 725,
      "og": 726,
      "Ġmuch": 727,
      "ess": 728,
      "ara": 729,
      "Ġeach": 730,
      "Ġgra": 731,
      "Ġgave": 732,
      "Ġrock": 733,
      "Ġthan": 734,
      "Ġstr": 735,
      "nna": 736,
      "lew": 737,
      "ged": 738,
      "imal": 739,
      "Ġanimal": 740,
      "Ġneed": 741,
      "etter": 742,
      "Ġtow": 743,
      "est": 744,
      "Ġunder": 745,
      "But": 746,
      "Ġold": 747,
      "ast": 748,
      "here": 749,
      "Ġtake": 750,
      "Ġsorry": 751,
      "Ġby": 752,
      "ised": 753,
      "ge": 754,
      "ate": 755,
      "urt": 756,
      "urn": 757,
      "Ġcle": 758,
      "Ġhand": 759,
      "Ġclo": 760,
      "ine": 761,
      "ase": 762,
      "Ġfish": 763,
      "Ġwalked": 764,
      "Ġbear": 765,
      "Ġus": 766,
      "ĠWe": 767,
      "pl": 768,
      "Ġkind": 769,
      "Ġjust": 770,
      "ĠHis": 771,
      "ving": 772,
      "Ġhig": 773,
      "Ġcom": 774,
      "Ġhappened": 775,
      "Ġflow": 776,
      "Ġlist": 777,
      "Ġtw": 778,
      "Ġfood": 779,
      "ched": 780,
      "Ġdidn": 781,
      "Ġnear": 782,
      "Ġide": 783,
      "Ġanimals": 784,
      "Ġwat": 785,
      "Ġits": 786,
      "Ġfi": 787,
      "Ġtry": 788,
      "Ġsn": 789,
      "Ġsky": 790,
      "rom": 791,
      "ff": 792,
      "Ġen": 793,
      "Ġbetter": 794,
      "able": 795,
      "Ġidea": 796,
      "Ġheard": 797,
      "ĠAmy": 798,
      "Ġte": 799,
      "pec": 800,
      "Ġif": 801,
      "ĠTh": 802,
      "ort": 803,
      "gry": 804,
      "Ġbug": 805,
      "ial": 806,
      "lf": 807,
      "Ġlet": 808,
      "ber": 809,
      "Ġstor": 810,
      "Ġshare": 811,
      "Ġcareful": 812,
      "Thank": 813,
      "Ġfo": 814,
      "Ġfly": 815,
      "Mom": 816,
      "Ġspec": 817,
      "Ġnever": 818,
      "Ġflew": 819,
      "more": 820,
      "Ġanymore": 821,
      "Ġspecial": 822,
      "ream": 823,
      "Ġdan": 824,
      "Ġlots": 825,
      "ĠP": 826,
      "ves": 827,
      "Ġdon": 828,
      "Ġgr": 829,
      "Ġbu": 830,
      "Ġwind": 831,
      "Ġend": 832,
      "rm": 833,
      "Ġover": 834,
      "Ġtal": 835,
      "ct": 836,
      "ople": 837,
      "Ġeven": 838,
      "Ġclean": 839,
      "ĠThen": 840,
      "Ġcome": 841,
      "Ġmag": 842,
      "Ġafter": 843,
      "Ġhard": 844,
      "Ġfore": 845,
      "udden": 846,
      "Ġqu": 847,
      "ble": 848,
      "Ġbook": 849,
      "Ġturn": 850,
      "Ġshiny": 851,
      "Ġcol": 852,
      "ady": 853,
      "Ġfam": 854,
      "Ġpeople": 855,
      "Ġim": 856,
      "ĠK": 857,
      "Ġbad": 858,
      "ip": 859,
      "ild": 860,
      "uddenly": 861,
      "Ġsafe": 862,
      "Ġcake": 863,
      "Ġcu": 864,
      "Ġhigh": 865,
      "ĠAnna": 866,
      "Ġproud": 867,
      "Ġgl": 868,
      "ĠEvery": 869,
      "ough": 870,
      "pected": 871,
      "Ġdoor": 872,
      "ĠN": 873,
      "Ġsurprised": 874,
      "Let": 875,
      "Ġhurt": 876,
      "arden": 877,
      "imb": 878,
      "Ġground": 879,
      "Ġgarden": 880,
      "Ġopened": 881,
      "Ġche": 882,
      "Ġway": 883,
      "Ġloud": 884,
      "Ġpicked": 885,
      "age": 886,
      "Ġclimb": 887,
      "Ġcall": 888,
      "Ġlove": 889,
      "Ġoff": 890,
      "ail": 891,
      "iz": 892,
      "Ġunex": 893,
      "Ġunexpected": 894,
      "em": 895,
      "Ġstill": 896,
      "As": 897,
      "uff": 898,
      "'m": 899,
      "Ġever": 900,
      "Ġpar": 901,
      "Ġblue": 902,
      "Ġcolor": 903,
      "Ġfar": 904,
      "Ġthanked": 905,
      "ĠHer": 906,
      "ĠFrom": 907,
      "ĠWhen": 908,
      "th": 909,
      "ies": 910,
      "Ġhugged": 911,
      "ĠIn": 912,
      "ĠSara": 913,
      "Ġshould": 914,
      "Ġmagic": 915,
      "ool": 916,
      "ummy": 917,
      "Ġplace": 918,
      "Ġnow": 919,
      "hes": 920,
      "Ġfamily": 921,
      "Ġjumped": 922,
      "Ġgreat": 923,
      "ĠR": 924,
      "Ġkid": 925,
      "Ġsmile": 926,
      "kay": 927,
      "Ġwalk": 928,
      "ress": 929,
      "ture": 930,
      "Ġunt": 931,
      "aut": 932,
      "ane": 933,
      "dy": 934,
      "Ġstrong": 935,
      "Ġstay": 936,
      "Ġsto": 937,
      "No": 938,
      "Ġbra": 939,
      "ning": 940,
      "Ġapp": 941,
      "ary": 942,
      "Ġforest": 943,
      "Ġgive": 944,
      "Ġbro": 945,
      "Ġuntil": 946,
      "oon": 947,
      "itty": 948,
      "Ġbeaut": 949,
      "Ġfrog": 950,
      "Ġnext": 951,
      "Ġsqu": 952,
      "pt": 953,
      "aking": 954,
      "lease": 955,
      "Ġtra": 956,
      "Ġstick": 957,
      "Ġboat": 958,
      "oy": 959,
      "ree": 960,
      "Ġimp": 961,
      "by": 962,
      "be": 963,
      "Ġdra": 964,
      "Ġlisten": 965,
      "Ġhappily": 966,
      "Ġclos": 967,
      "iful": 968,
      "Ġbeautiful": 969,
      "Ġwhile": 970,
      "Ġkids": 971,
      "Ġstory": 972,
      "ĠG": 973,
      "Ġhelped": 974,
      "Ġrem": 975,
      "Ġbeing": 976,
      "Ġshowed": 977,
      "Ġlea": 978,
      "rel": 979,
      "irst": 980,
      "Ġtown": 981,
      "unny": 982,
      "Ġad": 983,
      "Ġwhere": 984,
      "Ġcalled": 985,
      "Ġrain": 986,
      "Ġpicture": 987,
      "Ġmor": 988,
      "It": 989,
      "Ġmet": 990,
      "ear": 991,
      "Ġeveryone": 992,
      "Ġgame": 993,
      "iss": 994,
      "ger": 995,
      "so": 996,
      "les": 997,
      "Ġwo": 998,
      "Ġstopped": 999,
      "He": 1000,
      "vent": 1001,
      "ĠWh": 1002,
      "Ġopen": 1003,
      "fore": 1004,
      "Ġhat": 1005,
      "Can": 1006,
      "Ġsoft": 1007,
      "Ġkeep": 1008,
      "Ġangry": 1009,
      "Ġtwo": 1010,
      "uffy": 1011,
      "ished": 1012,
      "Ġbed": 1013,
      "Ġlost": 1014,
      "Ġcry": 1015,
      "When": 1016,
      "Ġtruck": 1017,
      "Ġalso": 1018,
      "self": 1019,
      "ĠLet": 1020,
      "Ġyummy": 1021,
      "Ġcon": 1022,
      "gan": 1023,
      "Ġwarm": 1024,
      "ĠSally": 1025,
      "Ġde": 1026,
      "Ġmouse": 1027,
      "ĠKitty": 1028,
      "Ġate": 1029,
      "Ġbrave": 1030,
      "Ġwatch": 1031,
      "Ġface": 1032,
      "Ġfell": 1033,
      "Ġdoll": 1034,
      "Ġcouldn": 1035,
      "dded": 1036,
      "bit": 1037,
      "Ġgreen": 1038,
      "ub": 1039,
      "ock": 1040,
      "Ġpa": 1041,
      "az": 1042,
      "owl": 1043,
      "What": 1044,
      "Ġbefore": 1045,
      "ush": 1046,
      "Ġflowers": 1047,
      "Ġhear": 1048,
      "ud": 1049,
      "Ġnoise": 1050,
      "abbit": 1051,
      "Ġsoon": 1052,
      "Ġfirst": 1053,
      "ired": 1054,
      "Ġwr": 1055,
      "Ġhas": 1056,
      "ma": 1057,
      "Ġsat": 1058,
      "Ġslide": 1059,
      "Ġrabbit": 1060,
      "ng": 1061,
      "Ġhole": 1062,
      "ĠFl": 1063,
      "illy": 1064,
      "âĢľ": 1065,
      "Ġsing": 1066,
      "irrel": 1067,
      "That": 1068,
      "Ġkept": 1069,
      "Ġuse": 1070,
      "âĢĿ": 1071,
      "Ġhands": 1072,
      "Hi": 1073,
      "Then": 1074,
      "Ġsquirrel": 1075,
      "Ġey": 1076,
      "Ġgoing": 1077,
      "Ġexpl": 1078,
      "Ġnodded": 1079,
      "Ġpain": 1080,
      "ol": 1081,
      "day": 1082,
      "Ġstore": 1083,
      "Ġcook": 1084,
      "Ġfin": 1085,
      "Ġhaving": 1086,
      "Ġthr": 1087,
      "Ġbirds": 1088,
      "Look": 1089,
      "aug": 1090,
      "Ġthink": 1091,
      "Ġbre": 1092,
      "aught": 1093,
      "ĠCan": 1094,
      "uit": 1095,
      "ting": 1096,
      "Ġused": 1097,
      "Ġour": 1098,
      "ange": 1099,
      "Ġfunny": 1100,
      "air": 1101,
      "leep": 1102,
      "ac": 1103,
      "aybe": 1104,
      "Ġcatch": 1105,
      "Ġcra": 1106,
      "Ġwork": 1107,
      "Ġyell": 1108,
      "ĠJo": 1109,
      "Ġmean": 1110,
      "ount": 1111,
      "ĠFluffy": 1112,
      "Ġfix": 1113,
      "Ġdr": 1114,
      "thing": 1115,
      "ath": 1116,
      "ember": 1117,
      "Ġlooking": 1118,
      "Ben": 1119,
      "Ġtired": 1120,
      "Ġbunny": 1121,
      "Ġjo": 1122,
      "orn": 1123,
      "Ġwait": 1124,
      "ĠNow": 1125,
      "Ġsound": 1126,
      "We": 1127,
      "Ġpull": 1128,
      "Ġbeh": 1129,
      "Ġhead": 1130,
      "itc": 1131,
      "ious": 1132,
      "Ġdif": 1133,
      "led": 1134,
      "Ġothers": 1135,
      "Ġask": 1136,
      "rew": 1137,
      "Ġright": 1138,
      "Ġpond": 1139,
      "Ġeyes": 1140,
      "ft": 1141,
      "Ġtalk": 1142,
      "Ġtri": 1143,
      "Ġsunny": 1144,
      "Ġreal": 1145,
      "Ġflo": 1146,
      "itchen": 1147,
      "Ġkitchen": 1148,
      "Ġpie": 1149,
      "imes": 1150,
      "akes": 1151,
      "Ġdis": 1152,
      "Ġimport": 1153,
      "Ġfav": 1154,
      "ĠDo": 1155,
      "Ġz": 1156,
      "Ġown": 1157,
      "Ġdress": 1158,
      "Ġremember": 1159,
      "Ġmommy": 1160,
      "ello": 1161,
      "Hello": 1162,
      "Ġmess": 1163,
      "joy": 1164,
      "Ġparty": 1165,
      "ect": 1166,
      "llow": 1167,
      "eet": 1168,
      "Ġcold": 1169,
      "Ġflower": 1170,
      "ation": 1171,
      "Ġsand": 1172,
      "hn": 1173,
      "Ġrace": 1174,
      "oice": 1175,
      "Ġri": 1176,
      "Ġsong": 1177,
      "ĠâĢľ": 1178,
      "Ġimportant": 1179,
      "Ġcuri": 1180,
      "ĠJack": 1181,
      "Ġmoral": 1182,
      "Ġduck": 1183,
      "Ġbegan": 1184,
      "zy": 1185,
      "Ġshared": 1186,
      "Ġmaking": 1187,
      "Ġice": 1188,
      "Ġmon": 1189,
      "Ġadvent": 1190,
      "Ġhere": 1191,
      "Ġdoes": 1192,
      "Ġhop": 1193,
      "Ġworked": 1194,
      "Ġenjoy": 1195,
      "Ġbright": 1196,
      "Ġokay": 1197,
      "Ġthing": 1198,
      "At": 1199,
      "Ġtell": 1200,
      "Ġcurious": 1201,
      "Ġrest": 1202,
      "reed": 1203,
      "Ġcla": 1204,
      "Ġbel": 1205,
      "ied": 1206,
      "Ġtall": 1207,
      "Ġsleep": 1208,
      "Ġdir": 1209,
      "Ġhid": 1210,
      "Ġfavor": 1211,
      "Ġfollow": 1212,
      "bed": 1213,
      "Ġdraw": 1214,
      "Ġfavorite": 1215,
      "Ġnight": 1216,
      "Ġhill": 1217,
      "Don": 1218,
      "Wow": 1219,
      "Ġbag": 1220,
      "ĠFin": 1221,
      "Ġyard": 1222,
      "ign": 1223,
      "ĠThis": 1224,
      "Ġcut": 1225,
      "Ġvoice": 1226,
      "fere": 1227,
      "Ġwatched": 1228,
      "lly": 1229,
      "aper": 1230,
      "ered": 1231,
      "Ġpick": 1232,
      "Ġbehind": 1233,
      "Ġhun": 1234,
      "Ġagreed": 1235,
      "Ġstop": 1236,
      "Ġblock": 1237,
      "Ġsho": 1238,
      "ster": 1239,
      "Ġdark": 1240,
      "Ġtable": 1241,
      "Ġper": 1242,
      "Ġdiffere": 1243,
      "Ġhot": 1244,
      "Ġsurprise": 1245,
      "ĠO": 1246,
      "Ġtop": 1247,
      "Ġgrass": 1248,
      "After": 1249,
      "Ġtrees": 1250,
      "Ġwalking": 1251,
      "ĠMr": 1252,
      "Ġworry": 1253,
      "Ġcr": 1254,
      "Ġread": 1255,
      "Ġmove": 1256,
      "Ġfloor": 1257,
      "Ġlion": 1258,
      "Ġfarm": 1259,
      "Ġlady": 1260,
      "Ġplease": 1261,
      "Ġgrab": 1262,
      "Ġsweet": 1263,
      "Ġtail": 1264,
      "Ġshout": 1265,
      "Ġbutter": 1266,
      "Ġforg": 1267,
      "Max": 1268,
      "Ġcolors": 1269,
      "ĠDad": 1270,
      "isy": 1271,
      "Ġturned": 1272,
      "Ġleaves": 1273,
      "Ġdel": 1274,
      "Ġcried": 1275,
      "Ġcloser": 1276,
      "Ġdifferent": 1277,
      "ĠAs": 1278,
      "aring": 1279,
      "Ġwood": 1280,
      "Ġneeded": 1281,
      "Ġcars": 1282,
      "Why": 1283,
      "Ġtast": 1284,
      "Ġfire": 1285,
      "Ġpiece": 1286,
      "Ġprin": 1287,
      "Ġonly": 1288,
      "Ġlaugh": 1289,
      "Ġbeen": 1290,
      "Ġpus": 1291,
      "Ġfull": 1292,
      "âĢĻ": 1293,
      "Ġroll": 1294,
      "Ġadventure": 1295,
      "Ġhair": 1296,
      "av": 1297,
      "Ġfeeling": 1298,
      "Ġhungry": 1299,
      "ater": 1300,
      "Ġpaper": 1301,
      "Ġyellow": 1302,
      "ĠSuddenly": 1303,
      "ient": 1304,
      "Ġtouch": 1305,
      "ken": 1306,
      "oom": 1307,
      "Sue": 1308,
      "Ġlight": 1309,
      "ached": 1310,
      "Anna": 1311,
      "Ġanother": 1312,
      "Sam": 1313,
      "Ġwet": 1314,
      "Ġfriendly": 1315,
      "Ġac": 1316,
      "cked": 1317,
      "ather": 1318,
      "ĠThat": 1319,
      "Ġprom": 1320,
      "kes": 1321,
      "Ġswing": 1322,
      "Ġfruit": 1323,
      "Ġready": 1324,
      "Ġbroken": 1325,
      "Ġar": 1326,
      "ppy": 1327,
      "ins": 1328,
      "bye": 1329,
      "Ġdance": 1330,
      "red": 1331,
      "where": 1332,
      "Ġplan": 1333,
      "Ġpretend": 1334,
      "Ġdanc": 1335,
      "Ġlistened": 1336,
      "Ġclimbed": 1337,
      "Ġgone": 1338,
      "Ġrunning": 1339,
      "Ġbus": 1340,
      "bo": 1341,
      "ĠBobo": 1342,
      "Ġname": 1343,
      "ĠAll": 1344,
      "Ġmust": 1345,
      "Ġhold": 1346,
      "Ġswim": 1347,
      "ike": 1348,
      "ĠJane": 1349,
      "Ġrepl": 1350,
      "ila": 1351,
      "Suddenly": 1352,
      "aby": 1353,
      "Ġwonder": 1354,
      "oney": 1355,
      "She": 1356,
      "ee": 1357,
      "Sara": 1358,
      "ndma": 1359,
      "Ġsmell": 1360,
      "Ġamaz": 1361,
      "So": 1362,
      "Ġwall": 1363,
      "Ġdri": 1364,
      "Ġclose": 1365,
      "Ġreached": 1366,
      "Ġblocks": 1367,
      "ĠTimmy": 1368,
      "Ġant": 1369,
      "Ġchild": 1370,
      "Ġless": 1371,
      "Ġsees": 1372,
      "Ġslow": 1373,
      "ich": 1374,
      "Ġpu": 1375,
      "Ġbutterf": 1376,
      "Ġglad": 1377,
      "sh": 1378,
      "Ġfight": 1379,
      "Ġhelping": 1380,
      "Ġcream": 1381,
      "Ġmoment": 1382,
      "Ġcool": 1383,
      "Ġfair": 1384,
      "Ġmight": 1385,
      "iced": 1386,
      "Ġperf": 1387,
      "Ġgoodbye": 1388,
      "Ġpushed": 1389,
      "Ġwindow": 1390,
      "Ġcount": 1391,
      "Mia": 1392,
      "Ġdone": 1393,
      "Ġsit": 1394,
      "Ġste": 1395,
      "Ġgi": 1396,
      "Ġmar": 1397,
      "Ġhide": 1398,
      "ix": 1399,
      "ized": 1400,
      "ames": 1401,
      "Ġ'": 1402,
      "Ġcoming": 1403,
      "Ġfall": 1404,
      "ash": 1405,
      "Ġbar": 1406,
      "Ġthrough": 1407,
      "Ġsnow": 1408,
      "Ġbaby": 1409,
      "amp": 1410,
      "Ġexplore": 1411,
      "Ġballoon": 1412,
      "Ġwished": 1413,
      "ĠEveryone": 1414,
      "art": 1415,
      "Ġcont": 1416,
      "Ġbuy": 1417,
      "Ġheld": 1418,
      "Ġthank": 1419,
      "Ġwag": 1420,
      "Ġthree": 1421,
      "Ġtrain": 1422,
      "icy": 1423,
      "Ġstuck": 1424,
      "Ġquick": 1425,
      "Ġwin": 1426,
      "ott": 1427,
      "Ġunderst": 1428,
      "Ġbit": 1429,
      "Ġtrying": 1430,
      "ely": 1431,
      "co": 1432,
      "Ġleft": 1433,
      "ph": 1434,
      "Ġair": 1435,
      "Ġbuild": 1436,
      "Ġapple": 1437,
      "Ġdream": 1438,
      "Ġdoing": 1439,
      "Ġdin": 1440,
      "outh": 1441,
      "Ġlooks": 1442,
      "os": 1443,
      "Ġscary": 1444,
      "Ġwhy": 1445,
      "Ġland": 1446,
      "Ġmat": 1447,
      "aisy": 1448,
      "Ġdirty": 1449,
      "ield": 1450,
      "pe": 1451,
      "Ġbooks": 1452,
      "que": 1453,
      "Ġreplied": 1454,
      "In": 1455,
      "man": 1456,
      "Ġbrother": 1457,
      "avy": 1458,
      "Ġworld": 1459,
      "ask": 1460,
      "Ġreach": 1461,
      "Ġdro": 1462,
      "Ġshouted": 1463,
      "uddy": 1464,
      "Ġseen": 1465,
      "Ġcre": 1466,
      "Ġbutterfly": 1467,
      "Ġcup": 1468,
      "ower": 1469,
      "Ġyear": 1470,
      "Ġgrow": 1471,
      "Ġbran": 1472,
      "'re": 1473,
      "Ġsure": 1474,
      "ĠThere": 1475,
      "Ġtreat": 1476,
      "Ġtiny": 1477,
      "Ġ1": 1478,
      "oup": 1479,
      "ds": 1480,
      "Ġspl": 1481,
      "Ġcomp": 1482,
      "Ġchair": 1483,
      "Ġpulled": 1484,
      "Ġsometimes": 1485,
      "Ġwise": 1486,
      "Ġplant": 1487,
      "ton": 1488,
      "Ġwoods": 1489,
      "Ġfill": 1490,
      "Ġset": 1491,
      "Ġpink": 1492,
      "andy": 1493,
      "Ġcloud": 1494,
      "Ġowl": 1495,
      "Ġclapped": 1496,
      "ance": 1497,
      "Ġjoin": 1498,
      "Ġmus": 1499,
      "der": 1500,
      "Ġmouth": 1501,
      "Ġjob": 1502,
      "Ġwon": 1503,
      "Ġremembered": 1504,
      "orm": 1505,
      "cle": 1506,
      "room": 1507,
      "Ġnest": 1508,
      "Ġcolorful": 1509,
      "Ġbigger": 1510,
      "Oh": 1511,
      "Ġlesson": 1512,
      "Okay": 1513,
      "ĠAfter": 1514,
      "ated": 1515,
      "up": 1516,
      "This": 1517,
      "Ġclot": 1518,
      "Ġwaved": 1519,
      "Ġcast": 1520,
      "Ġstayed": 1521,
      "Ġgent": 1522,
      "Ġgrabbed": 1523,
      "ey": 1524,
      "ries": 1525,
      "Ġpaint": 1526,
      "ctor": 1527,
      "Ġmiss": 1528,
      "Ġclothes": 1529,
      "Ġgames": 1530,
      "Ġquickly": 1531,
      "Ġwaited": 1532,
      "Ġhimself": 1533,
      "ucky": 1534,
      "Ġbroke": 1535,
      "cess": 1536,
      "Ġsea": 1537,
      "asure": 1538,
      "less": 1539,
      "Ġarm": 1540,
      "Ġanything": 1541,
      "Ġblew": 1542,
      "Ġalone": 1543,
      "Ġnoticed": 1544,
      "ĠMommy": 1545,
      "Ġenjoyed": 1546,
      "Jo": 1547,
      "Ġpat": 1548,
      "Ġheavy": 1549,
      "ence": 1550,
      "Ġlikes": 1551,
      "Ġpen": 1552,
      "Ġpictures": 1553,
      "Ġspot": 1554,
      "Ġgif": 1555,
      "Ġpot": 1556,
      "Ġturns": 1557,
      "Ġbott": 1558,
      "Ġhopped": 1559,
      "ner": 1560,
      "ire": 1561,
      "ang": 1562,
      "row": 1563,
      "Ġmix": 1564,
      "Ġmusic": 1565,
      "Her": 1566,
      "Ġem": 1567,
      "Ġtight": 1568,
      "iet": 1569,
      "Ġwhite": 1570,
      "Ġfollowed": 1571,
      "ape": 1572,
      "Ġeverywhere": 1573,
      "ĠWhat": 1574,
      "Ġtower": 1575,
      "ord": 1576,
      "Ġpol": 1577,
      "ts": 1578,
      "Ġthrew": 1579,
      "key": 1580,
      "Ġblack": 1581,
      "Lucy": 1582,
      "ister": 1583,
      "ass": 1584,
      "itten": 1585,
      "\".": 1586,
      "Ġride": 1587,
      "ĠBuddy": 1588,
      "Ġkey": 1589,
      "Ġswam": 1590,
      "oun": 1591,
      "Ġmakes": 1592,
      "Bob": 1593,
      "Ġbreak": 1594,
      "Ġwrong": 1595,
      "arent": 1596,
      "Ġres": 1597,
      "ĠCh": 1598,
      "ren": 1599,
      "ĠJohn": 1600,
      "Ġdeep": 1601,
      "ued": 1602,
      "ĠDaisy": 1603,
      "thy": 1604,
      "olly": 1605,
      "Ġround": 1606,
      "Ġhit": 1607,
      "Spot": 1608,
      "Ġpre": 1609,
      "cy": 1610,
      "Ġdelic": 1611,
      "Ġwell": 1612,
      "Ġparent": 1613,
      "Ġvis": 1614,
      "Ġbee": 1615,
      "Do": 1616,
      "Ġcastle": 1617,
      "Ġforgot": 1618,
      "ross": 1619,
      "ards": 1620,
      "Ġwear": 1621,
      "ully": 1622,
      "Ġquiet": 1623,
      "Ġele": 1624,
      "Ġleg": 1625,
      "Ġrel": 1626,
      "Ġunderstand": 1627,
      "vel": 1628,
      "Ġsign": 1629,
      "Ġgu": 1630,
      "Ġside": 1631,
      "Ġbowl": 1632,
      "Ġpoin": 1633,
      "Ġwants": 1634,
      "Ġdanced": 1635,
      "rot": 1636,
      "Ġbrought": 1637,
      "Ġ(": 1638,
      "Ġleaf": 1639,
      "Ġbor": 1640,
      "Ġmonster": 1641,
      "fully": 1642,
      "Ġnap": 1643,
      "Ġtalked": 1644,
      "Ġsec": 1645,
      "Ġdry": 1646,
      "ons": 1647,
      "come": 1648,
      "Ġear": 1649,
      "Ġfaster": 1650,
      "Ġcookies": 1651,
      "ian": 1652,
      "zz": 1653,
      "ĠTo": 1654,
      "ĠAt": 1655,
      "Ġel": 1656,
      "Ġcontin": 1657,
      "Ġsister": 1658,
      "Ġking": 1659,
      "Ġreally": 1660,
      "Ġmum": 1661,
      "oc": 1662,
      "Ġsmart": 1663,
      "From": 1664,
      "Ġhappen": 1665,
      "ĠInside": 1666,
      "Ġbike": 1667,
      "Ġsomeone": 1668,
      "ased": 1669,
      "Ġrocks": 1670,
      "gy": 1671,
      "Ġfinished": 1672,
      "Ġbranch": 1673,
      "His": 1674,
      "Ġfox": 1675,
      "Ġdinner": 1676,
      "Ġbutton": 1677,
      "ĠEm": 1678,
      "Ġsharing": 1679,
      "Ġ2": 1680,
      "Ġsecret": 1681,
      "ale": 1682,
      "Ġsang": 1683,
      "Ġriver": 1684,
      "ĠLila": 1685,
      "Ġvisit": 1686,
      "ipp": 1687,
      "Ġchildren": 1688,
      "Ġflying": 1689,
      "eddy": 1690,
      "Ġeverything": 1691,
      "Ġworried": 1692,
      "ity": 1693,
      "Ġtoday": 1694,
      "Ġperfect": 1695,
      "Ġbeach": 1696,
      "Ġfield": 1697,
      "iver": 1698,
      "me": 1699,
      "ĠMaybe": 1700,
      "Ġatt": 1701,
      "Ġelse": 1702,
      "ĠSarah": 1703,
      "Ġdanger": 1704,
      "ze": 1705,
      "John": 1706,
      "ead": 1707,
      "Ġwish": 1708,
      "Ġshin": 1709,
      "Ġyes": 1710,
      "Ġsilly": 1711,
      "Ġfilled": 1712,
      "Ġspr": 1713,
      "Ġfree": 1714,
      "Ġwithout": 1715,
      "Ġfur": 1716,
      "ĠSoon": 1717,
      "Ġwel": 1718,
      "Ġsmiles": 1719,
      "mer": 1720,
      "itting": 1721,
      "Ġcontinued": 1722,
      "ĠSt": 1723,
      "Ġpromised": 1724,
      "Ġeating": 1725,
      "Ġpieces": 1726,
      "Ġpig": 1727,
      "While": 1728,
      "Ġpudd": 1729,
      "Ġsnack": 1730,
      "Ġrealized": 1731,
      "Ġenough": 1732,
      "Ġparents": 1733,
      "ĠZ": 1734,
      "ible": 1735,
      "cket": 1736,
      "Ġpass": 1737,
      "Ġdrag": 1738,
      "Ġcow": 1739,
      "Ġbite": 1740,
      "stead": 1741,
      "Ġwords": 1742,
      "Ġcarefully": 1743,
      "Ġpurp": 1744,
      "Just": 1745,
      "chool": 1746,
      "Ġorange": 1747,
      "Ġjar": 1748,
      "Ġwhich": 1749,
      "Ġblank": 1750,
      "Ġmother": 1751,
      "Maybe": 1752,
      "Amy": 1753,
      "Ġju": 1754,
      "Ġmud": 1755,
      "Ġmost": 1756,
      "Ġsail": 1757,
      "Ġmoney": 1758,
      "Ġcrying": 1759,
      "ere": 1760,
      "Ġdrink": 1761,
      "used": 1762,
      "Ġpet": 1763,
      "bble": 1764,
      "Ġrolled": 1765,
      "Ġblanket": 1766,
      "Ġleave": 1767,
      "Ġwhe": 1768,
      "Ġsoup": 1769,
      "fort": 1770,
      "Ġthrow": 1771,
      "imi": 1772,
      "Ġlaughing": 1773,
      "Ġschool": 1774,
      "Ġpast": 1775,
      "ĠGra": 1776,
      "Ġfairy": 1777,
      "Ġboun": 1778,
      "Ġsame": 1779,
      "Ġcrab": 1780,
      "ĠJoe": 1781,
      "Ġamazing": 1782,
      "Ġmorning": 1783,
      "Ġbath": 1784,
      "ises": 1785,
      "Ġpurple": 1786,
      "ĠBilly": 1787,
      "Ġph": 1788,
      "Ġra": 1789,
      "Ġdoctor": 1790,
      "Ġbottle": 1791,
      "Ġmoved": 1792,
      "..": 1793,
      "Ġgift": 1794,
      "Ġstre": 1795,
      "gg": 1796,
      "Ġyears": 1797,
      "unch": 1798,
      "Ġgetting": 1799,
      "Ġbrown": 1800,
      "ĠBl": 1801,
      "Fin": 1802,
      "Ġgrandma": 1803,
      "ose": 1804,
      "Ġmail": 1805,
      "Ġser": 1806,
      "Ġclosed": 1807,
      "Ġsmo": 1808,
      "Ġmonkey": 1809,
      "Ġstand": 1810,
      "Ġbarked": 1811,
      "Ġwagged": 1812,
      "Ġliving": 1813,
      "Ġasks": 1814,
      "Ġsitting": 1815,
      "Ġroad": 1816,
      "itch": 1817,
      "Ġwelcome": 1818,
      "Ġhigher": 1819,
      "Ġowner": 1820,
      "ball": 1821,
      "Ġstart": 1822,
      "Ġlon": 1823,
      "ment": 1824,
      "Ġcreat": 1825,
      "Ġcandy": 1826,
      "Ġstrange": 1827,
      "Ġsnake": 1828,
      "Ġletter": 1829,
      "med": 1830,
      "Ġtreasure": 1831,
      "Ġbelie": 1832,
      "Ġdangerous": 1833,
      ".âĢĿ": 1834,
      "Ġlonely": 1835,
      "Ġbat": 1836,
      "!âĢĿ": 1837,
      "Ġshop": 1838,
      "Ġtalking": 1839,
      "igh": 1840,
      "Ġapples": 1841,
      "Ġdes": 1842,
      "Ġshining": 1843,
      "asket": 1844,
      "app": 1845,
      "Ġ-": 1846,
      "Ġmad": 1847,
      "Ġrec": 1848,
      "Ġcaught": 1849,
      "Ġdays": 1850,
      "una": 1851,
      "Ġpaw": 1852,
      "ĠTommy": 1853,
      "Ġfan": 1854,
      "Ġshoes": 1855,
      "sw": 1856,
      "ier": 1857,
      "Ġinc": 1858,
      "althy": 1859,
      "Ġegg": 1860,
      "Ġruns": 1861,
      "Ġhor": 1862,
      "ined": 1863,
      "Ġbasket": 1864,
      "Ġbuck": 1865,
      "Ġtom": 1866,
      "Ġlake": 1867,
      "Ġwings": 1868,
      "cks": 1869,
      "Ġcour": 1870,
      "Ġansw": 1871,
      "Ġgentle": 1872,
      "fish": 1873,
      "Ġstone": 1874,
      "set": 1875,
      "Ġwar": 1876,
      "Ġdragon": 1877,
      "Ġve": 1878,
      "Ġpers": 1879,
      "board": 1880,
      "Ġmin": 1881,
      "Ġbring": 1882,
      "Ġmine": 1883,
      "Ġnose": 1884,
      "'ll": 1885,
      "Ġthinks": 1886,
      "Ġherself": 1887,
      "isk": 1888,
      "Mommy": 1889,
      "sy": 1890,
      "br": 1891,
      "Ġdelicious": 1892,
      "Ġben": 1893,
      "Ġcoat": 1894,
      "Ġsear": 1895,
      "arm": 1896,
      "Ġpuddle": 1897,
      "ĠMimi": 1898,
      "Ġfarmer": 1899,
      "ract": 1900,
      "Ġcoll": 1901,
      "Ġfit": 1902,
      "Ġteddy": 1903,
      "Ġvill": 1904,
      "ama": 1905,
      "ese": 1906,
      "Ġtrou": 1907,
      "Ġfinally": 1908,
      "igg": 1909,
      "ĠU": 1910,
      "ude": 1911,
      "Ġwhist": 1912,
      "Ġsinging": 1913,
      "ella": 1914,
      "Ġscream": 1915,
      "Ġpill": 1916,
      "Ġkiss": 1917,
      "Ġcray": 1918,
      "phant": 1919,
      "Ġkite": 1920,
      "Ġarri": 1921,
      "ches": 1922,
      "Ġbelong": 1923,
      "Ġfil": 1924,
      "ost": 1925,
      "Ġwore": 1926,
      "Ġshell": 1927,
      "Ġhoped": 1928,
      "Ġtasty": 1929,
      "ĠLe": 1930,
      "Ġnum": 1931,
      "Ġpart": 1932,
      "Ġswings": 1933,
      "ove": 1934,
      "ugg": 1935,
      "Ġpush": 1936,
      "erry": 1937,
      "Ġcourse": 1938,
      "Please": 1939,
      "ĠRe": 1940,
      "bow": 1941,
      "Ġbush": 1942,
      "Ġdropped": 1943,
      "Ġteach": 1944,
      "iskers": 1945,
      "Ġteac": 1946,
      "Ġcarrot": 1947,
      "aughty": 1948,
      "Ġelephant": 1949,
      "Ġshap": 1950,
      "Ġpower": 1951,
      "Ġnaughty": 1952,
      "eter": 1953,
      "Ġwoke": 1954,
      "Ġlast": 1955,
      "Ġstreet": 1956,
      "Ġpile": 1957,
      "Ġbow": 1958,
      "irth": 1959,
      "Ġheart": 1960,
      "Ġhiding": 1961,
      "isa": 1962,
      "Ġrob": 1963,
      "Ġtouc": 1964,
      "idge": 1965,
      "ĠJen": 1966,
      "Ġpop": 1967,
      "Ġfew": 1968,
      "llie": 1969,
      "ens": 1970,
      "Ġprob": 1971,
      "Ġgrew": 1972,
      "Ġtwins": 1973,
      "Ġpuppy": 1974,
      "Ġrub": 1975,
      "Ġlunch": 1976,
      "fused": 1977,
      "Ġdist": 1978,
      "Ġvillage": 1979,
      "Ġsack": 1980,
      "Ġspo": 1981,
      "Ġspin": 1982,
      "ipped": 1983,
      "lem": 1984,
      "Ġrope": 1985,
      "ert": 1986,
      "Ġshapes": 1987,
      "Ġcheered": 1988,
      "irthday": 1989,
      "Ġcorn": 1990,
      "Ġyoung": 1991,
      "Ġband": 1992,
      "Ġshook": 1993,
      "ĠFred": 1994,
      "ions": 1995,
      "Ġjoy": 1996,
      "Ġjuice": 1997,
      "Ġrainbow": 1998,
      "OK": 1999,
      "Ġinv": 2000,
      "Ġeas": 2001,
      "Ġcarry": 2002,
      "Ġable": 2003,
      "Ġbench": 2004,
      "Jack": 2005,
      "Ġfence": 2006,
      "Ġspoon": 2007,
      "Ġnut": 2008,
      "Ġtouched": 2009,
      "ountain": 2010,
      "Ġcheese": 2011,
      "Ġarrived": 2012,
      "Ġlive": 2013,
      "Ġbell": 2014,
      "Ġmil": 2015,
      "eb": 2016,
      "irt": 2017,
      "Ġteacher": 2018,
      "Ġcute": 2019,
      "ĠBlue": 2020,
      "Good": 2021,
      "Ġseed": 2022,
      "lla": 2023,
      "eared": 2024,
      "Ġplane": 2025,
      "ato": 2026,
      "Ġforever": 2027,
      "Ġproblem": 2028,
      "ĠWhiskers": 2029,
      "Ġsounds": 2030,
      "Ġbelieve": 2031,
      "ors": 2032,
      "Ġbirthday": 2033,
      "ĠEmma": 2034,
      "Ġwonderful": 2035,
      "Ġsuc": 2036,
      "Ġbusy": 2037,
      "Ġpromise": 2038,
      "Ġbread": 2039,
      "unt": 2040,
      "ular": 2041,
      "Ġbugs": 2042,
      "Ġtowards": 2043,
      "irp": 2044,
      "Ġlife": 2045,
      "Ġdolls": 2046,
      "Ġneck": 2047,
      "Ġwra": 2048,
      "arp": 2049,
      "ĠThank": 2050,
      "Ġfeels": 2051,
      "Ġmilk": 2052,
      "Ġpocket": 2053,
      "Ġ20": 2054,
      "Ġcover": 2055,
      "read": 2056,
      "Ġ19": 2057,
      "Ġcir": 2058,
      "Ġje": 2059,
      "Ġrobot": 2060,
      "Ġslowly": 2061,
      "Ġshy": 2062,
      "Finally": 2063,
      "Ġdi": 2064,
      "Ġlate": 2065,
      "adow": 2066,
      "mb": 2067,
      "Ġmeet": 2068,
      "ider": 2069,
      "Ġpatient": 2070,
      "Ġholding": 2071,
      "gly": 2072,
      "Ġcave": 2073,
      "Ġhelpful": 2074,
      "Ġstorm": 2075,
      "ator": 2076,
      "umpy": 2077,
      "Ġshr": 2078,
      "Ġdisapp": 2079,
      "Ġugly": 2080,
      "ates": 2081,
      "Ġsharp": 2082,
      "Ġseat": 2083,
      "Ġupset": 2084,
      "epend": 2085,
      "Ġturt": 2086,
      "Ġprincess": 2087,
      "ourn": 2088,
      "Ġstories": 2089,
      "Ġact": 2090,
      "Ġmark": 2091,
      "ling": 2092,
      "Ġkitten": 2093,
      "ung": 2094,
      "Ġfoot": 2095,
      "Ġhoney": 2096,
      "Ġorgan": 2097,
      "ĠRemy": 2098,
      "Ġballs": 2099,
      "mon": 2100,
      "ĠOn": 2101,
      "ĠBella": 2102,
      "Ġspark": 2103,
      "Ġmist": 2104,
      "Ġdriver": 2105,
      "Ġgray": 2106,
      "not": 2107,
      "Ġnoises": 2108,
      "Ġdirt": 2109,
      "Ġent": 2110,
      "Ġbucket": 2111,
      "Ġca": 2112,
      "Ġwild": 2113,
      "Ġhorse": 2114,
      "Ġseek": 2115,
      "Ġamazed": 2116,
      "Ġtrip": 2117,
      "Ġjourn": 2118,
      "Ġexp": 2119,
      "Ġtaking": 2120,
      "Ġturtle": 2121,
      "Ġglow": 2122,
      "Ġtreats": 2123,
      "fortable": 2124,
      "Ġmagical": 2125,
      "pper": 2126,
      "oose": 2127,
      "Ġnet": 2128,
      "Ġmach": 2129,
      "pping": 2130,
      "Ġzoom": 2131,
      "Ġfold": 2132,
      "Ġstars": 2133,
      "Ġsandw": 2134,
      "ĠMark": 2135,
      "ever": 2136,
      "ope": 2137,
      "Now": 2138,
      "Ġsuch": 2139,
      "Ġcannot": 2140,
      "ek": 2141,
      "Ġsplas": 2142,
      "Ġwheel": 2143,
      "iling": 2144,
      "ĠJim": 2145,
      "Ġpuzz": 2146,
      "Ġhon": 2147,
      "alm": 2148,
      "ife": 2149,
      "Ġinstead": 2150,
      "Ġsal": 2151,
      "Ġcookie": 2152,
      "Sure": 2153,
      "Ġcloth": 2154,
      "Ġdrove": 2155,
      "oph": 2156,
      "Ġhugs": 2157,
      "Ġcoin": 2158,
      "ize": 2159,
      "Ġbone": 2160,
      "Ġstring": 2161,
      "ĠLisa": 2162,
      "Ġhuge": 2163,
      "Ġfighting": 2164,
      "ery": 2165,
      "Ġforget": 2166,
      "Of": 2167,
      "Ġrude": 2168,
      "ĠJust": 2169,
      "aur": 2170,
      "Ġcard": 2171,
      "Be": 2172,
      "Ġspe": 2173,
      "Ġcraw": 2174,
      "Ġlucky": 2175,
      "Ġru": 2176,
      "Ġsick": 2177,
      "Ġspicy": 2178,
      "Ġcomes": 2179,
      "Ġpath": 2180,
      "Ġcou": 2181,
      "Hey": 2182,
      "ars": 2183,
      "Ġwide": 2184,
      "Ġsu": 2185,
      "ont": 2186,
      "bled": 2187,
      "Ġthough": 2188,
      "Ġsongs": 2189,
      "den": 2190,
      "ĠGrandma": 2191,
      "ĠAnn": 2192,
      "erest": 2193,
      "Ġthin": 2194,
      "ĠFinally": 2195,
      "pect": 2196,
      "Ġwhistle": 2197,
      "ĠDog": 2198,
      "rill": 2199,
      "Ġfixed": 2200,
      "Ġspider": 2201,
      "Ġchange": 2202,
      "let": 2203,
      "eth": 2204,
      "Ġmoon": 2205,
      "Ġbubble": 2206,
      "Ġinterest": 2207,
      "Ġgiant": 2208,
      "to": 2209,
      "Ġsuddenly": 2210,
      "Ġpillow": 2211,
      "Ġpeace": 2212,
      "Lila": 2213,
      "Ġsel": 2214,
      "Ġsnowman": 2215,
      "ward": 2216,
      "oop": 2217,
      "Ġval": 2218,
      "Ġlater": 2219,
      "Later": 2220,
      "Ġdrive": 2221,
      "Ġcart": 2222,
      "Ġlay": 2223,
      "Ġce": 2224,
      "Ġash": 2225,
      "Ġboss": 2226,
      "Ġtaste": 2227,
      "Ġwrite": 2228,
      "ork": 2229,
      "Ġmed": 2230,
      "Ġmachine": 2231,
      "Ġrad": 2232,
      "Ġwave": 2233,
      "Ġring": 2234,
      "Ġsour": 2235,
      "ĠBe": 2236,
      "Ġsupp": 2237,
      "Ġgrumpy": 2238,
      "ult": 2239,
      "Ġacross": 2240,
      "Ġstep": 2241,
      "Ġtakes": 2242,
      "Ġmyster": 2243,
      "Ġnothing": 2244,
      "To": 2245,
      "ĠLeo": 2246,
      "Ġwasn": 2247,
      "Ġhidden": 2248,
      "Ġlanded": 2249,
      "Ġret": 2250,
      "kin": 2251,
      "Ġconfused": 2252,
      "Ġdaddy": 2253,
      "ĠCome": 2254,
      "lower": 2255,
      "Ġfle": 2256,
      "Ġshelf": 2257,
      "St": 2258,
      "Ġworm": 2259,
      "oman": 2260,
      "od": 2261,
      "Ġseemed": 2262,
      "Ġsmooth": 2263,
      "Ġfruits": 2264,
      "Ġadventures": 2265,
      "Ġbark": 2266,
      "Ġchased": 2267,
      "Ġhope": 2268,
      "sp": 2269,
      "Ġemp": 2270,
      "Ġstepped": 2271,
      "Ġlar": 2272,
      "ote": 2273,
      "Ġban": 2274,
      "Ġmissed": 2275,
      "Ġwhole": 2276,
      "Ġoven": 2277,
      "Ġline": 2278,
      "Ġdrew": 2279,
      "elly": 2280,
      "Ġsheep": 2281,
      "ually": 2282,
      "Ġalong": 2283,
      "Ġselfish": 2284,
      "aw": 2285,
      "Ġtea": 2286,
      "amed": 2287,
      "box": 2288,
      "ained": 2289,
      "ones": 2290,
      "Ġmessy": 2291,
      "Ġbought": 2292,
      "Ġtie": 2293,
      "Ġprot": 2294,
      "Ġfing": 2295,
      "Ġimag": 2296,
      "Ġquest": 2297,
      "Ġind": 2298,
      "Ġpan": 2299,
      "Ġsticks": 2300,
      "Ġshake": 2301,
      "Ġpour": 2302,
      "Ġgen": 2303,
      "Ġlegs": 2304,
      "Ġmind": 2305,
      "ateful": 2306,
      "ĠLuna": 2307,
      "Ġwash": 2308,
      "irpy": 2309,
      "?âĢĿ": 2310,
      "Ġempty": 2311,
      "Ġbeak": 2312,
      "Ġjog": 2313,
      "Ġdrum": 2314,
      "Ġarms": 2315,
      "Ġmot": 2316,
      "Ġducks": 2317,
      "Ġsave": 2318,
      "Ġphone": 2319,
      "ĠCat": 2320,
      "Ġfeather": 2321,
      "Ġ3": 2322,
      "Ġslid": 2323,
      "Ġship": 2324,
      "Ġgrateful": 2325,
      "Ġlaw": 2326,
      "Ġsleepy": 2327,
      "ĠBr": 2328,
      "Ġzoo": 2329,
      "Ġclever": 2330,
      "Ġhum": 2331,
      "Ġign": 2332,
      "Ġwatching": 2333,
      "Ġinteresting": 2334,
      "Ġchick": 2335,
      "ĠMolly": 2336,
      "Ġlemon": 2337,
      "Ġplate": 2338,
      "Ġsur": 2339,
      "Ġperson": 2340,
      "Ġreturn": 2341,
      "Ġes": 2342,
      "And": 2343,
      "Ġba": 2344,
      "Ġsmelly": 2345,
      "izz": 2346,
      "Ġfaces": 2347,
      "Ġpres": 2348,
      "Ġdogs": 2349,
      "Ġsplash": 2350,
      "erly": 2351,
      "Ġclouds": 2352,
      "yard": 2353,
      "ĠJill": 2354,
      "izzy": 2355,
      "Ġsol": 2356,
      "Come": 2357,
      "Soon": 2358,
      "Ġfancy": 2359,
      "Ġpract": 2360,
      "Ġwolf": 2361,
      "iger": 2362,
      "ĠMy": 2363,
      "Ġbanan": 2364,
      "Ġtrouble": 2365,
      "Ġlonger": 2366,
      "Ġque": 2367,
      "Ġfront": 2368,
      "ming": 2369,
      "llo": 2370,
      "Ġeasy": 2371,
      "ĠWith": 2372,
      "Ġemb": 2373,
      "Ġwoman": 2374,
      "Ġbackyard": 2375,
      "Ġspray": 2376,
      "Ġaf": 2377,
      "Ġav": 2378,
      "iting": 2379,
      "Ġfinish": 2380,
      "ness": 2381,
      "land": 2382,
      "irr": 2383,
      "Ġcross": 2384,
      "Ġscar": 2385,
      "Ġreg": 2386,
      "Ġnumber": 2387,
      "Ġjew": 2388,
      "Ġpri": 2389,
      "Ġhealthy": 2390,
      "Ġrocket": 2391,
      "Ġworking": 2392,
      "ĠDaddy": 2393,
      "Ġstood": 2394,
      "Ġpuzzle": 2395,
      "Ġlarge": 2396,
      "unk": 2397,
      "Ġjewel": 2398,
      "ina": 2399,
      "Ġneigh": 2400,
      "Ġanyone": 2401,
      "Ġtid": 2402,
      "Ġgives": 2403,
      "Ġpack": 2404,
      "Ġjelly": 2405,
      "era": 2406,
      "Ġmaybe": 2407,
      "ĠSp": 2408,
      "Ġwondered": 2409,
      "ĠJerry": 2410,
      "Ġvan": 2411,
      "aughter": 2412,
      "Ġrod": 2413,
      "ĠChirpy": 2414,
      "Ġfake": 2415,
      "Ġpool": 2416,
      "urse": 2417,
      "Ġcrayons": 2418,
      "Ġneighb": 2419,
      "rass": 2420,
      "Ġpin": 2421,
      "Ġweak": 2422,
      "ocked": 2423,
      "Ġcalm": 2424,
      "Ġsaved": 2425,
      "Ġthese": 2426,
      "Ġlad": 2427,
      "orrow": 2428,
      "ory": 2429,
      "ned": 2430,
      "uce": 2431,
      "ĠBunny": 2432,
      "ĠWhy": 2433,
      "ĠMary": 2434,
      "Ġbossy": 2435,
      "arrass": 2436,
      "af": 2437,
      "erv": 2438,
      "Ġlift": 2439,
      "Ġgener": 2440,
      "ĠDoggy": 2441,
      "Ġsmelled": 2442,
      "Ġembarrass": 2443,
      "Ġplants": 2444,
      "com": 2445,
      "Ġwaiting": 2446,
      "Ġkick": 2447,
      "Ġshirt": 2448,
      "Ġtrue": 2449,
      "Ġqueen": 2450,
      "ĠDon": 2451,
      "Ġputs": 2452,
      "Ġtidy": 2453,
      "ced": 2454,
      "Ġstra": 2455,
      "Ġgently": 2456,
      "Ġcheer": 2457,
      "Ġdaughter": 2458,
      "ĠOllie": 2459,
      "ĠMomo": 2460,
      "Ġhonest": 2461,
      "Ġexplor": 2462,
      "Ġpointed": 2463,
      "aced": 2464,
      "oomy": 2465,
      "raid": 2466,
      "Ġcozy": 2467,
      "Ġlock": 2468,
      "Ġ201": 2469,
      "Ġstret": 2470,
      "Ġonto": 2471,
      "Ġcap": 2472,
      "Ġforgive": 2473,
      "Ġafraid": 2474,
      "Ġyog": 2475,
      "ual": 2476,
      "Ġappeared": 2477,
      "Ġjumping": 2478,
      "Ġlovely": 2479,
      "ĠTheir": 2480,
      "Ġwing": 2481,
      "cc": 2482,
      "Ġmatch": 2483,
      "Ġbal": 2484,
      "Ġplaces": 2485,
      "Ġbuilding": 2486,
      "Ġlead": 2487,
      "ĠIf": 2488,
      "My": 2489,
      "Ġtomorrow": 2490,
      "Ġtele": 2491,
      "Ġanswer": 2492,
      "Ġter": 2493,
      "Ġrich": 2494,
      "Ġmatter": 2495,
      "Ġfear": 2496,
      "Ġchew": 2497,
      "arl": 2498,
      "Ġsuccess": 2499,
      "Ġdish": 2500,
      "Ġcouch": 2501,
      "Ġdeer": 2502,
      "Ġflag": 2503,
      "Ġgoes": 2504,
      "Ġladder": 2505,
      "Ġgather": 2506,
      "Ġob": 2507,
      "Ġsearch": 2508,
      "ond": 2509,
      "ipe": 2510,
      "Ġants": 2511,
      "ute": 2512,
      "Ġeag": 2513,
      "Ġcleaned": 2514,
      "Ġteeth": 2515,
      "any": 2516,
      "Ġgold": 2517,
      "Ġsandwich": 2518,
      "ĠSomet": 2519,
      "Ġpretended": 2520,
      "Sally": 2521,
      "Ġprince": 2522,
      "Ġclass": 2523,
      "iv": 2524,
      "Ġbounce": 2525,
      "Ġpizz": 2526,
      "Ġloves": 2527,
      "ident": 2528,
      "Ġsold": 2529,
      "ĠTV": 2530,
      "Ġboring": 2531,
      "Kitty": 2532,
      "ĠTogether": 2533,
      "Ġswimming": 2534,
      "ocol": 2535,
      "Ġscarf": 2536,
      "Ġashamed": 2537,
      "Ġhang": 2538,
      "Ġfurry": 2539,
      "imp": 2540,
      "Ġscreamed": 2541,
      "Ġsplashed": 2542,
      "sc": 2543,
      "Ġdig": 2544,
      "Ġlazy": 2545,
      "igin": 2546,
      "Ġpowerful": 2547,
      "Ġap": 2548,
      "Ġtrust": 2549,
      "ason": 2550,
      "Ġteam": 2551,
      "Ġwrote": 2552,
      "Ġpizza": 2553,
      "Ġnearby": 2554,
      "ado": 2555,
      "iff": 2556,
      "Ġword": 2557,
      "Ġmotor": 2558,
      "ĠHow": 2559,
      "Ġsaf": 2560,
      "Ġpoor": 2561,
      "Ġclown": 2562,
      "als": 2563,
      "pa": 2564,
      "Ġchocol": 2565,
      "ervous": 2566,
      "Ġwearing": 2567,
      "Ġnervous": 2568,
      "ustr": 2569,
      "Ġwand": 2570,
      "Ġmap": 2571,
      "Ġhar": 2572,
      "Ġmov": 2573,
      "icked": 2574,
      "Ġbecome": 2575,
      "Ġcreative": 2576,
      "lves": 2577,
      "Ġnoisy": 2578,
      "Ġfeet": 2579,
      "Ġsmiling": 2580,
      "Ġtool": 2581,
      "Ġrespect": 2582,
      "Ġcand": 2583,
      "Ġcircle": 2584,
      "Ġdisco": 2585,
      "Ġmod": 2586,
      "Ġcarried": 2587,
      "Ġhello": 2588,
      "ĠBird": 2589,
      "Ġprotect": 2590,
      "Ġorigin": 2591,
      "Ġgun": 2592,
      "Ġimpress": 2593,
      "elp": 2594,
      "ĠV": 2595,
      "Ġtest": 2596,
      "born": 2597,
      "rag": 2598,
      "Ġshadow": 2599,
      "Ġglass": 2600,
      "ĠUn": 2601,
      "Ġhero": 2602,
      "oppy": 2603,
      "Ġpresent": 2604,
      "Ġnote": 2605,
      "Ġdrank": 2606,
      "osaur": 2607,
      "Ġchocolate": 2608,
      "ensive": 2609,
      "Ġtries": 2610,
      "Ġcri": 2611,
      "Ġrare": 2612,
      "Ġwhale": 2613,
      "Ġmirr": 2614,
      "isp": 2615,
      "old": 2616,
      "Ġfilm": 2617,
      "Ġknee": 2618,
      "Ġgroup": 2619,
      "ĠBobby": 2620,
      "ĠAl": 2621,
      "ĠPlease": 2622,
      "Ġhur": 2623,
      "Ġdinosaur": 2624,
      "Ġpolite": 2625,
      "itter": 2626,
      "Ġgate": 2627,
      "Ġevent": 2628,
      "Ġmirror": 2629,
      "ict": 2630,
      "Ġadm": 2631,
      "ray": 2632,
      "ser": 2633,
      "Ġmysterious": 2634,
      "ĠTiny": 2635,
      "owed": 2636,
      "Ġsoap": 2637,
      "Stop": 2638,
      "Ġmarch": 2639,
      "ugar": 2640,
      "Ġfat": 2641,
      "Ġballoons": 2642,
      "Ġbald": 2643,
      "Ġpump": 2644,
      "Ġexpensive": 2645,
      "lebr": 2646,
      "airs": 2647,
      "ony": 2648,
      "nic": 2649,
      "Ġpay": 2650,
      "Ġicy": 2651,
      "Ġjourney": 2652,
      "Ġweird": 2653,
      "Ġboot": 2654,
      "Ġsnee": 2655,
      "Ġbridge": 2656,
      "ume": 2657,
      "Ġmic": 2658,
      "la": 2659,
      "Ġcelebr": 2660,
      "issors": 2661,
      "Ġmel": 2662,
      "Ġgenerous": 2663,
      "Ġcrown": 2664,
      "Ġtowel": 2665,
      "Ġtape": 2666,
      "Ġmountain": 2667,
      "Ġtent": 2668,
      "Ġdancing": 2669,
      "Ġeld": 2670,
      "Ġrough": 2671,
      "Ġrecord": 2672,
      "Ġsugar": 2673,
      "io": 2674,
      "ĠBenny": 2675,
      "Ġdizzy": 2676,
      "ndpa": 2677,
      "Ġwis": 2678,
      "Ġsque": 2679,
      "Help": 2680,
      ".[": 2681,
      "ĠBear": 2682,
      "Ġjoke": 2683,
      "Ġdead": 2684,
      "Ġtick": 2685,
      "Ġembarrassed": 2686,
      "Ġfamous": 2687,
      "Ġpicnic": 2688,
      "Ġpeaceful": 2689,
      "Ġstir": 2690,
      "Ġblow": 2691,
      "Ġdecor": 2692,
      "Ġwhisp": 2693,
      "Ġfour": 2694,
      "Ġscissors": 2695,
      "Ġbrush": 2696,
      "Ġyelled": 2697,
      "Ġlamp": 2698,
      "Ġtasted": 2699,
      "Ġrelie": 2700,
      "Ġglue": 2701,
      "Ġesc": 2702,
      "Tommy": 2703,
      "Ġclap": 2704,
      "Ġprint": 2705,
      "Ġspread": 2706,
      "ĠSometimes": 2707,
      "Ġclear": 2708,
      "Ġcloset": 2709,
      "dle": 2710,
      "Ġwouldn": 2711,
      "asp": 2712,
      "Ġlog": 2713,
      "port": 2714,
      "rob": 2715,
      "Ġchase": 2716,
      "Ġspace": 2717,
      "Ġnorm": 2718,
      "Ġdrawing": 2719,
      "Ġpainted": 2720,
      "Ġscare": 2721,
      "Ġcorner": 2722,
      "Ġlose": 2723,
      "Ġmixed": 2724,
      "cient": 2725,
      "Ġthick": 2726,
      "Ġfine": 2727,
      "Ġber": 2728,
      "ĠBu": 2729,
      "Ġgigg": 2730,
      "Ġcage": 2731,
      "ĠDucky": 2732,
      "Ġvase": 2733,
      "Ġknocked": 2734,
      "und": 2735,
      "Ġshark": 2736,
      "getable": 2737,
      "Ġnormal": 2738,
      "Ġignor": 2739,
      "Ġbake": 2740,
      "Ġberries": 2741,
      "Ġbean": 2742,
      "ĠSome": 2743,
      "Ġbody": 2744,
      "Ġvegetable": 2745,
      "Ġfool": 2746,
      "Ġadd": 2747,
      "Ġkicked": 2748,
      "Ġincred": 2749,
      "Ġclock": 2750,
      "Ġfright": 2751,
      "Ġguess": 2752,
      "...": 2753,
      "Ġord": 2754,
      "Ġmighty": 2755,
      "Ġpro": 2756,
      "Ġburn": 2757,
      "Ġpray": 2758,
      "Ġwrap": 2759,
      "Ġancient": 2760,
      "iness": 2761,
      "Ġelderly": 2762,
      "Ġmovie": 2763,
      "Ġsell": 2764,
      "ĠPe": 2765,
      "Ġterri": 2766,
      "we": 2767,
      "ighed": 2768,
      "Ġdiscover": 2769,
      "udy": 2770,
      "Ġincredible": 2771,
      "robe": 2772,
      "Ġbranches": 2773,
      "alous": 2774,
      "Ġfrustr": 2775,
      "Ġunderstood": 2776,
      "Ġcone": 2777,
      "Ġbalance": 2778,
      "Ġcreature": 2779,
      "fic": 2780,
      "Ġjam": 2781,
      "Ġfeed": 2782,
      "Ġfrag": 2783,
      "Ġorganized": 2784,
      "ĠTr": 2785,
      "Ġjealous": 2786,
      "Ġmoms": 2787,
      "Where": 2788,
      "Ġspent": 2789,
      "Dad": 2790,
      "Ġsock": 2791,
      "Ġmeasure": 2792,
      "Ġhorn": 2793,
      "kn": 2794,
      "Ġroar": 2795,
      "anged": 2796,
      "ĠMama": 2797,
      "Ġref": 2798,
      "Ġpolice": 2799,
      "ique": 2800,
      "Ġbreath": 2801,
      "Ġcab": 2802,
      "selves": 2803,
      "Ġchest": 2804,
      "Ġtaught": 2805,
      "Ġstub": 2806,
      "Ġsquare": 2807,
      "Ġyarn": 2808,
      "Ġoriginal": 2809,
      "Ġfragile": 2810,
      "cil": 2811,
      "Ġrep": 2812,
      "erce": 2813,
      "Ġtimes": 2814,
      "Ġfrustrated": 2815,
      "Ġexam": 2816,
      "Ġshoe": 2817,
      "orry": 2818,
      "ĠWill": 2819,
      "most": 2820,
      "alk": 2821,
      "Ġfierce": 2822,
      "Ġhose": 2823,
      "Ġeggs": 2824,
      "Ġfrightened": 2825,
      "Ġtwist": 2826,
      "ĠGo": 2827,
      "ilt": 2828,
      "Ġstubborn": 2829,
      "known": 2830,
      "Ġrose": 2831,
      "Ġrelieved": 2832,
      "oot": 2833,
      "Ġspoiled": 2834,
      "Ġfinding": 2835,
      "ric": 2836,
      "Ġdiffic": 2837,
      "Ġuseful": 2838,
      "Ġtells": 2839,
      "lace": 2840,
      "Ġstraw": 2841,
      "Ġgoat": 2842,
      "Ġbarn": 2843,
      "Ġfoolish": 2844,
      "Ġmid": 2845,
      "Ġcomfortable": 2846,
      "Ġunus": 2847,
      "Ġunique": 2848,
      "Ġmis": 2849,
      "ugh": 2850,
      "Ġwaves": 2851,
      "Ġwagon": 2852,
      "light": 2853,
      "yal": 2854,
      "Ġclay": 2855,
      "Ġunusual": 2856,
      "bers": 2857,
      "Ġpumpkin": 2858,
      "Ġcabin": 2859,
      "Ġboard": 2860,
      "Ġtomato": 2861,
      "Ġdug": 2862,
      "Ġdull": 2863,
      "Ġexploring": 2864,
      "Ġeng": 2865,
      "unn": 2866,
      "reen": 2867,
      "Ġclum": 2868,
      "ision": 2869,
      "Ġhears": 2870,
      "Ġstri": 2871,
      "Ġcovered": 2872,
      "aken": 2873,
      "Ġtough": 2874,
      "Ġclumsy": 2875,
      "Ġnecklace": 2876,
      "Ġacc": 2877,
      "Ġunknown": 2878,
      "Ġwashed": 2879,
      "iant": 2880,
      "Ġdifficult": 2881,
      "Ġsearched": 2882,
      "Ġpir": 2883,
      "Ġasking": 2884,
      "Ġbubbles": 2885,
      "Together": 2886,
      "Ġbitter": 2887,
      "Ġdrop": 2888,
      "Ġnosy": 2889,
      "Ġfinger": 2890,
      "Ġisland": 2891,
      "Ġbathroom": 2892,
      "Ġsword": 2893,
      "Ġpaws": 2894,
      "Ġrat": 2895,
      "Ġyourself": 2896,
      "Ġham": 2897,
      "berry": 2898,
      "Ġguit": 2899,
      "Ġcrazy": 2900,
      "Ġterrible": 2901,
      "ĠNo": 2902,
      "uth": 2903,
      "Ġthankful": 2904,
      "Ġalmost": 2905,
      "Ġchanged": 2906,
      "Ġswan": 2907,
      "mp": 2908,
      "Ġlif": 2909,
      "Ġunl": 2910,
      "Here": 2911,
      "Ġbloom": 2912,
      "Ġwitch": 2913,
      "Ġjoined": 2914,
      "Ġsunf": 2915,
      "ying": 2916,
      "Ġpencil": 2917,
      "Ġsil": 2918,
      "Ġstat": 2919,
      "Ġjet": 2920,
      "uring": 2921,
      "ĠElla": 2922,
      "Ġshoot": 2923,
      "Ġgloomy": 2924,
      "Ġcost": 2925,
      "apped": 2926,
      "Ġchicken": 2927,
      "erp": 2928,
      "Ġlab": 2929,
      "Ġending": 2930,
      "Ġloyal": 2931,
      "Ġguitar": 2932,
      "Me": 2933,
      "ground": 2934,
      "Ġhoop": 2935,
      "Ġcher": 2936,
      "Ġvalue": 2937,
      "Ġwake": 2938,
      "Ġyours": 2939,
      "Ġdisg": 2940,
      "Ġwealthy": 2941,
      "shine": 2942,
      "ants": 2943,
      "Ġmoving": 2944,
      "ĠBrown": 2945,
      "ĠAndy": 2946,
      "Ġcats": 2947,
      "ages": 2948,
      "Ġmarket": 2949,
      "ĠMar": 2950,
      "Ġheal": 2951,
      "Ġtaken": 2952,
      "Ġindepend": 2953,
      "ĠMany": 2954,
      "Ġknowing": 2955,
      "ĠSh": 2956,
      "anut": 2957,
      "Ġdove": 2958,
      "ours": 2959,
      "Ġshore": 2960,
      "Ġperform": 2961,
      "Ġstage": 2962,
      "ĠRex": 2963,
      "Ġtiger": 2964,
      "Ġpotato": 2965,
      "Ġsalad": 2966,
      "Ġmistake": 2967,
      "Ġmask": 2968,
      "Ġnuts": 2969,
      "ormous": 2970,
      "Ġcollect": 2971,
      "Ġdesign": 2972,
      "Ġmedic": 2973,
      "Ġasleep": 2974,
      "Ġenormous": 2975,
      "Ġsuit": 2976,
      "Ġcheap": 2977,
      "Ġsmaller": 2978,
      "Ġremind": 2979,
      "upid": 2980,
      "xible": 2981,
      "Ġpress": 2982,
      "Ġthirst": 2983,
      "ĠYour": 2984,
      "Ġmay": 2985,
      "Ġexciting": 2986,
      "Ġstuff": 2987,
      "ĠWhile": 2988,
      "How": 2989,
      "Ġtoast": 2990,
      "pes": 2991,
      "net": 2992,
      "If": 2993,
      "Ġknife": 2994,
      "Ġmarble": 2995,
      "Ġmiddle": 2996,
      "Ġpepper": 2997,
      "ĠJimmy": 2998,
      "Every": 2999,
      "oin": 3000,
      "Ġsunshine": 3001,
      "Ġdest": 3002,
      "Ġzip": 3003,
      "Ġang": 3004,
      "Ġhairy": 3005,
      "Who": 3006,
      "Ġneighbor": 3007,
      "Ġbored": 3008,
      "ti": 3009,
      "Ġbrill": 3010,
      "Ġfrown": 3011,
      "Ġhats": 3012,
      "urous": 3013,
      "Ġcompet": 3014,
      "Ġdelicate": 3015,
      "Ġharm": 3016,
      "Ġbuilt": 3017,
      "Ġacorn": 3018,
      "Ġadventurous": 3019,
      "ungle": 3020,
      "Ġdisgust": 3021,
      "Ġbrilliant": 3022,
      "Ġsolve": 3023,
      "Ġtrick": 3024,
      "Ġflexible": 3025,
      "Ġsnacks": 3026,
      "Ġspring": 3027,
      "Ġthirsty": 3028,
      "tern": 3029,
      "Ġcounted": 3030,
      "Ġseeds": 3031,
      "Ġflash": 3032,
      "Ġnods": 3033,
      "Ġexplained": 3034,
      "Ġrh": 3035,
      "ither": 3036,
      "ĠTw": 3037,
      "leased": 3038,
      "Ġbanana": 3039,
      "Ġjungle": 3040,
      "Ġdepend": 3041,
      "Ġfig": 3042,
      "gu": 3043,
      "Ġjack": 3044,
      "Ġmailbox": 3045,
      "Ġstudy": 3046,
      "Ġdough": 3047,
      "ief": 3048,
      "Ġgar": 3049,
      "Ġsquee": 3050,
      "Ġstupid": 3051,
      "Ġfather": 3052,
      "Ġumb": 3053,
      "Ġstanding": 3054,
      "dern": 3055,
      "Ġumbre": 3056,
      "Ġdisgusting": 3057,
      "Ġsuccessful": 3058,
      "Ġcube": 3059,
      "Ġindependent": 3060,
      "There": 3061,
      "Ġseason": 3062,
      "Ġjolly": 3063,
      "Ġer": 3064,
      "ouses": 3065,
      "Jim": 3066,
      "Ġcomb": 3067,
      "met": 3068,
      "corn": 3069,
      "Ġshiver": 3070,
      "Ġscr": 3071,
      "Are": 3072,
      "Ġcaterp": 3073,
      "Ġcaterpill": 3074,
      "Ġescape": 3075,
      "Ġstones": 3076,
      "Ġrug": 3077,
      "Ġserious": 3078,
      "Ġrelax": 3079,
      "Ġgoose": 3080,
      "Ġpopular": 3081,
      "Ġfridge": 3082,
      "Ġmedicine": 3083,
      "erable": 3084,
      "Ġbatter": 3085,
      "ĠInstead": 3086,
      "Ġstamp": 3087,
      "Ġcrane": 3088,
      "Ġsunflower": 3089,
      "Ġobed": 3090,
      "Ġstove": 3091,
      "Ġsighed": 3092,
      "Ġmodern": 3093,
      "Ġstatue": 3094,
      "Ġgets": 3095,
      "Ġcro": 3096,
      "Ġcries": 3097,
      "Ġcareless": 3098,
      "Ġsy": 3099,
      "Ġpassed": 3100,
      "Ġgem": 3101,
      "Ġhouses": 3102,
      "Ġshine": 3103,
      "Ġvegetables": 3104,
      "Mum": 3105,
      "ating": 3106,
      "Ġeager": 3107,
      "Ġlow": 3108,
      "ses": 3109,
      "Ġjeep": 3110,
      "Ġprize": 3111,
      "Ġmeal": 3112,
      "Ġtor": 3113,
      "atter": 3114,
      "Ġhalf": 3115,
      "Ġusing": 3116,
      "Ġfearful": 3117,
      "edy": 3118,
      "Ġsauce": 3119,
      "Ġobedient": 3120,
      "inary": 3121,
      "Ġcarrots": 3122,
      "Ġcam": 3123,
      "Inside": 3124,
      "Ġpopcorn": 3125,
      "iable": 3126,
      "Ġhelmet": 3127,
      "Ġbedroom": 3128,
      "Ġonce": 3129,
      "inky": 3130,
      "Ġcaterpillar": 3131,
      "ject": 3132,
      "ĠSammy": 3133,
      "Ġmiserable": 3134,
      "Sorry": 3135,
      "Ġpebble": 3136,
      "Ġraven": 3137,
      "Ġfountain": 3138,
      "Ġbelonged": 3139,
      "Ġborrow": 3140,
      "Ġparrot": 3141,
      "enny": 3142,
      "Ġjacket": 3143,
      "Ġpeanut": 3144,
      "Ġchoose": 3145,
      "cean": 3146,
      "ital": 3147,
      "Ġumbrella": 3148,
      "Ġhay": 3149,
      "Ġpainting": 3150,
      "Ġbottom": 3151,
      "Ġpasta": 3152,
      "Ġlifted": 3153,
      "ten": 3154,
      "Ġtied": 3155,
      "Ġfilthy": 3156,
      "Ġshows": 3157,
      "Ġtax": 3158,
      "Ġbrace": 3159,
      "Ġquar": 3160,
      "Ġtriang": 3161,
      "Ġmole": 3162,
      "Re": 3163,
      "Ġsteal": 3164,
      "Ġanswered": 3165,
      "Ġslipped": 3166,
      "Ġfork": 3167,
      "Ġraced": 3168,
      "Ġswe": 3169,
      "Ġimpressive": 3170,
      "Ġcompetit": 3171,
      "Ġscale": 3172,
      "iano": 3173,
      "Ġwip": 3174,
      "Ġtank": 3175,
      "ican": 3176,
      "bb": 3177,
      "Ġcrayon": 3178,
      "Ġspotted": 3179,
      "Ġthoughtful": 3180,
      "'d": 3181,
      "dom": 3182,
      "Ġoffice": 3183,
      "Ġcheerful": 3184,
      "Ġsmoke": 3185,
      "Ġboats": 3186,
      "Ġmush": 3187,
      "Ġrid": 3188,
      "Ġaunt": 3189,
      "Ġones": 3190,
      "Ġdependable": 3191,
      "Ġgarage": 3192,
      "Ġlean": 3193,
      "atch": 3194,
      "host": 3195,
      "Ġbet": 3196,
      "ations": 3197,
      "Ġmagnet": 3198,
      "Ġcrack": 3199,
      "cod": 3200,
      "Ġcrawled": 3201,
      "Ġhammer": 3202,
      "Ġpiano": 3203,
      "une": 3204,
      "Ġpicks": 3205,
      "Ġtears": 3206,
      "ament": 3207,
      "aff": 3208,
      "unnel": 3209,
      "Ġarrow": 3210,
      "Ġgrace": 3211,
      "ature": 3212,
      "berries": 3213,
      "Ġanx": 3214,
      "Ġcity": 3215,
      "codile": 3216,
      "cut": 3217,
      "vious": 3218,
      "Ġjud": 3219,
      "Ġmill": 3220,
      "ĠSn": 3221,
      "Ġhurts": 3222,
      "Ġangel": 3223,
      "Ġdol": 3224,
      "het": 3225,
      "Ġmeant": 3226,
      "Ġmelon": 3227,
      "cream": 3228,
      "Ġtunnel": 3229,
      "ano": 3230,
      "Ġdolph": 3231,
      "Ġlit": 3232,
      "Ġed": 3233,
      "appy": 3234,
      "Ġsink": 3235,
      "Ġneeds": 3236,
      "Ġmushroom": 3237,
      "amond": 3238,
      "Ġwaff": 3239,
      "Ġjug": 3240,
      "Ġweek": 3241,
      "pack": 3242,
      "Ġocean": 3243,
      "Ġreliable": 3244,
      "Ġcere": 3245,
      "cles": 3246,
      "Ġhappiness": 3247,
      "Ġorder": 3248,
      "Ġfigure": 3249,
      "Ġkissed": 3250,
      "Ġhopping": 3251,
      "Ġsquash": 3252,
      "Ġgum": 3253,
      "Ġtroubled": 3254,
      "Timmy": 3255,
      "Ġghost": 3256,
      "Ġbull": 3257,
      "Ġcryst": 3258,
      "Ġwander": 3259,
      "Ġvi": 3260,
      "Ġlocked": 3261,
      "Ġanxious": 3262,
      "Their": 3263,
      "Ġhumble": 3264,
      "Ġflute": 3265,
      "Ġuncom": 3266,
      "Ġvol": 3267,
      "Ġthose": 3268,
      "Ġbeet": 3269,
      "opter": 3270,
      "Ġboys": 3271,
      "Ġengine": 3272,
      "aser": 3273,
      "icopter": 3274,
      "ĠEven": 3275,
      "Ġcomput": 3276,
      "Ġtorn": 3277,
      "oto": 3278,
      "Ġvide": 3279,
      "Ġliz": 3280,
      "Ġcrocodile": 3281,
      "llip": 3282,
      "Ġfis": 3283,
      "Ġregular": 3284,
      "Ġtricks": 3285,
      "Ġhunt": 3286,
      "Ġpige": 3287,
      "Ġdiamond": 3288,
      "Ġcop": 3289,
      "ats": 3290,
      "Ġhelicopter": 3291,
      "Ġdisappoin": 3292,
      "llipop": 3293,
      "Molly": 3294,
      "Ġplayful": 3295,
      "Ġuncomfortable": 3296,
      "Ġpow": 3297,
      "Ġsub": 3298,
      "Ġmen": 3299,
      "Ġlollipop": 3300,
      "Ġwrapped": 3301,
      "ilty": 3302,
      "Ġhelps": 3303,
      "Ġmuff": 3304,
      "Ġcamera": 3305,
      "vision": 3306,
      "opl": 3307,
      "Ġspeak": 3308,
      "ĠAmer": 3309,
      "Ġtaxi": 3310,
      "Ġbelt": 3311,
      "Ġdelight": 3312,
      "Ġguilty": 3313,
      "Ġpants": 3314,
      "Ġruined": 3315,
      "Ġcandle": 3316,
      "Ġradio": 3317,
      "Ġtwig": 3318,
      "Ġshape": 3319,
      "Ġintell": 3320,
      "Ġcharm": 3321,
      "Ġgiving": 3322,
      "ĠJenny": 3323,
      "ube": 3324,
      "Ġaer": 3325,
      "Ġstretch": 3326,
      "Ġforward": 3327,
      "hip": 3328,
      "isted": 3329,
      "uper": 3330,
      "Ġyet": 3331,
      "Ġhelpless": 3332,
      "Ġspend": 3333,
      "Ġearth": 3334,
      "Ġnail": 3335,
      "omes": 3336,
      "Ġpale": 3337,
      "zed": 3338,
      "Ġsort": 3339,
      "Ġwalks": 3340,
      "Ġordinary": 3341,
      "Ġwire": 3342,
      "ging": 3343,
      "Ġaccident": 3344,
      "Ġdeaf": 3345,
      "Ġquarrel": 3346,
      "aze": 3347,
      "Ġspeed": 3348,
      "Ġlizard": 3349,
      "Ġreturned": 3350,
      "gest": 3351,
      "Ġaeropl": 3352,
      "Ġbase": 3353,
      "umpet": 3354,
      "Ġintellig": 3355,
      "ctus": 3356,
      "anger": 3357,
      "Ġbees": 3358,
      "Ġquestion": 3359,
      "Ġbracelet": 3360,
      "Ġfluffy": 3361,
      "ye": 3362,
      "Ġcollar": 3363,
      "Ġharmless": 3364,
      "Ġtire": 3365,
      "Ġpoured": 3366,
      "Ġuniver": 3367,
      "Ġcomputer": 3368,
      "Ġinvited": 3369,
      "Ġpersist": 3370,
      "Ġtrumpet": 3371,
      "Ġdust": 3372,
      "Ġcompass": 3373,
      "Ġroof": 3374,
      "Ġcrystal": 3375,
      "Ġmop": 3376,
      "Ġharder": 3377,
      "azz": 3378,
      "Ġbeetle": 3379,
      "Ġshade": 3380,
      "Ġsheet": 3381,
      "Ġcase": 3382,
      "Ġcreate": 3383,
      "Ġtooth": 3384,
      "Ġspill": 3385,
      "Ġwhispered": 3386,
      "Ġflashlight": 3387,
      "Ġacce": 3388,
      "Ġmelt": 3389,
      "Ġstream": 3390,
      "Ġtag": 3391,
      "Mama": 3392,
      "Ġtriangle": 3393,
      "Ġthemselves": 3394,
      "Ġquestions": 3395,
      "Ġload": 3396,
      "Ġcereal": 3397,
      "Ġtur": 3398,
      "Ġcomet": 3399,
      "ache": 3400,
      "oli": 3401,
      "coa": 3402,
      "Ġcactus": 3403,
      "Ġscoot": 3404,
      "Ġtruth": 3405,
      "Ġdisappointed": 3406,
      "Ġbarber": 3407,
      "Ġviol": 3408,
      "Ġbri": 3409,
      "Ġlibr": 3410,
      "ĠTrue": 3411,
      "Ġears": 3412,
      "Ġsaying": 3413,
      "Ġcush": 3414,
      "Ġmug": 3415,
      "Ġdeter": 3416,
      "hetti": 3417,
      "Ġthread": 3418,
      "aghetti": 3419,
      "asing": 3420,
      "Ġyogurt": 3421,
      "Ġpipe": 3422,
      "ĠMiss": 3423,
      "Ġenvel": 3424,
      "Ġtemp": 3425,
      "Ġrode": 3426,
      "Ġlicked": 3427,
      "Ġavoc": 3428,
      "Ġcharming": 3429,
      "Ġharsh": 3430,
      "Ġcompassion": 3431,
      "Ġnod": 3432,
      "ention": 3433,
      "Ġtrack": 3434,
      "Ġsailed": 3435,
      "Ġdeliver": 3436,
      "Ġfootball": 3437,
      "Ġdeterm": 3438,
      "Ġpracticed": 3439,
      "Ġcarp": 3440,
      "Jane": 3441,
      "Ġgifted": 3442,
      "Ġsle": 3443,
      "Ġcoo": 3444,
      "Ġrestless": 3445,
      "ubby": 3446,
      "Ġbicy": 3447,
      "Ġstronger": 3448,
      "Ġpersistent": 3449,
      "Ġspaghetti": 3450,
      "Ġdestro": 3451,
      "Ġpost": 3452,
      "Ġplanet": 3453,
      "Ġscreen": 3454,
      "Ġdreams": 3455,
      "te": 3456,
      "Ġtap": 3457,
      "Ġdesk": 3458,
      "Ġinse": 3459,
      "ines": 3460,
      "cano": 3461,
      "ccoli": 3462,
      "Ġhosp": 3463,
      "Ġseem": 3464,
      "Ġnumbers": 3465,
      "Ġfeathers": 3466,
      "Ġcocoa": 3467,
      "Ġknot": 3468,
      "Ġmitten": 3469,
      "Ġturkey": 3470,
      "Ġrice": 3471,
      "Ġfriendship": 3472,
      "Ġcoins": 3473,
      "Ġtrap": 3474,
      "Ġglove": 3475,
      "Ġpigeon": 3476,
      "Ġtrunk": 3477,
      "Ġpoem": 3478,
      "Ġraft": 3479,
      "Ġtube": 3480,
      "Ġenvious": 3481,
      "urch": 3482,
      "Ġshrimp": 3483,
      "Ġtravel": 3484,
      "Ġwheat": 3485,
      "Bobo": 3486,
      "irit": 3487,
      "Ġboxes": 3488,
      "Ġhospital": 3489,
      "Ġintelligent": 3490,
      "Ġcarpet": 3491,
      "Ġattract": 3492,
      "Ġtelevision": 3493,
      "Ġways": 3494,
      "ĠJake": 3495,
      "Ġcrawl": 3496,
      "Ġvolcano": 3497,
      "Ġsleeping": 3498,
      "Ġeventually": 3499,
      "Ġchubby": 3500,
      "Ġspun": 3501,
      "Ġthief": 3502,
      "Ġwife": 3503,
      "Ġloop": 3504,
      "Ġjudge": 3505,
      "Ġaeroplane": 3506,
      "ulif": 3507,
      "Ġsend": 3508,
      "Ġlying": 3509,
      "Ġcricket": 3510,
      "Ġdecide": 3511,
      "Ġticket": 3512,
      "Ġexcite": 3513,
      "Ġlearning": 3514,
      "essie": 3515,
      "Ġsoldier": 3516,
      "Ġonion": 3517,
      "cycle": 3518,
      "Ġvine": 3519,
      "ney": 3520,
      "ete": 3521,
      "Ġinsect": 3522,
      "ĠToday": 3523,
      "Ġlouder": 3524,
      "Ġyaw": 3525,
      "Ġbroccoli": 3526,
      "umb": 3527,
      "ulu": 3528,
      "ĠEmily": 3529,
      "Ġcurt": 3530,
      "ĠPeter": 3531,
      "Ġcaulif": 3532,
      "ense": 3533,
      "Ġbul": 3534,
      "Ġalert": 3535,
      "Ġrag": 3536,
      "Ġgraceful": 3537,
      "Ġhappening": 3538,
      "atient": 3539,
      "Ġcelebrate": 3540,
      "Ġuncle": 3541,
      "Ġhaircut": 3542,
      "opard": 3543,
      "Ġchain": 3544,
      "Ġscatter": 3545,
      "ceed": 3546,
      "Ġforth": 3547,
      "Ġcurtain": 3548,
      "Ġsurf": 3549,
      "under": 3550,
      "aged": 3551,
      "Ġnicely": 3552,
      "Ġignorant": 3553,
      "Ġeraser": 3554,
      "Ġcompetitive": 3555,
      "Ġmarry": 3556,
      "Ġenc": 3557,
      "Ġgrown": 3558,
      "ĠOK": 3559,
      "Ġsaus": 3560,
      "dge": 3561,
      "rework": 3562,
      "Ġwheels": 3563,
      "Ġattractive": 3564,
      "Ġled": 3565,
      "par": 3566,
      "Ġparade": 3567,
      "Ġenvelope": 3568,
      "Ġskin": 3569,
      "Ġbarrel": 3570,
      "Ġclub": 3571,
      "Go": 3572,
      "Ġpeach": 3573,
      "Ġcauliflower": 3574,
      "Ġoften": 3575,
      "Ġdolphin": 3576,
      "illa": 3577,
      "ron": 3578,
      "Ġwalls": 3579,
      "Ġviolin": 3580,
      "Ġspell": 3581,
      "acht": 3582,
      "Ġshut": 3583,
      "Ġfive": 3584,
      "Ġcompassionate": 3585,
      "Ġincl": 3586,
      "rage": 3587,
      "orable": 3588,
      "Ġhomes": 3589,
      "Ġbulb": 3590,
      "Ġhook": 3591,
      "zzy": 3592,
      "iew": 3593,
      "Ġdestroy": 3594,
      "Ġfu": 3595,
      "Ġneedle": 3596,
      "Ġmem": 3597,
      "Ġearly": 3598,
      "Ġfirework": 3599,
      "Ġguard": 3600,
      "Ġleopard": 3601,
      "Ġcompl": 3602,
      "Ġbicycle": 3603,
      "ĠPipp": 3604,
      "elery": 3605,
      "Ġmeat": 3606,
      "Ġscooter": 3607,
      "Ġpony": 3608,
      "Ġadded": 3609,
      "ately": 3610,
      "Ġyacht": 3611,
      "Ġext": 3612,
      "Ġseal": 3613,
      "Ġimpatient": 3614,
      "Ġdistant": 3615,
      "Ġknown": 3616,
      "Ġrubbed": 3617,
      "Ġimpro": 3618,
      "Ġbushes": 3619,
      "na": 3620,
      "ĠFo": 3621,
      "Ġshort": 3622,
      "Sarah": 3623,
      "Ġcushion": 3624,
      "Ġpurse": 3625,
      "Ġmetal": 3626,
      "Ġcooked": 3627,
      "ween": 3628,
      "Ġlively": 3629,
      "hus": 3630,
      "ĠRob": 3631,
      "Well": 3632,
      "Ġvideo": 3633,
      "Ġshells": 3634,
      "Ġchalk": 3635,
      "Ġbiggest": 3636,
      "Ġmeans": 3637,
      "Ġcell": 3638,
      "Ġknows": 3639,
      "ured": 3640,
      "Ġtray": 3641,
      "Ġadorable": 3642,
      "Ġpengu": 3643,
      "Ġslept": 3644,
      "ince": 3645,
      "Ġsoar": 3646,
      "ebra": 3647,
      "Ġsteak": 3648,
      "Ġelev": 3649,
      "Ġstation": 3650,
      "utes": 3651,
      "Ġcelery": 3652,
      "Ġsniff": 3653,
      "Ġstranger": 3654,
      "Ġten": 3655,
      "Ġpit": 3656,
      "Ġcounting": 3657,
      "husia": 3658,
      "work": 3659,
      "live": 3660,
      "tle": 3661,
      "Ġallig": 3662,
      "Ġenthusia": 3663,
      "Ġdistur": 3664,
      "Ġmotorcycle": 3665,
      "Ġitself": 3666,
      "ĠBet": 3667,
      "Ġpattern": 3668,
      "Ġcomplet": 3669,
      "Ġaut": 3670,
      "iron": 3671,
      "Ġradish": 3672,
      "Ġspinning": 3673,
      "Ġcleaning": 3674,
      "Ġprep": 3675,
      "Ġagainst": 3676,
      "bul": 3677,
      "Ġshield": 3678,
      "Ġbin": 3679,
      "Ġdiary": 3680,
      "Ġshowing": 3681,
      "lass": 3682,
      "Ġbounced": 3683,
      "Ġnurse": 3684,
      "Ġsupport": 3685,
      "chair": 3686,
      "Ġwiped": 3687,
      "Ġgathered": 3688,
      "Ġbetween": 3689,
      "ebook": 3690,
      "ested": 3691,
      "Ġfalls": 3692,
      "ito": 3693,
      "Ġwallet": 3694,
      "Ġskip": 3695,
      "Ġnotebook": 3696,
      "Ġpole": 3697,
      "ĠBuzz": 3698,
      "ĠDan": 3699,
      "Ġlaughs": 3700,
      "Ġbehave": 3701,
      "Ġavocado": 3702,
      "nger": 3703,
      "ĠAmerican": 3704,
      "Ġbandage": 3705,
      "ĠLittle": 3706,
      "iction": 3707,
      "Ġstum": 3708,
      "Ġskipped": 3709,
      "Ġsuper": 3710,
      "Ġunlock": 3711,
      "Ġlights": 3712,
      "usie": 3713,
      "Ġelevator": 3714,
      "Ġskull": 3715,
      "Ġoy": 3716,
      "Ġbags": 3717,
      "Ġarmchair": 3718,
      "Ġbrothers": 3719,
      "Ġscrew": 3720,
      "Give": 3721,
      "Ġzebra": 3722,
      "Ġjournal": 3723,
      "ushed": 3724,
      "Ġlibrary": 3725,
      "Ġloudly": 3726,
      "Ġalligator": 3727,
      "Ġink": 3728,
      "lies": 3729,
      "Ġeither": 3730,
      "ĠPoppy": 3731,
      "Ġpointing": 3732,
      "Ġbump": 3733,
      "Ġjellyfish": 3734,
      "Ġsalt": 3735,
      "Gra": 3736,
      "Ġrepe": 3737,
      "Ġson": 3738,
      "Ġsweater": 3739,
      "Ġlime": 3740,
      "Ġeye": 3741,
      "head": 3742,
      "Ġsugg": 3743,
      "Ġspirit": 3744,
      "bulance": 3745,
      "Ġambulance": 3746,
      "Ġrece": 3747,
      "Ġbuttons": 3748,
      "Ġfolder": 3749,
      "Ġmixer": 3750,
      "Âł": 3751,
      "vice": 3752,
      "Ġsepar": 3753,
      "ĠLulu": 3754,
      "ik": 3755,
      "Ġview": 3756,
      "Ġherb": 3757,
      "time": 3758,
      "Ġtrucks": 3759,
      "nament": 3760,
      "Ġplays": 3761,
      "Ġdriving": 3762,
      "Ġbeg": 3763,
      "obile": 3764,
      "Ġhall": 3765,
      "Ġplayground": 3766,
      "cing": 3767,
      "Ġwhenever": 3768,
      "Ġmos": 3769,
      "Ġsplit": 3770,
      "oby": 3771,
      "Ġornament": 3772,
      "Ġdive": 3773,
      "Ġdisappeared": 3774,
      "Ġcalling": 3775,
      "cond": 3776,
      "Ġdecorate": 3777,
      "Billy": 3778,
      "Ġtummy": 3779,
      "Ġknight": 3780,
      "quito": 3781,
      "Ġmodest": 3782,
      "ĠY": 3783,
      "Ġgir": 3784,
      "Ġminutes": 3785,
      "leton": 3786,
      "Ġsucceed": 3787,
      "ĠPolly": 3788,
      "Ġinf": 3789,
      "Ġresc": 3790,
      "ophy": 3791,
      "Ġart": 3792,
      "Ġattic": 3793,
      "Ġpun": 3794,
      "ĠBirdy": 3795,
      "Ġroot": 3796,
      "Ġcord": 3797,
      "Ġvest": 3798,
      "Ġdetermined": 3799,
      "Ġsung": 3800,
      "ready": 3801,
      "Ġpolish": 3802,
      "Ġprov": 3803,
      "Ġthunder": 3804,
      "Ġreading": 3805,
      "opus": 3806,
      "Ġmosquito": 3807,
      "ctopus": 3808,
      "keleton": 3809,
      "Ġautom": 3810,
      "Ġedge": 3811,
      "Ġpirate": 3812,
      "Ġwishes": 3813,
      "Ġcable": 3814,
      "Ġnovel": 3815,
      "Ġstrawberry": 3816,
      "ĠMum": 3817,
      "stic": 3818,
      "Ġsecond": 3819,
      "Ġcamp": 3820,
      "Ġarg": 3821,
      "Ġhipp": 3822,
      "Ġalready": 3823,
      "Ġitch": 3824,
      "ait": 3825,
      "Ġkay": 3826,
      "Ġbasketball": 3827,
      "Ġsight": 3828,
      "Ġcupboard": 3829,
      "Ġmild": 3830,
      "ience": 3831,
      "Ġcoal": 3832,
      "Ġcountry": 3833,
      "Ġoctopus": 3834,
      "Ġkindness": 3835,
      "aky": 3836,
      "Ġgolf": 3837,
      "Ġchurch": 3838,
      "Ġautomobile": 3839,
      "ium": 3840,
      "âĢĵ": 3841,
      "Ġcur": 3842,
      "body": 3843,
      "Ġtripped": 3844,
      "ĠPeople": 3845,
      "Ġcartoon": 3846,
      "ef": 3847,
      "Ġhours": 3848,
      "Ġgor": 3849,
      "Ġspear": 3850,
      "tress": 3851,
      "Ġmeadow": 3852,
      "Ġpenny": 3853,
      "Ġveil": 3854,
      "Ġflame": 3855,
      "Ġperm": 3856,
      "ination": 3857,
      "gen": 3858,
      "?\".": 3859,
      "Ġkayak": 3860,
      "ĠUnited": 3861,
      "Ġstrugg": 3862,
      "Ġstack": 3863,
      "Ġiron": 3864,
      "Ġskeleton": 3865,
      "Ġenthusiastic": 3866,
      "Ġgrowl": 3867,
      "Ġdrawer": 3868,
      "Ġthinking": 3869,
      "Ġhunter": 3870,
      "Ġchess": 3871,
      "Ġcolour": 3872,
      "phone": 3873,
      "Ġcups": 3874,
      "Ġframe": 3875,
      "ophone": 3876,
      "Ġsneeze": 3877,
      "Ġyoga": 3878,
      "Ġrolling": 3879,
      "Ġsteps": 3880,
      "Ġflea": 3881,
      "eral": 3882,
      "ison": 3883,
      "htub": 3884,
      "eor": 3885,
      "Ġmath": 3886,
      "keep": 3887,
      "Ġrepair": 3888,
      "Ġbathtub": 3889,
      "lasses": 3890,
      "Ġmattress": 3891,
      "Ġglowing": 3892,
      "Ġswitch": 3893,
      "Ġbill": 3894,
      "Ġencou": 3895,
      "Ġrot": 3896,
      "esday": 3897,
      "otter": 3898,
      "arry": 3899,
      "Ġhandle": 3900,
      "Ġcostume": 3901,
      "Ġweep": 3902,
      "Ġbaseball": 3903,
      "reek": 3904,
      "Ġstairs": 3905,
      "Ġdrawings": 3906,
      "Ġoyster": 3907,
      "Ġtelephone": 3908,
      "Ġsunglasses": 3909,
      "Ġpowder": 3910,
      "Ġhippo": 3911,
      "Ġmaze": 3912,
      "Ġpine": 3913,
      "Ġmanaged": 3914,
      "Ġtrophy": 3915,
      "Ġfile": 3916,
      "Ġgear": 3917,
      "Ġdess": 3918,
      "Ġmagaz": 3919,
      "Ġhotel": 3920,
      "Ġpacked": 3921,
      "Ġmuffin": 3922,
      "play": 3923,
      "Ġzipp": 3924,
      "Ġoil": 3925,
      "ilot": 3926,
      "case": 3927,
      "Ġpastry": 3928,
      ",âĢĿ": 3929,
      "Fl": 3930,
      "Ġhedge": 3931,
      "Ġur": 3932,
      "Ġmakeup": 3933,
      "Ġcob": 3934,
      "ĠRose": 3935,
      "Ġshocked": 3936,
      "offe": 3937,
      "Ġpear": 3938,
      "Ġpackage": 3939,
      "ikes": 3940,
      "hic": 3941,
      "ĠCl": 3942,
      "Ġok": 3943,
      "aid": 3944,
      "istol": 3945,
      "offee": 3946,
      "rod": 3947,
      "ule": 3948,
      "Ġfactor": 3949,
      "Ġwaffle": 3950,
      "Ġmissile": 3951,
      "Ġobject": 3952,
      "Ġtear": 3953,
      "Ġtask": 3954,
      "00": 3955,
      "Ġgrapes": 3956,
      "ckey": 3957,
      "Ġrise": 3958,
      "ĠLook": 3959,
      "Ġhockey": 3960,
      "Ġpoint": 3961,
      "Ġvehic": 3962,
      "web": 3963,
      "was": 3964,
      "Ġmicr": 3965,
      "Ġstaff": 3966,
      "Ġribb": 3967,
      "See": 3968,
      "ĠTina": 3969,
      "Ġwool": 3970,
      "Ġgasp": 3971,
      "Ġknock": 3972,
      "ĠCo": 3973,
      "Ġrever": 3974,
      "Ġsafely": 3975,
      "Ġtemple": 3976,
      "Ġholds": 3977,
      "Ġmedal": 3978,
      "lex": 3979,
      "Ġcobweb": 3980,
      "Bye": 3981,
      "Ġallowed": 3982,
      "ĠTweet": 3983,
      "Jimmy": 3984,
      "Ġseries": 3985,
      "Ġow": 3986,
      "Ġexplain": 3987,
      "Ġmicrophone": 3988,
      "Ġleash": 3989,
      "Ġsailor": 3990,
      "ĠMrs": 3991,
      "ĠPete": 3992,
      "useum": 3993,
      "Ġflour": 3994,
      "Ġbarking": 3995,
      "Ġavail": 3996,
      "chor": 3997,
      "Ġpoke": 3998,
      "Ġslides": 3999,
      "Ġnature": 4000,
      "Ġpistol": 4001,
      "Ġbananas": 4002,
      "Ġsum": 4003,
      "apers": 4004,
      "rosc": 4005,
      "Ġvend": 4006,
      "Ġgorilla": 4007,
      "angu": 4008,
      "Ġpilot": 4009,
      "olog": 4010,
      "Ġgiggled": 4011,
      "Ġcooler": 4012,
      "Ġmarched": 4013,
      "Ġphoto": 4014,
      "Ġcooking": 4015,
      "Ġsize": 4016,
      "Al": 4017,
      "Jill": 4018,
      "Ġmint": 4019,
      "washer": 4020,
      "Ġtools": 4021,
      "Ġhuman": 4022,
      "anda": 4023,
      "ĠGive": 4024,
      "Ġpal": 4025,
      "place": 4026,
      "Ġsausage": 4027,
      "Ġdessert": 4028,
      "roscope": 4029,
      "Ġpretending": 4030,
      "keeper": 4031,
      "Ġvalu": 4032,
      "Ġopens": 4033,
      "eer": 4034,
      "Ġotter": 4035,
      "Ġhanging": 4036,
      "Ġgrandpa": 4037,
      "Ġpee": 4038,
      "Ġbattery": 4039,
      "Ġfingers": 4040,
      "Ġavailable": 4041,
      "Ġanchor": 4042,
      "Ġfactory": 4043,
      "Ġcoffee": 4044,
      "ĠHere": 4045,
      "ib": 4046,
      "Ġdiscovered": 4047,
      "Ġmuseum": 4048,
      "umber": 4049,
      "Ġins": 4050,
      "Ġdishwasher": 4051,
      "Ġorganize": 4052,
      "ival": 4053,
      "Ġnames": 4054,
      "uct": 4055,
      "Ġpatch": 4056,
      "ĠSnow": 4057,
      "Ġwhip": 4058,
      "Ġmessage": 4059,
      "Ġvendor": 4060,
      "Ġpractice": 4061,
      "Ġgrill": 4062,
      "Ġcomplete": 4063,
      "Ġrealised": 4064,
      "Ġsilver": 4065,
      "Ġsne": 4066,
      "Ġtelling": 4067,
      "Ġnotice": 4068,
      "Ġfireman": 4069,
      "Ġimagine": 4070,
      "Ġcheck": 4071,
      "ĠQ": 4072,
      "Ġnewsp": 4073,
      "Ġquit": 4074,
      "Ġtowers": 4075,
      "Ġward": 4076,
      "Is": 4077,
      "Ġlaser": 4078,
      "loo": 4079,
      "ym": 4080,
      "Ġreward": 4081,
      "Ġexcitement": 4082,
      "Ġsandbox": 4083,
      "ĠBetty": 4084,
      "arian": 4085,
      "Ġfog": 4086,
      "Ġtrash": 4087,
      "ugged": 4088,
      "ĠSunny": 4089,
      "Ġmodel": 4090,
      "Ġrhin": 4091,
      "Ġlangu": 4092,
      "Ġpassport": 4093,
      "ogn": 4094,
      "aches": 4095,
      "Ġwardrobe": 4096,
      "Ġspoke": 4097,
      "Ġlotion": 4098,
      "Ġdisplay": 4099,
      "Ġcardboard": 4100,
      "ĠFro": 4101,
      "Ġdisc": 4102,
      "Ġpicking": 4103,
      "Ġnapkin": 4104,
      "Ġchim": 4105,
      "ucet": 4106,
      "Ġoak": 4107,
      "Ġcane": 4108,
      "Ġdreamed": 4109,
      "Ġsent": 4110,
      "Ġfalling": 4111,
      "Ġhurry": 4112,
      "Ġhive": 4113,
      "Ġpenguin": 4114,
      "Ġlend": 4115,
      "Fluffy": 4116,
      "ĠZoom": 4117,
      "Ġblackboard": 4118,
      "Ġfisher": 4119,
      "azor": 4120,
      "mbol": 4121,
      "Ġig": 4122,
      "aroo": 4123,
      "Ġchimney": 4124,
      "Ġax": 4125,
      "Ġlie": 4126,
      "Ġstumbled": 4127,
      "Ġfaucet": 4128,
      "angaroo": 4129,
      "Ġsuff": 4130,
      "Ġfreez": 4131,
      "Ġrecogn": 4132,
      "Ġobser": 4133,
      "ĠPippin": 4134,
      "night": 4135,
      "Ġtornado": 4136,
      "Ġigloo": 4137,
      "Ġjuicy": 4138,
      "ĠBessie": 4139,
      "Ġpalace": 4140,
      "Ġpor": 4141,
      "Ġoffered": 4142,
      "Ġbathe": 4143,
      "ĠStates": 4144,
      "Ġlip": 4145,
      "eros": 4146,
      "Ġmagazine": 4147,
      "Ġsymbol": 4148,
      "undry": 4149,
      "stairs": 4150,
      "Ġfastest": 4151,
      "uss": 4152,
      "Ġmule": 4153,
      "htray": 4154,
      "Ġhanger": 4155,
      "Ġnation": 4156,
      "Ġimprove": 4157,
      "Ġtrail": 4158,
      "Ġkangaroo": 4159,
      "Ġopera": 4160,
      "Em": 4161,
      "Ġlaundry": 4162,
      "),": 4163,
      "ĠEverywhere": 4164,
      "Ġenjoying": 4165,
      "Ġletters": 4166,
      "Ġstared": 4167,
      "Ġcabinet": 4168,
      "Ġreind": 4169,
      "Ġmummy": 4170,
      "ĠAre": 4171,
      "Ġcherries": 4172,
      "Ġspilled": 4173,
      "Ġboots": 4174,
      "Ġfireplace": 4175,
      "Ġmicroscope": 4176,
      "Ġshrink": 4177,
      "Ġport": 4178,
      "Ġdistance": 4179,
      "Ġtub": 4180,
      "ampoo": 4181,
      "oceros": 4182,
      "Wait": 4183,
      "Ġcows": 4184,
      "ected": 4185,
      "Ġlistening": 4186,
      "ĠZip": 4187,
      "ĠSpike": 4188,
      "ction": 4189,
      "Ġskirt": 4190,
      "ĠOr": 4191,
      "Ġreindeer": 4192,
      "Ġstretched": 4193,
      "Ġcomfort": 4194,
      "alend": 4195,
      "ictionary": 4196,
      "Ġashtray": 4197,
      "Ġcomplain": 4198,
      "ilet": 4199,
      "Ġhut": 4200,
      "Ġroared": 4201,
      "Joe": 4202,
      "Ġaw": 4203,
      "Ġvaluable": 4204,
      "Ġfuel": 4205,
      "Ġcalend": 4206,
      "Ġdear": 4207,
      "Ġhappier": 4208,
      "Ġholes": 4209,
      "Ġgrand": 4210,
      "Ġrhinoceros": 4211,
      "Ġtaller": 4212,
      "Ġfort": 4213,
      "Mr": 4214,
      "Ġfisherman": 4215,
      "ĠKim": 4216,
      "Ġresist": 4217,
      "xy": 4218,
      "Ġoats": 4219,
      "Ġintrod": 4220,
      "Ġtoilet": 4221,
      "Ġpapers": 4222,
      "Ġrake": 4223,
      "Ġabove": 4224,
      "Ġrail": 4225,
      "Ġpressed": 4226,
      "Ġcalendar": 4227,
      "Ġclimbing": 4228,
      "Ġshampoo": 4229,
      "Ġaxe": 4230,
      "Ġagree": 4231,
      "Ġblin": 4232,
      "aul": 4233,
      "Ġattach": 4234,
      "Ġwinter": 4235,
      "Ġjokes": 4236,
      "Ġgas": 4237,
      "eorge": 4238,
      "Ġgrowing": 4239,
      "Ġzipper": 4240,
      "Ġstops": 4241,
      "Ġrestaur": 4242,
      "Ow": 4243,
      "fast": 4244,
      "Ġfre": 4245,
      "Ġjewelry": 4246,
      "Ġneat": 4247,
      "Ġbury": 4248,
      "Ġmusician": 4249,
      "Ġserve": 4250,
      "Ġfest": 4251,
      "Ġcards": 4252,
      "Ġchose": 4253,
      "Ġjumps": 4254,
      "ĠIs": 4255,
      "Ġbathrobe": 4256,
      "Ġperfume": 4257,
      "Ġchance": 4258,
      "ĠToby": 4259,
      "Ġsparkly": 4260,
      "Ġshaking": 4261,
      "Ġsummer": 4262,
      "Mummy": 4263,
      "Ġnewspaper": 4264,
      "Ġanyway": 4265,
      "Ġhist": 4266,
      "Ġcreek": 4267,
      "ĠSusie": 4268,
      "Ġhung": 4269,
      "Ġhate": 4270,
      "Ġsnap": 4271,
      "Ġvehicle": 4272,
      "Ġgasped": 4273,
      "Ġped": 4274,
      "Ġdictionary": 4275,
      "Ġpopped": 4276,
      "Ġleaving": 4277,
      "Ġrestaurant": 4278,
      "Ġlightning": 4279,
      "Ġseparate": 4280,
      "Ġkne": 4281,
      "Ġalarm": 4282,
      "Ġdoesn": 4283,
      "Ġdisag": 4284,
      "Ġunpack": 4285,
      "asis": 4286,
      "Ġweigh": 4287,
      "Ġpinch": 4288,
      "Ġporch": 4289,
      "Ġextra": 4290,
      "zag": 4291,
      "Ġsubway": 4292,
      "Ġbelongs": 4293,
      "Ġtuna": 4294,
      "Ġgym": 4295,
      "Ġduring": 4296,
      "Ġfreezer": 4297,
      "affe": 4298,
      "Ġsof": 4299,
      "Ġbreakfast": 4300,
      "lter": 4301,
      "Ġbikes": 4302,
      "Ġadvice": 4303,
      "Ġtightly": 4304,
      "Ġhelper": 4305,
      "Ġgoal": 4306,
      "Ġswinging": 4307,
      "Ġpleased": 4308,
      "iches": 4309,
      "res": 4310,
      "Ġrazor": 4311,
      "Ġdisturb": 4312,
      "igzag": 4313,
      "Ġsandwiches": 4314,
      "Ġtrade": 4315,
      "Ġstirred": 4316,
      "omm": 4317,
      "ola": 4318,
      "Ġfestival": 4319,
      "Ġairport": 4320,
      "Ġstickers": 4321,
      "Ġsofa": 4322,
      "Ġbookcase": 4323,
      "Ġbeef": 4324,
      "ially": 4325,
      "Ġswamp": 4326,
      "ides": 4327,
      "utor": 4328,
      "Ġsquirrels": 4329,
      "stri": 4330,
      "Ġbutterflies": 4331,
      "reat": 4332,
      "Ġbuckle": 4333,
      "Ġshelter": 4334,
      "sity": 4335,
      "Ġmustache": 4336,
      "Ġblouse": 4337,
      "Ġbillboard": 4338,
      "Little": 4339,
      "Ġbeep": 4340,
      "Ġrubber": 4341,
      "Ġlic": 4342,
      "bles": 4343,
      "ĠLee": 4344,
      "Ġweather": 4345,
      "Ġsoil": 4346,
      "ĠWhere": 4347,
      "amber": 4348,
      "Ġrules": 4349,
      "astic": 4350,
      "Ġcircles": 4351,
      "Ouch": 4352,
      "Ġhappens": 4353,
      "ives": 4354,
      "Ġcrib": 4355,
      "aspoon": 4356,
      "adium": 4357,
      "ĠFr": 4358,
      "Ġriding": 4359,
      "Ġsweetie": 4360,
      "Ġtutor": 4361,
      "Ġahead": 4362,
      "ĠDolly": 4363,
      "Ġreverse": 4364,
      "Ġpainter": 4365,
      "Ġaccept": 4366,
      "Ġbookshe": 4367,
      "Ġpage": 4368,
      "Ġdrain": 4369,
      "Ġlanguage": 4370,
      "Ġblueberries": 4371,
      "Ġgiraffe": 4372,
      "Ġincre": 4373,
      "Ġunif": 4374,
      "Ġfrogs": 4375,
      "Ġrefused": 4376,
      "ĠBill": 4377,
      "Ġtease": 4378,
      "ĠBub": 4379,
      "ĠRed": 4380,
      "alley": 4381,
      "Ġbookshelf": 4382,
      "Ġrescue": 4383,
      "Ġmyself": 4384,
      "Ġcarrying": 4385,
      "Ġconf": 4386,
      "Ġjunk": 4387,
      "Ġteaspoon": 4388,
      "ah": 4389,
      "ĠTeddy": 4390,
      "Ġslipp": 4391,
      "Ġwipe": 4392,
      "Ġprevent": 4393,
      "Ġwaste": 4394,
      "Ġwine": 4395,
      "Ġtrains": 4396,
      "Ġuniform": 4397,
      "Ġknob": 4398,
      "ury": 4399,
      "Ġevening": 4400,
      "Ġdancer": 4401,
      "Ġoasis": 4402,
      "Ġdisappear": 4403,
      "Ġlumber": 4404,
      "Ġsqueeze": 4405,
      "ucture": 4406,
      "Ġstom": 4407,
      "Ġpoked": 4408,
      "aked": 4409,
      "Ġsounded": 4410,
      "Ġpeeked": 4411,
      "Ġlives": 4412,
      "Ġgiven": 4413,
      "Ġquiz": 4414,
      "Ġdem": 4415,
      "Ġstud": 4416,
      "Ġtheater": 4417,
      "Ġstructure": 4418,
      "Ġreve": 4419,
      "Ġplayer": 4420,
      "wards": 4421,
      "ometer": 4422,
      "Ġfought": 4423,
      "ĠFrog": 4424,
      "Ġstarts": 4425,
      "Ġadmire": 4426,
      "render": 4427,
      "Ġleaned": 4428,
      "Ġcliff": 4429,
      "yer": 4430,
      "Ġbirdc": 4431,
      "Ġswung": 4432,
      "Ġinvite": 4433,
      "Ġlawn": 4434,
      "Ġreef": 4435,
      "ship": 4436,
      "rmometer": 4437,
      "ĠGrandpa": 4438,
      "Ġwindows": 4439,
      "ĠPat": 4440,
      "Ġinst": 4441,
      "Ġbirdcage": 4442,
      "Ġfurn": 4443,
      "Ġanywhere": 4444,
      "Ġbent": 4445,
      "Ġostri": 4446,
      "Ġaccidentally": 4447,
      "Ġmeeting": 4448,
      "Ġpair": 4449,
      "Daisy": 4450,
      "ĠHel": 4451,
      "iday": 4452,
      "Ġimagined": 4453,
      "Ch": 4454,
      "ĠPandy": 4455,
      "Ġceiling": 4456,
      "Ġstable": 4457,
      "Ġlicense": 4458,
      "Ġremove": 4459,
      "Ġolder": 4460,
      "riger": 4461,
      "Ġhistory": 4462,
      "Ġdreaming": 4463,
      "Ġlabel": 4464,
      "Ġmissing": 4465,
      "Ġrefriger": 4466,
      "Ġpanda": 4467,
      "ical": 4468,
      "ari": 4469,
      "Ġequ": 4470,
      "Ġchamber": 4471,
      "Ġshower": 4472,
      "Ġpastel": 4473,
      "Ġsuggested": 4474,
      "Ġdire": 4475,
      "nce": 4476,
      "iture": 4477,
      "!\".": 4478,
      "Ġfavour": 4479,
      "Ġproblems": 4480,
      "Ġpeek": 4481,
      "Ġblinked": 4482,
      "ĠBig": 4483,
      "Ġrequ": 4484,
      "Ġcaring": 4485,
      "Ġtwirl": 4486,
      "Ġrefrigerator": 4487,
      "Ġbrick": 4488,
      "Ġwarned": 4489,
      "Ġclassroom": 4490,
      "Ġstadium": 4491,
      "Ġmonkeys": 4492,
      "Ġthermometer": 4493,
      "Ġfinds": 4494,
      "bor": 4495,
      "low": 4496,
      "Ġdelay": 4497,
      "Ġpages": 4498,
      "Ġfurniture": 4499,
      "ĠSpe": 4500,
      "Ġapron": 4501,
      "Ġchoice": 4502,
      "Ġcudd": 4503,
      "Ġlid": 4504,
      "ĠCarl": 4505,
      "ans": 4506,
      "elcome": 4507,
      "Ġmass": 4508,
      "Ġchasing": 4509,
      "Ġrespectful": 4510,
      "Ġsunset": 4511,
      "imed": 4512,
      "Ġreveal": 4513,
      "Ġlawyer": 4514,
      "vet": 4515,
      "Ġfrowned": 4516,
      "Ġspoil": 4517,
      "Ġhanded": 4518,
      "Did": 4519,
      "ventually": 4520,
      "uggage": 4521,
      "Ġribbon": 4522,
      "Ġmistakes": 4523,
      "Ġzoomed": 4524,
      "Ġshouts": 4525,
      "Ġyield": 4526,
      "Ġjail": 4527,
      "Your": 4528,
      "Ġgrape": 4529,
      "Ġlions": 4530,
      "chan": 4531,
      "Ġostrich": 4532,
      "Ġputting": 4533,
      "Ġluggage": 4534,
      "ecause": 4535,
      "Ġveter": 4536,
      "Ġweap": 4537,
      "Ġsteam": 4538,
      "Ġrac": 4539,
      "Ġsearching": 4540,
      "iest": 4541,
      "Ġdiscuss": 4542,
      "ges": 4543,
      "icer": 4544,
      "Ġremain": 4545,
      "Ġslip": 4546,
      "hest": 4547,
      "cast": 4548,
      "Ġwigg": 4549,
      "Ġunite": 4550,
      "Ġfixing": 4551,
      "Ġvalley": 4552,
      "Ġsudden": 4553,
      "ky": 4554,
      "Ġappear": 4555,
      "ĠBow": 4556,
      "Ġbrightly": 4557,
      "iki": 4558,
      "ĠEllie": 4559,
      "Ġchairs": 4560,
      "Ġblood": 4561,
      "Ġenter": 4562,
      "ommend": 4563,
      "Ġ18": 4564,
      "Ġpoints": 4565,
      "Ġsurprises": 4566,
      "ĠKing": 4567,
      "Ġhol": 4568,
      "inarian": 4569,
      "Ġrecommend": 4570,
      "Ġsadly": 4571,
      "ricane": 4572,
      "ĠNext": 4573,
      "men": 4574,
      "Ġproudly": 4575,
      "Ġregret": 4576,
      "Ġmatches": 4577,
      "Ġsaving": 4578,
      "ition": 4579,
      "ĠAlex": 4580,
      "Ġfavourite": 4581,
      "tain": 4582,
      "Ġfresh": 4583,
      "Ġadmired": 4584,
      "Ġranch": 4585,
      "Ġveterinarian": 4586,
      "Ġraise": 4587,
      "Ġrushed": 4588,
      "Ġsuffer": 4589,
      "Ġargue": 4590,
      "Ġsurrender": 4591,
      "ero": 4592,
      "Ġsupply": 4593,
      "Ġberry": 4594,
      "ĠBoun": 4595,
      "ĠMike": 4596,
      "ĠAlice": 4597,
      "Ġpuddles": 4598,
      "ution": 4599,
      "ĠGod": 4600,
      "Ġmeas": 4601,
      "Ġgro": 4602,
      "Ġmall": 4603,
      "ĠMay": 4604,
      "Ġdoors": 4605,
      "Ġreminded": 4606,
      "ĠSm": 4607,
      "Ġbreat": 4608,
      "thank": 4609,
      "Ġpushing": 4610,
      "Ġexcitedly": 4611,
      "Ġshoulder": 4612,
      "Ġstrip": 4613,
      "Ġholiday": 4614,
      "Ġgrabs": 4615,
      "hero": 4616,
      "Ġmystery": 4617,
      "Ġprepare": 4618,
      "ĠPr": 4619,
      "Ġreplace": 4620,
      "Ġended": 4621,
      "erc": 4622,
      "ĠOw": 4623,
      "Ġener": 4624,
      "Ġplates": 4625,
      "Ġmineral": 4626,
      "Ġpup": 4627,
      "Ġleak": 4628,
      "Ġapolog": 4629,
      "Ġwritten": 4630,
      "ived": 4631,
      "Ġsuperhero": 4632,
      "Ġplastic": 4633,
      "Ġharbor": 4634,
      "Ġkinds": 4635,
      "Ġforgave": 4636,
      "rise": 4637,
      "Ġsir": 4638,
      "Ġsince": 4639,
      "Ġrestore": 4640,
      "ement": 4641,
      "Ġparts": 4642,
      "enry": 4643,
      "Ġx": 4644,
      "Ġspade": 4645,
      "ĠJazz": 4646,
      "Ġscore": 4647,
      "Ġsneezed": 4648,
      "Ġdelighted": 4649,
      "Ġcared": 4650,
      "Ġshovel": 4651,
      "Ġignore": 4652,
      "Ġpulls": 4653,
      "Ġfloat": 4654,
      "osed": 4655,
      "ĠBuzzy": 4656,
      "Ġsniffed": 4657,
      "Ġhoping": 4658,
      "ĠAn": 4659,
      "Ġbend": 4660,
      "year": 4661,
      "Ġsoftly": 4662,
      "Ġunh": 4663,
      "Ġheads": 4664,
      "Ġpanic": 4665,
      "Ġkeeping": 4666,
      "Ġshone": 4667,
      "Ġsocks": 4668,
      "Ġmention": 4669,
      "Ġfeelings": 4670,
      "Ġquite": 4671,
      "Ġreleased": 4672,
      "Ġgain": 4673,
      "Ġmechan": 4674,
      "Ġsticker": 4675,
      "laud": 4676,
      "oe": 4677,
      "Ġthanks": 4678,
      "ĠInd": 4679,
      "Ġslippery": 4680,
      "Ġsport": 4681,
      "ĠEnd": 4682,
      "Ġwre": 4683,
      "Ġ2017": 4684,
      "ica": 4685,
      "Ġhurricane": 4686,
      "Ġdare": 4687,
      "][": 4688,
      "Ġtip": 4689,
      "ci": 4690,
      "Ġprovide": 4691,
      "Ġep": 4692,
      "Ġclaw": 4693,
      "ĠBinky": 4694,
      "Ġthrowing": 4695,
      "Ġrow": 4696,
      "ĠFreddy": 4697,
      "Ġchickens": 4698,
      "Ġdemand": 4699,
      "Ġrained": 4700,
      "ĠWould": 4701,
      "oof": 4702,
      "Ġinfant": 4703,
      "ĠGeorge": 4704,
      "Ġstreng": 4705,
      "Ġcolourful": 4706,
      "Ġkneel": 4707,
      "acked": 4708,
      "Ġ200": 4709,
      "Ġshakes": 4710,
      "Ġsimp": 4711,
      "ents": 4712,
      "ĠBubbles": 4713,
      "Ġcopper": 4714,
      "ites": 4715,
      "ĠAb": 4716,
      "Ġlaught": 4717,
      "Ġrooms": 4718,
      "arlie": 4719,
      "Ġplanes": 4720,
      "Ġweapon": 4721,
      "Ġlaughter": 4722,
      "Ġshivering": 4723,
      "Ġalive": 4724,
      "Ġminute": 4725,
      "Grandma": 4726,
      "Mary": 4727,
      "Ġbarks": 4728,
      "Will": 4729,
      "Ġsunrise": 4730,
      "Ġbeauty": 4731,
      "Yay": 4732,
      "Ġunhappy": 4733,
      "Ġpushes": 4734,
      "Ġstrength": 4735,
      "Ġuniverse": 4736,
      "Yuck": 4737,
      "Ġfollowing": 4738,
      "itation": 4739,
      "son": 4740,
      "Ġfreeze": 4741,
      "Ġletting": 4742,
      "Ġthumb": 4743,
      "Ġflies": 4744,
      "Ġsmells": 4745,
      "Ġmechanic": 4746,
      "inking": 4747,
      "Ġcherry": 4748,
      "Ġcourage": 4749,
      "icky": 4750,
      "ern": 4751,
      "Ġdishes": 4752,
      "Ġnavy": 4753,
      "Ġpaid": 4754,
      "ĠOlive": 4755,
      "Ġgiggle": 4756,
      "ĠSpeedy": 4757,
      "ĠQu": 4758,
      "apping": 4759,
      "unes": 4760,
      "Ġapplaud": 4761,
      "Ġmenu": 4762,
      "Next": 4763,
      "Ġbrighter": 4764,
      "All": 4765,
      "Ġstarting": 4766,
      "Ġmeowed": 4767,
      "ĠDave": 4768,
      "Ġenergy": 4769,
      "Ġvac": 4770,
      "Ġsomewhere": 4771,
      "Ġsings": 4772,
      "Ġsandcast": 4773,
      "Ġnews": 4774,
      "Ġclapping": 4775,
      "Ġcons": 4776,
      "ophie": 4777,
      "pecially": 4778,
      "Ġsprayed": 4779,
      "Ġsix": 4780,
      "Ġcastles": 4781,
      "Ġposs": 4782,
      "Ġsteel": 4783,
      "Ġskill": 4784,
      "Ġhorses": 4785,
      "Ġsplashing": 4786,
      "Ġexpect": 4787,
      "Ġrepeat": 4788,
      "Ġplaced": 4789,
      "Ġuniversity": 4790,
      "Ġbelieved": 4791,
      "Ġentered": 4792,
      "Ġi": 4793,
      "igi": 4794,
      "Ġbreaks": 4795,
      "riage": 4796,
      "Ġsticky": 4797,
      "Ġnetwork": 4798,
      "eration": 4799,
      "Ġrush": 4800,
      "Ġpunish": 4801,
      "Ġexerc": 4802,
      "Ġoffer": 4803,
      "rist": 4804,
      "Ġgreedy": 4805,
      "Ġbrain": 4806,
      "Ġpirates": 4807,
      "Ġloc": 4808,
      "Ġpoison": 4809,
      "ĠHelp": 4810,
      "Ġcontent": 4811,
      "Ġwarn": 4812,
      "ĠMe": 4813,
      "Ġsigh": 4814,
      "Ġheat": 4815,
      "Ġeaten": 4816,
      "ĠPaul": 4817,
      "Sh": 4818,
      "Ġsettle": 4819,
      "Ġtour": 4820,
      "Ġsty": 4821,
      "ĠJohnny": 4822,
      "Ġespecially": 4823,
      "Ġcent": 4824,
      "Ġwreck": 4825,
      "Ġtrusted": 4826,
      "ne": 4827,
      "ĠNew": 4828,
      "Ready": 4829,
      "Ġexamine": 4830,
      "Ġcrossed": 4831,
      "ubl": 4832,
      "Ġprop": 4833,
      "yth": 4834,
      "Ġwriting": 4835,
      "Ġflood": 4836,
      "Ġgroc": 4837,
      "otten": 4838,
      "ĠUnder": 4839,
      "arac": 4840,
      "Ġ2018": 4841,
      "heart": 4842,
      "Lisa": 4843,
      "Ġdrops": 4844,
      "Ġthrows": 4845,
      "Ġpur": 4846,
      "Ġprune": 4847,
      "Ġbears": 4848,
      "Ġupstairs": 4849,
      "Ġraining": 4850,
      "Ġeasily": 4851,
      "aracter": 4852,
      "Ġresp": 4853,
      "Ġscold": 4854,
      "Ġcheek": 4855,
      "ĠTed": 4856,
      "ĠFox": 4857,
      "Buddy": 4858,
      "ĠWho": 4859,
      "Ġjogged": 4860,
      "ĠDe": 4861,
      "Ġfurt": 4862,
      "Emma": 4863,
      "Ġsnugg": 4864,
      "'ve": 4865,
      "ĠKiki": 4866,
      "Ġpigs": 4867,
      "Ann": 4868,
      "hood": 4869,
      "house": 4870,
      "ĠZoomy": 4871,
      "Ġsparkled": 4872,
      "Ġchirp": 4873,
      "ring": 4874,
      "Ġprayed": 4875,
      "Ġflapped": 4876,
      "Ġbadly": 4877,
      "Ġtoe": 4878,
      "Ġcharacter": 4879,
      "isod": 4880,
      "Ġyawned": 4881,
      "ĠRo": 4882,
      "Ġshrugged": 4883,
      "Ġcoats": 4884,
      "Ġtide": 4885,
      "Ġexper": 4886,
      "Ġleather": 4887,
      "Ġinclude": 4888,
      "Mark": 4889,
      "Ġbumped": 4890,
      "Ġscratch": 4891,
      "Ġtracks": 4892,
      "izes": 4893,
      "Ġimpressed": 4894,
      "ley": 4895,
      "Ġobserve": 4896,
      "ythm": 4897,
      "ising": 4898,
      "ĠSee": 4899,
      "anges": 4900,
      "Ġbelow": 4901,
      "Ġsqueezed": 4902,
      "Ġvacation": 4903,
      "ĠBee": 4904,
      "Ġfurther": 4905,
      "mare": 4906,
      "laimed": 4907,
      "Ġbouncing": 4908,
      "Ġprod": 4909,
      "Ġbuzz": 4910,
      "Ġrabbits": 4911,
      "Alice": 4912,
      "Ġgaz": 4913,
      "Ġcalls": 4914,
      "noon": 4915,
      "ffic": 4916,
      "Ġshall": 4917,
      "Ġstomach": 4918,
      "Ġing": 4919,
      "Ġclaws": 4920,
      "Ġ199": 4921,
      "Ġsweetheart": 4922,
      "Ġafternoon": 4923,
      "Ġcreated": 4924,
      "\",": 4925,
      "Ġexplored": 4926,
      "Ġstrawberries": 4927,
      "Ġchecked": 4928,
      "ĠMummy": 4929,
      "xygen": 4930,
      "Ġnobody": 4931,
      "Ġstair": 4932,
      "ĠLilly": 4933,
      "Ġyawn": 4934,
      "Ġsew": 4935,
      "Ġhills": 4936,
      "Ġsandcastle": 4937,
      "ĠLola": 4938,
      "ĠSque": 4939,
      "uced": 4940,
      "Ġhearts": 4941,
      "apa": 4942,
      "Ġspots": 4943,
      "mble": 4944,
      "Ġrhythm": 4945,
      "Ġinclud": 4946,
      "Daddy": 4947,
      "ĠâĢĵ": 4948,
      "ĠHoppy": 4949,
      "ĠMandy": 4950,
      "Ġearthqu": 4951,
      "Ġrelease": 4952,
      "Ġpalm": 4953,
      "Ġfollows": 4954,
      "ĠGood": 4955,
      "reeze": 4956,
      "ories": 4957,
      "Ġinsisted": 4958,
      "Ġexclaimed": 4959,
      "Ġepisod": 4960,
      "Ġprice": 4961,
      "Ġwaving": 4962,
      "Ġincrease": 4963,
      "ĠSu": 4964,
      "Ġapart": 4965,
      "Ġblowing": 4966,
      "Ġblueberry": 4967,
      "Ġbaking": 4968,
      "ther": 4969,
      "Ġsnowball": 4970,
      "ĠSund": 4971,
      "Ġnightmare": 4972,
      "Ġdaisy": 4973,
      "ecting": 4974,
      "Ġbother": 4975,
      "Ġburned": 4976,
      "Ġweight": 4977,
      "ĠGigi": 4978,
      "Ġpad": 4979,
      "ĠHave": 4980,
      "ipment": 4981,
      "act": 4982,
      "Ġmarried": 4983,
      "Ġtwisted": 4984,
      "ĠAr": 4985,
      "Before": 4986,
      "Ġ5": 4987,
      "Ġshot": 4988,
      "Ġmassage": 4989,
      "Ġsoak": 4990,
      "Ġvroom": 4991,
      "Ġequipment": 4992,
      "Ġ4": 4993,
      "mber": 4994,
      "ĠSunday": 4995,
      "Ġsafari": 4996,
      "Ġattention": 4997,
      "Ġprunes": 4998,
      "ĠRock": 4999,
      "Ġpermit": 5000,
      "redient": 5001,
      "Ġwinning": 5002,
      "Ġluck": 5003,
      "Ġingredient": 5004,
      "Ġscoop": 5005,
      "Ġpoppy": 5006,
      "Ġappro": 5007,
      "edn": 5008,
      "Ġcrash": 5009,
      "ednesday": 5010,
      "Ġlear": 5011,
      "ino": 5012,
      "Ġlearnt": 5013,
      "mons": 5014,
      "Ġmoves": 5015,
      "Ġintroduce": 5016,
      "ĠGr": 5017,
      "Ġplanned": 5018,
      "Ġignored": 5019,
      "Ġcaptain": 5020,
      "Ġburied": 5021,
      "ĠSnowy": 5022,
      "Ġearthquake": 5023,
      "Ġwisdom": 5024,
      "Ġtraffic": 5025,
      "illie": 5026,
      "Ġstate": 5027,
      "Ġtug": 5028,
      "ux": 5029,
      "Ġtremble": 5030,
      "Ġmarriage": 5031,
      "Ġallow": 5032,
      "Ġseeing": 5033,
      "sed": 5034,
      "With": 5035,
      "Ġlemonade": 5036,
      "isty": 5037,
      "Ġpitch": 5038,
      "Le": 5039,
      "ĠEl": 5040,
      "Ġrecorded": 5041,
      "Ġwhistled": 5042,
      "Jenny": 5043,
      "ores": 5044,
      "Fred": 5045,
      "Ġfloated": 5046,
      "Ġstrike": 5047,
      "Ġmailman": 5048,
      "Ġracing": 5049,
      "Ġhopes": 5050,
      "Ġbeans": 5051,
      "Ġimagination": 5052,
      "Ġshopkeeper": 5053,
      "Ġpedal": 5054,
      "Ġbur": 5055,
      "Ġbackpack": 5056,
      "Ġlemons": 5057,
      "oral": 5058,
      "Ġyucky": 5059,
      "Ġworth": 5060,
      "Ġimage": 5061,
      "ĠWednesday": 5062,
      "ities": 5063,
      "ept": 5064,
      "Ġslap": 5065,
      "Ġclosely": 5066,
      "Welcome": 5067,
      "look": 5068,
      "right": 5069,
      "emember": 5070,
      "Ġdifference": 5071,
      "Ġrecognize": 5072,
      "Ġheel": 5073,
      "ittens": 5074,
      "Ġ197": 5075,
      "Ġstyle": 5076,
      "uly": 5077,
      "cl": 5078,
      "Ġmama": 5079,
      "Ġcandles": 5080,
      "ĠLucky": 5081,
      "ecture": 5082,
      "pted": 5083,
      "ĠHarry": 5084,
      "orted": 5085,
      "Ġ198": 5086,
      "Ġfolded": 5087,
      "Not": 5088,
      "Ġdressed": 5089,
      "Ġcomf": 5090,
      "Ġteaching": 5091,
      "Ġwags": 5092,
      "Ġwashing": 5093,
      "Ġfallen": 5094,
      "ĠFinn": 5095,
      "Ġagre": 5096,
      ".'": 5097,
      "ĠFinny": 5098,
      "the": 5099,
      "Ġingredients": 5100,
      "Ġpulling": 5101,
      "ĠElly": 5102,
      "Ġwhisper": 5103,
      "Ġencourage": 5104,
      "Ġble": 5105,
      "ĠSte": 5106,
      "ational": 5107,
      "ĠHenry": 5108,
      "Ġraised": 5109,
      "Ġ196": 5110,
      "Ġwest": 5111,
      "Ġideas": 5112,
      "ĠGrace": 5113,
      "Ġeast": 5114,
      "Ġhighest": 5115,
      "medi": 5116,
      "do": 5117,
      "ha": 5118,
      "ĠEng": 5119,
      "Ġexercise": 5120,
      "Ġreceived": 5121,
      "pr": 5122,
      "Ġgrowled": 5123,
      "Ġshouting": 5124,
      "igging": 5125,
      "Mimi": 5126,
      "Ġmemory": 5127,
      "Ġcub": 5128,
      "wh": 5129,
      "orth": 5130,
      "Ġoperation": 5131,
      "Ġmarbles": 5132,
      "Ġcreatures": 5133,
      "ĠWor": 5134,
      "Ġappre": 5135,
      "ĠOwl": 5136,
      "gie": 5137,
      "mm": 5138,
      "Ġquietly": 5139,
      "ĠDr": 5140,
      "ĠDanny": 5141,
      "uary": 5142,
      "Ġzigzag": 5143,
      "Ġma": 5144,
      "Ġdigging": 5145,
      "Ġchewed": 5146,
      "Ġdresses": 5147,
      "Ġstruggle": 5148,
      "Ġneighbour": 5149,
      "Ġbouncy": 5150,
      "ĠRos": 5151,
      "Ġcape": 5152,
      "Ġoh": 5153,
      "Ġfash": 5154,
      "ission": 5155,
      "ĠJames": 5156,
      "Ġdeeper": 5157,
      "ips": 5158,
      "Woof": 5159,
      "Ġgifts": 5160,
      "Ġann": 5161,
      "Ġvict": 5162,
      "Ġweb": 5163,
      "Ġstraight": 5164,
      "Ġcrow": 5165,
      "Ġgrocery": 5166,
      "Ġvanished": 5167,
      "iers": 5168,
      "Ġwarning": 5169,
      "Ġpuzzles": 5170,
      "Ġscrat": 5171,
      "ĠCar": 5172,
      "Ġpeanuts": 5173,
      "Ġurge": 5174,
      "Ġplanted": 5175,
      "Ġoxygen": 5176,
      "uby": 5177,
      "ĠFor": 5178,
      "Ġchores": 5179,
      "Ġworms": 5180,
      "Ġunderground": 5181,
      "Ġgolden": 5182,
      "aker": 5183,
      "Ġtwisty": 5184,
      "Ġsnail": 5185,
      "ov": 5186,
      "scape": 5187,
      "Ġtremb": 5188,
      "Ġinvitation": 5189,
      "Ġworse": 5190,
      "ĠPip": 5191,
      "ĠFroggy": 5192,
      "Ġacorns": 5193,
      "avid": 5194,
      "Ġfashion": 5195,
      "uesday": 5196,
      "ĠWhenever": 5197,
      "Ġlecture": 5198,
      "Ġbreathe": 5199,
      "Ġmanage": 5200,
      "Ġwelcom": 5201,
      "utter": 5202,
      "looking": 5203,
      "ĠTilly": 5204,
      "Ġform": 5205,
      "Ġcounter": 5206,
      "Ġpaused": 5207,
      "Ġfed": 5208,
      "Ġeff": 5209,
      "Ġreceive": 5210,
      "Ġjazz": 5211,
      "ĠSqueaky": 5212,
      "ifi": 5213,
      "vern": 5214,
      "ops": 5215,
      "ĠJan": 5216,
      "Ġaccepted": 5217,
      "ĠJoey": 5218,
      "etch": 5219,
      "oves": 5220,
      "Ġeagerly": 5221,
      "Ġwinner": 5222,
      "mediately": 5223,
      "bing": 5224,
      "Ġsolved": 5225,
      "Ġdried": 5226,
      "Ġhurting": 5227,
      "Ġappreci": 5228,
      "Everyone": 5229,
      "ĠMittens": 5230,
      "ĠCharlie": 5231,
      "Ġbones": 5232,
      "Ġsailing": 5233,
      "terday": 5234,
      "ĠPenny": 5235,
      "ases": 5236,
      "ored": 5237,
      "Ġlicks": 5238,
      "ĠSophie": 5239,
      "Ġsizes": 5240,
      "chie": 5241,
      "ĠSharing": 5242,
      "ippy": 5243,
      "Because": 5244,
      "Ġelephants": 5245,
      "ĠTuesday": 5246,
      "Ġlandscape": 5247,
      "Ġsnuggled": 5248,
      "va": 5249,
      "Ġty": 5250,
      "vers": 5251,
      "Ġsprink": 5252,
      "Ġmice": 5253,
      "Ġbegin": 5254,
      "Ġreaches": 5255,
      "Ġcomm": 5256,
      "Ġarea": 5257,
      "ĠCoco": 5258,
      "ĠBounce": 5259,
      "ĠStar": 5260,
      "Ġdestroyed": 5261,
      "omed": 5262,
      "ipping": 5263,
      "Ġsimple": 5264,
      "ucked": 5265,
      "ĠSmith": 5266,
      "Ġbalan": 5267,
      "Ġkisses": 5268,
      "Ġtong": 5269,
      "raged": 5270,
      "Ġseats": 5271,
      "aped": 5272,
      "Ġforgotten": 5273,
      "Ġshined": 5274,
      "Ġbricks": 5275,
      "ĠSc": 5276,
      "ĠEverything": 5277,
      "ĠZara": 5278,
      "Ġfro": 5279,
      "These": 5280,
      "ĠThese": 5281,
      "Ġbrings": 5282,
      "Ġsorts": 5283,
      "Ġemer": 5284,
      "Ġsigns": 5285,
      "ĠBo": 5286,
      "Ġcelebrated": 5287,
      "Ġhadn": 5288,
      "unately": 5289,
      "Ġgazed": 5290,
      "Ġrang": 5291,
      "iggly": 5292,
      "Ġfireworks": 5293,
      "Ġvel": 5294,
      "Ġkingdom": 5295,
      "ĠAnnie": 5296,
      "Ġgloves": 5297,
      "Ġwob": 5298,
      "ĠMag": 5299,
      "Ġhits": 5300,
      "Bl": 5301,
      "ics": 5302,
      "Bella": 5303,
      "Ġtomatoes": 5304,
      "Ġflap": 5305,
      "Ġexit": 5306,
      "Ġwandered": 5307,
      "ĠChrist": 5308,
      "but": 5309,
      ").": 5310,
      "Ġhers": 5311,
      "Ġmuddy": 5312,
      "aded": 5313,
      "Ġfamil": 5314,
      "Today": 5315,
      "Ġtrave": 5316,
      "Ġbeha": 5317,
      "ups": 5318,
      "ĠMaria": 5319,
      "Ġblink": 5320,
      "lish": 5321,
      "ccer": 5322,
      "sters": 5323,
      "Ġscattered": 5324,
      "Ġple": 5325,
      "Ġwagging": 5326,
      "Ġunited": 5327,
      "ĠEventually": 5328,
      "Ġcakes": 5329,
      "Ġdisagree": 5330,
      "Ġthird": 5331,
      "Ġmemories": 5332,
      "Remy": 5333,
      "kins": 5334,
      "Ġlux": 5335,
      "Ġpillows": 5336,
      "Ġpetals": 5337,
      "Ġvelvet": 5338,
      "ues": 5339,
      "ĠPl": 5340,
      "Ġago": 5341,
      "Ġwatered": 5342,
      "Ġcatching": 5343,
      "Ġsits": 5344,
      "Ġprinter": 5345,
      "Ġvanish": 5346,
      "Ġtreasures": 5347,
      "ĠPinky": 5348,
      "Ġopin": 5349,
      "Ġpinched": 5350,
      "ertain": 5351,
      "ĠEach": 5352,
      "ĠPapa": 5353,
      "20": 5354,
      "ishing": 5355,
      "Ġsoccer": 5356,
      "Ġisn": 5357,
      "Ġeasier": 5358,
      "anny": 5359,
      "Ġlung": 5360,
      "ĠCon": 5361,
      "Ġsingle": 5362,
      "Ġsnapped": 5363,
      "Ġremained": 5364,
      "Ġdared": 5365,
      "Ġnone": 5366,
      "Surpr": 5367,
      "Ġscolded": 5368,
      "Ġlaid": 5369,
      "Ġoranges": 5370,
      "ĠBluey": 5371,
      "Ġcirc": 5372,
      "Ġcutting": 5373,
      "ĠFifi": 5374,
      "Ġruin": 5375,
      "vin": 5376,
      "ĠBefore": 5377,
      "Ġpears": 5378,
      "ĠTony": 5379,
      "Ġbleed": 5380,
      "Ġskills": 5381,
      "Ġprints": 5382,
      "Ġsett": 5383,
      "Ġexperience": 5384,
      "Ġsliding": 5385,
      "Ġattached": 5386,
      "Ġvisited": 5387,
      "Ġpies": 5388,
      "sing": 5389,
      "Ġpra": 5390,
      "Ġinstr": 5391,
      "Ġsurround": 5392,
      "Ġsoldiers": 5393,
      "ĠNot": 5394,
      "Ġimmediately": 5395,
      "Ġcollected": 5396,
      "Ġzipped": 5397,
      "Ġocc": 5398,
      "Ġclimbs": 5399,
      "Ġbang": 5400,
      "Ġbaked": 5401,
      "Ġolive": 5402,
      "Ġblankets": 5403,
      "aster": 5404,
      "Ġours": 5405,
      "ĠKe": 5406,
      "Ġnowhere": 5407,
      "Ġeight": 5408,
      "ĠChe": 5409,
      "Ġlips": 5410,
      "Ġtwirled": 5411,
      "ĠWorld": 5412,
      "ĠJe": 5413,
      "ĠBaby": 5414,
      "Ġweeping": 5415,
      "Ġselling": 5416,
      "Ġvoices": 5417,
      "Ġkitty": 5418,
      "Yum": 5419,
      "Ġbites": 5420,
      "Ġgrant": 5421,
      "ales": 5422,
      "Ġunderstanding": 5423,
      "ids": 5424,
      "Ġwaist": 5425,
      "Ġmentioned": 5426,
      "sit": 5427,
      "Ġol": 5428,
      "Ġrequest": 5429,
      "Ġwelcomed": 5430,
      "Ġdrinking": 5431,
      "choo": 5432,
      "Ġsorting": 5433,
      "Ġunlocked": 5434,
      "Ġluxury": 5435,
      "Ġflat": 5436,
      "Ġtongue": 5437,
      "Ġbowed": 5438,
      "Ġshouldn": 5439,
      "oved": 5440,
      "Ġcollection": 5441,
      "Ġspoons": 5442,
      "ĠSpark": 5443,
      "Ġzero": 5444,
      "Ġstitch": 5445,
      "ments": 5446,
      "cted": 5447,
      "ĠAm": 5448,
      "ague": 5449,
      "ety": 5450,
      "Ġurged": 5451,
      "Ġrul": 5452,
      "Ġjogging": 5453,
      "Ġfloating": 5454,
      "19": 5455,
      "Ġmuscles": 5456,
      "ĠLiz": 5457,
      "Surprise": 5458,
      "Ġguessed": 5459,
      "Ġgrin": 5460,
      "Ġsinger": 5461,
      "Ġvictory": 5462,
      "Ġacted": 5463,
      "ĠIts": 5464,
      "Ġgirls": 5465,
      "Ġlocated": 5466,
      "Ġmeasured": 5467,
      "ĠWar": 5468,
      "ĠKate": 5469,
      "Ġperfectly": 5470,
      "Ġmarching": 5471,
      "ĠFirst": 5472,
      "Ġstro": 5473,
      "Ġbreaking": 5474,
      "Ok": 5475,
      "Ġpets": 5476,
      "Ġserved": 5477,
      "Ġsupposed": 5478,
      "ific": 5479,
      "umes": 5480,
      "Ġstuffed": 5481,
      "Moral": 5482,
      "Ġsilence": 5483,
      "Ġtore": 5484,
      "antly": 5485,
      "Ġbeds": 5486,
      "!'": 5487,
      "Ġbye": 5488,
      "Ġpunished": 5489,
      "ys": 5490,
      "Ġ7": 5491,
      "Ġhurried": 5492,
      "ĠYes": 5493,
      "Ġlines": 5494,
      "ĠJul": 5495,
      "Ġtonight": 5496,
      "Ġprinted": 5497,
      "ĠSandy": 5498,
      "Ġturning": 5499,
      "Ġtoes": 5500,
      "isten": 5501,
      "Ġkicking": 5502,
      "ĠWiggly": 5503,
      "ĠRosie": 5504,
      "Ġcras": 5505,
      "Ġmelted": 5506,
      "uture": 5507,
      "Ġpresents": 5508,
      ",[": 5509,
      "Ġencouraged": 5510,
      "Ġjewels": 5511,
      "Ġolives": 5512,
      "Ġworks": 5513,
      "Ġcontest": 5514,
      "Ġshed": 5515,
      "Ġslice": 5516,
      "Goodbye": 5517,
      "int": 5518,
      "Ġpossible": 5519,
      "Ġlined": 5520,
      "rr": 5521,
      "Ġmouths": 5522,
      "fortunately": 5523,
      "stem": 5524,
      "ler": 5525,
      "Ġpearl": 5526,
      "Ġbeat": 5527,
      "Ġtrapped": 5528,
      "ĠX": 5529,
      "Ġfetch": 5530,
      "Ġ6": 5531,
      "Ġpatterns": 5532,
      "Ġbegged": 5533,
      "omeday": 5534,
      "Ġordered": 5535,
      "Ġbreeze": 5536,
      "Ġstrang": 5537,
      "Ġofficer": 5538,
      "Ġbrus": 5539,
      "ĠJune": 5540,
      "Ġgrey": 5541,
      "Ġpupil": 5542,
      "ĠWally": 5543,
      "ĠAd": 5544,
      "Ġwaffles": 5545,
      "icing": 5546,
      "ana": 5547,
      "Ġpotatoes": 5548,
      "ĠUncle": 5549,
      "Ġshadows": 5550,
      "ative": 5551,
      "Ġdrinks": 5552,
      "Ġsetting": 5553,
      "ding": 5554,
      "Ġmeow": 5555,
      "Ġpeaches": 5556,
      "Ġpermission": 5557,
      "Ġcompany": 5558,
      "its": 5559,
      "ĠOut": 5560,
      "uke": 5561,
      "ĠMillie": 5562,
      "ĠSe": 5563,
      "Ġinvest": 5564,
      "ena": 5565,
      "Meow": 5566,
      "Ġsomeday": 5567,
      "ĠRuby": 5568,
      "Ġtwink": 5569,
      "ĠFollow": 5570,
      "ien": 5571,
      "Dog": 5572,
      "Ġsettled": 5573,
      "Ġfiref": 5574,
      "Ġfuture": 5575,
      "Ġwhose": 5576,
      "ĠDavid": 5577,
      "ĠTuna": 5578,
      "Ġachie": 5579,
      "Ġrelaxed": 5580,
      "achel": 5581,
      "anna": 5582,
      "Ġtext": 5583,
      "Ġfishing": 5584,
      "Ġwhistling": 5585,
      "walk": 5586,
      "Ġfields": 5587,
      "ĠMo": 5588,
      "Ġpaints": 5589,
      "Ġcostumes": 5590,
      "Ġringing": 5591,
      "Ġdef": 5592,
      "arth": 5593,
      "Ġteasing": 5594,
      "Ġsucceeded": 5595,
      "izing": 5596,
      "Ġprec": 5597,
      "bum": 5598,
      "Ġsip": 5599,
      "Ġcolours": 5600,
      "izard": 5601,
      "gency": 5602,
      "Ġresult": 5603,
      "Ġdisagreed": 5604,
      "Ġshock": 5605,
      "Ha": 5606,
      "Ġactor": 5607,
      "Ġwarmth": 5608,
      "Ġinter": 5609,
      "Ġwatches": 5610,
      "Ġmoments": 5611,
      "ays": 5612,
      "Ġlets": 5613,
      "Ġroots": 5614,
      "allen": 5615,
      "Ġskipping": 5616,
      "itish": 5617,
      "Leo": 5618,
      "Ġ10": 5619,
      "irring": 5620,
      "ublic": 5621,
      "Ġsorted": 5622,
      "Ġyouth": 5623,
      "Ġherbs": 5624,
      "Ġburning": 5625,
      "au": 5626,
      "ĠBoth": 5627,
      "ĠPh": 5628,
      "Ġcontro": 5629,
      "Ġbank": 5630,
      "Ġlands": 5631,
      "Ġheaded": 5632,
      "Ġgovern": 5633,
      "Ġinvestig": 5634,
      "Ġadmir": 5635,
      "ĠLove": 5636,
      "osity": 5637,
      "ishes": 5638,
      "Ġbrid": 5639,
      "Ġthreat": 5640,
      "iam": 5641,
      "ords": 5642,
      "Ġsneak": 5643,
      "ĠBoo": 5644,
      "Blue": 5645,
      "Jen": 5646,
      "Ġrested": 5647,
      "Bobby": 5648,
      "Ġtrembling": 5649,
      "Ġstamps": 5650,
      "ĠRocky": 5651,
      "Ġstudied": 5652,
      "Ġstruck": 5653,
      "ĠSky": 5654,
      "Ġbab": 5655,
      "ĠToto": 5656,
      "Ġalbum": 5657,
      "omas": 5658,
      "Ġkneeled": 5659,
      "Ġ17": 5660,
      "Ġcartoons": 5661,
      "Ġsidewalk": 5662,
      "Ġsisters": 5663,
      "Ġspike": 5664,
      "Ġcommon": 5665,
      "Ġlick": 5666,
      "Ġsafety": 5667,
      "Ġmixing": 5668,
      "Ġimportance": 5669,
      "Ġlily": 5670,
      "Ġstrangers": 5671,
      "Ġaff": 5672,
      "Ġladyb": 5673,
      "Ġleader": 5674,
      "Ġmelting": 5675,
      "Ġage": 5676,
      "Ġcrunch": 5677,
      "Ġrespons": 5678,
      "Ġrevealed": 5679,
      "Ġstates": 5680,
      "rs": 5681,
      "Ġdecorations": 5682,
      "fied": 5683,
      "Ġmotion": 5684,
      "Ġtheirs": 5685,
      "Ġopinion": 5686,
      "Ġstirring": 5687,
      "Ġresting": 5688,
      "rench": 5689,
      "ĠSlow": 5690,
      "Ġcones": 5691,
      "ĠSuzy": 5692,
      "Mandy": 5693,
      "Ġev": 5694,
      "Ġescaped": 5695,
      "Really": 5696,
      "Ġstealing": 5697,
      "Un": 5698,
      "ĠFrank": 5699,
      "oss": 5700,
      "Ġwiggle": 5701,
      "Ġtwigs": 5702,
      "boo": 5703,
      "ris": 5704,
      "ĠMat": 5705,
      "Ġchallen": 5706,
      "cept": 5707,
      "ĠKat": 5708,
      "enty": 5709,
      "ĠClara": 5710,
      "Ġwizard": 5711,
      "ËĪ": 5712,
      "Ġbravely": 5713,
      "!\",": 5714,
      "cho": 5715,
      "Ġscreams": 5716,
      "Ġalright": 5717,
      "Ġtouching": 5718,
      "Ġshooting": 5719,
      "stit": 5720,
      "Ġearl": 5721,
      "Ġtucked": 5722,
      "ĠLou": 5723,
      "Ġmister": 5724,
      "Ġbridges": 5725,
      "Ġsuggest": 5726,
      "ĠLater": 5727,
      "Ġseas": 5728,
      "oys": 5729,
      "Andy": 5730,
      "Ġscratched": 5731,
      "Ġbabies": 5732,
      "Ġsore": 5733,
      "ists": 5734,
      "pril": 5735,
      "Ġanswers": 5736,
      "Ġhen": 5737,
      "Ġnails": 5738,
      "Ġripped": 5739,
      "ĠMarch": 5740,
      "Ġplaytime": 5741,
      "Ġcontain": 5742,
      "ĠFe": 5743,
      "Ġkeys": 5744,
      "ĠGreen": 5745,
      "Ġseems": 5746,
      "ĠHop": 5747,
      "Ġopening": 5748,
      "Ġwaits": 5749,
      "Ġmatched": 5750,
      "please": 5751,
      "Ġass": 5752,
      "Peter": 5753,
      "go": 5754,
      "zen": 5755,
      "Ġtexture": 5756,
      "Ġtwin": 5757,
      "Bird": 5758,
      "Would": 5759,
      "Ġkeeps": 5760,
      "though": 5761,
      "Ġemergency": 5762,
      "ĠPepper": 5763,
      "ĠChicky": 5764,
      "Happy": 5765,
      "Sammy": 5766,
      "eptember": 5767,
      "Ġsystem": 5768,
      "Ġseven": 5769,
      "bey": 5770,
      "Ġinvestigate": 5771,
      "ots": 5772,
      "Ġpupp": 5773,
      "Ġamazement": 5774,
      "Ġbroom": 5775,
      "ĠSomeone": 5776,
      "atur": 5777,
      "Ġbringing": 5778,
      "Ġpiles": 5779,
      "ĠLike": 5780,
      "Ġappreciate": 5781,
      "Ġpride": 5782,
      "ĠDid": 5783,
      "Ġitem": 5784,
      "zing": 5785,
      "Ġrepeated": 5786,
      "Ġpartic": 5787,
      "Ġamong": 5788,
      "Ġladybug": 5789,
      "Ġchewing": 5790,
      "Ġwooden": 5791,
      "Ġmuffins": 5792,
      "Ġslapped": 5793,
      "Ġdads": 5794,
      "eed": 5795,
      "ĠOnce": 5796,
      "ĠSeptember": 5797,
      "Ġowned": 5798,
      "Ġruler": 5799,
      "igail": 5800,
      "ĠCom": 5801,
      "Ġloose": 5802,
      "oul": 5803,
      "Boo": 5804,
      "Ġhardly": 5805,
      "ĠSomething": 5806,
      "Ġhated": 5807,
      "Ġmarks": 5808,
      "Ġinch": 5809,
      "Ġfamilies": 5810,
      "gers": 5811,
      "Ġthrill": 5812,
      "Ġsoared": 5813,
      "Ġsparkle": 5814,
      "Ġrecognized": 5815,
      "Ġapproached": 5816,
      "Ella": 5817,
      "Ġsoaked": 5818,
      "Ġhi": 5819,
      "Ġgained": 5820,
      "Ġfoods": 5821,
      "ĠBy": 5822,
      "Ġpowers": 5823,
      "oh": 5824,
      "Ġvet": 5825,
      "Ġacting": 5826,
      "Ġeffort": 5827,
      "Ġflav": 5828,
      "Momo": 5829,
      "'.": 5830,
      "Ġsides": 5831,
      "Ġchar": 5832,
      "Ġcal": 5833,
      "ael": 5834,
      "ĠDino": 5835,
      "fl": 5836,
      "Ġpraised": 5837,
      "ĠApril": 5838,
      "Ġshopping": 5839,
      "Ġkill": 5840,
      "Sp": 5841,
      "ugust": 5842,
      "Ġdownstairs": 5843,
      "Or": 5844,
      "Ġdied": 5845,
      "Ġrides": 5846,
      "Ġneighborhood": 5847,
      "Ġwed": 5848,
      "ĠRay": 5849,
      "ĠIndia": 5850,
      "irts": 5851,
      "Ġstudying": 5852,
      "Ġdinosaurs": 5853,
      "Ġopp": 5854,
      "Ġcurled": 5855,
      "Ah": 5856,
      "ĠOct": 5857,
      "Ġhowever": 5858,
      "Ġprepared": 5859,
      "ĠHope": 5860,
      "ĠHappy": 5861,
      "ĠSw": 5862,
      "Ġglowed": 5863,
      "Ġwink": 5864,
      "Ġspaceship": 5865,
      "Ġscrub": 5866,
      "Ġtrips": 5867,
      "Ġtickle": 5868,
      "ĠZigzag": 5869,
      "Ġeats": 5870,
      "ĠMan": 5871,
      "Ġbeside": 5872,
      "ĠBug": 5873,
      "Ġmain": 5874,
      "band": 5875,
      "Ġbeamed": 5876,
      "Ġquack": 5877,
      "ĠSqu": 5878,
      "Ġgust": 5879,
      "Tw": 5880,
      "Ġremem": 5881,
      "Mmm": 5882,
      "Ġcrawling": 5883,
      "Ġsatis": 5884,
      "aven": 5885,
      "ĠRabbit": 5886,
      "Ġmonsters": 5887,
      "Ġcollecting": 5888,
      "Ġcontrol": 5889,
      "Ġtastes": 5890,
      "ped": 5891,
      "riends": 5892,
      "Cat": 5893,
      "ior": 5894,
      "Ġcor": 5895,
      "Ġagreement": 5896,
      "Ġdisturbed": 5897,
      "Ġleast": 5898,
      "Ġmeasuring": 5899,
      "Ġourselves": 5900,
      "Ġbrushes": 5901,
      "ĠEarth": 5902,
      "ility": 5903,
      "Ġcomple": 5904,
      "Eventually": 5905,
      "Ġbleeding": 5906,
      "Ġexpected": 5907,
      "Ġdeser": 5908,
      "Ġmittens": 5909,
      "ĠEn": 5910,
      "Ġsitu": 5911,
      "ĠSteve": 5912,
      "uzz": 5913,
      "hind": 5914,
      "Ġyesterday": 5915,
      "plash": 5916,
      "Ġnapping": 5917,
      "Ġobey": 5918,
      "Ġwanting": 5919,
      "Ġnoon": 5920,
      "hello": 5921,
      "nie": 5922,
      "Ġcuddled": 5923,
      "Ġphot": 5924,
      "ĠEnglish": 5925,
      "ces": 5926,
      "Ġsprinkles": 5927,
      "Ġwhatever": 5928,
      "Cl": 5929,
      "Have": 5930,
      "Ġfact": 5931,
      "Ġoat": 5932,
      "ober": 5933,
      "Ġdam": 5934,
      "Ġsire": 5935,
      "Jake": 5936,
      "Ġpeel": 5937,
      "Ġremembers": 5938,
      "ĠMad": 5939,
      "irm": 5940,
      "jor": 5941,
      "Ġcertain": 5942,
      "Ġcrunchy": 5943,
      "Ġdep": 5944,
      "Ġweighed": 5945,
      "Ġtallest": 5946,
      "ĠAlways": 5947,
      "Ġest": 5948,
      "Ġ8": 5949,
      "Ġterm": 5950,
      "Ġaccom": 5951,
      "Ġnicer": 5952,
      "Somet": 5953,
      "ently": 5954,
      "Ġearlier": 5955,
      "ĠAnt": 5956,
      "ĠAugust": 5957,
      "Ġamer": 5958,
      "Ġsneaky": 5959,
      "Ġreason": 5960,
      "Ġwonders": 5961,
      "anted": 5962,
      "ners": 5963,
      "Ġscaring": 5964,
      "Ġhesit": 5965,
      "Ġwedding": 5966,
      "Ġdraws": 5967,
      "Ġprecious": 5968,
      "Ġmonth": 5969,
      "Ġgoals": 5970,
      "Ġstrings": 5971,
      "Ġtickets": 5972,
      "Ġ195": 5973,
      "Ġ...": 5974,
      "Ġtit": 5975,
      "Ġrings": 5976,
      "Ġfiremen": 5977,
      "Ġ9": 5978,
      "anta": 5979,
      "Ġcond": 5980,
      "Emily": 5981,
      "mother": 5982,
      "Ġdesp": 5983,
      "Ġfrost": 5984,
      "Ġsecrets": 5985,
      "Ġpoems": 5986,
      "Ġdeath": 5987,
      "ichael": 5988,
      "Ġapologized": 5989,
      "Ġintroduced": 5990,
      "Ġchef": 5991,
      "ĠJuly": 5992,
      "ism": 5993,
      "Ġwound": 5994,
      "Ġtim": 5995,
      "ĠWater": 5996,
      "Ġworker": 5997,
      "Ġswims": 5998,
      "Ġdecides": 5999,
      "ĠLizzy": 6000,
      "First": 6001,
      "xc": 6002,
      "Ġcrashed": 6003,
      "Ġawe": 6004,
      "elvet": 6005,
      "Ġnaps": 6006,
      "ĠBritish": 6007,
      "Ġremoved": 6008,
      "Ġhus": 6009,
      "Ġpause": 6010,
      "Ġwins": 6011,
      "Ġcause": 6012,
      "Ġloving": 6013,
      "Ġsiren": 6014,
      "Ġhappiest": 6015,
      "Ġpoking": 6016,
      "Ġusually": 6017,
      "Ġdecorated": 6018,
      "ades": 6019,
      "ĠStop": 6020,
      "Ġtricked": 6021,
      "ĠOctober": 6022,
      "Ġrather": 6023,
      "Ġkindly": 6024,
      "Ġyelling": 6025,
      "uction": 6026,
      "Ġboom": 6027,
      "ĠPrin": 6028,
      "iders": 6029,
      "Tr": 6030,
      "Ġweeks": 6031,
      "Ġgrinned": 6032,
      "Ġhorns": 6033,
      "off": 6034,
      "Ġknelt": 6035,
      "Ġepisodes": 6036,
      "indy": 6037,
      "Ġseesaw": 6038,
      "ĠSlowly": 6039,
      "Ġdecision": 6040,
      "Ġscooped": 6041,
      "Ġbehaved": 6042,
      "Ġzooming": 6043,
      "Ġpeas": 6044,
      "Ġtalent": 6045,
      "Ġmovies": 6046,
      "Ġspending": 6047,
      "Ġtoss": 6048,
      "unnies": 6049,
      "mas": 6050,
      "ppers": 6051,
      "Ġdoggy": 6052,
      "Ġtrans": 6053,
      "Ġoffic": 6054,
      "ĠSan": 6055,
      "Ġepisode": 6056,
      "Ġfrozen": 6057,
      "ira": 6058,
      "ĠBeep": 6059,
      "Ġrust": 6060,
      "Ġsneaked": 6061,
      "Ġkeeper": 6062,
      "Ġwrites": 6063,
      "cri": 6064,
      "iles": 6065,
      "Remember": 6066,
      "Ġanytime": 6067,
      "Ġslim": 6068,
      "ogo": 6069,
      "Ġpedals": 6070,
      "ada": 6071,
      "Ġrule": 6072,
      "Ġhusband": 6073,
      "Ġcuriosity": 6074,
      "Ollie": 6075,
      "inated": 6076,
      "Ġbunnies": 6077,
      "ĠMon": 6078,
      "Ġconc": 6079,
      "Ġsparkling": 6080,
      "Ġwithin": 6081,
      "ĠAunt": 6082,
      "Ġactually": 6083,
      "aps": 6084,
      "Ġsurrounded": 6085,
      "urry": 6086,
      "Ġrole": 6087,
      "ampion": 6088,
      "Ġtugged": 6089,
      "Ġgoodnight": 6090,
      "ĠThomas": 6091,
      "Ġdirect": 6092,
      "Ġspit": 6093,
      "âĢĶ": 6094,
      "Ġpockets": 6095,
      "ĠRachel": 6096,
      "Ġdeal": 6097,
      "Ġexpress": 6098,
      "Ġdemanded": 6099,
      "Ġboo": 6100,
      "ining": 6101,
      "Ġexact": 6102,
      "Ġdiscovery": 6103,
      "Ġwoof": 6104,
      "Ġnational": 6105,
      "ĠKeep": 6106,
      "Ġstruggled": 6107,
      "Ġchirped": 6108,
      "Ġgaze": 6109,
      "anc": 6110,
      "ĠPo": 6111,
      "rab": 6112,
      "Ġstaying": 6113,
      "Ġresponsible": 6114,
      "mi": 6115,
      "ĠPar": 6116,
      "Ġclaps": 6117,
      "ĠMaggie": 6118,
      "Ġgranted": 6119,
      "affes": 6120,
      "Ġast": 6121,
      "iar": 6122,
      "Ġ2016": 6123,
      "Ġperformed": 6124,
      "rent": 6125,
      "Ġbalancing": 6126,
      "Ġpolished": 6127,
      "Ġparties": 6128,
      "Ġsnowballs": 6129,
      "ably": 6130,
      "iter": 6131,
      "Ġadmiring": 6132,
      "hi": 6133,
      "sol": 6134,
      "Ġgiraffes": 6135,
      "Ġheroes": 6136,
      "ĠSun": 6137,
      "amie": 6138,
      "201": 6139,
      "Ġparticular": 6140,
      "ĠZoe": 6141,
      "Ġhissed": 6142,
      "Ġbeard": 6143,
      "you": 6144,
      "Ġsever": 6145,
      "Ġneither": 6146,
      "Ġbrushed": 6147,
      "Ġfault": 6148,
      "Ġmachines": 6149,
      "Ġmer": 6150,
      "ĠNational": 6151,
      "ĠJoy": 6152,
      "velop": 6153,
      "erman": 6154,
      "Ġroads": 6155,
      "Ġfrosting": 6156,
      "Ġactiv": 6157,
      "ĠVelvet": 6158,
      "Ġbuzzing": 6159,
      "iggy": 6160,
      "ĠCol": 6161,
      "ĠHowever": 6162,
      "Ġcompleted": 6163,
      "omen": 6164,
      "isdom": 6165,
      "Ġsteep": 6166,
      "Ġincluding": 6167,
      "Ġguest": 6168,
      "ĠMa": 6169,
      "Ġrubbing": 6170,
      "Ġbelly": 6171,
      "Ġreply": 6172,
      "eath": 6173,
      "Ġloaded": 6174,
      "jam": 6175,
      "Ġbased": 6176,
      "ustral": 6177,
      "Ġslimy": 6178,
      "Ġfinal": 6179,
      "Ġstripes": 6180,
      "Ġsweeties": 6181,
      "Ġtraveled": 6182,
      "oming": 6183,
      "Ġproject": 6184,
      "Ġbloomed": 6185,
      "Ġcracked": 6186,
      "Ġeagle": 6187,
      "Ġsting": 6188,
      "Ġrocking": 6189,
      "Ġmountains": 6190,
      "Ġprotected": 6191,
      "Ġcomfy": 6192,
      "Ġcrowd": 6193,
      "Ã¢": 6194,
      "Susie": 6195,
      "iving": 6196,
      "Ġstare": 6197,
      "umble": 6198,
      "ĠOl": 6199,
      "Ġcircus": 6200,
      "bie": 6201,
      "Ġbuildings": 6202,
      "Ġfolding": 6203,
      "Ġthrilled": 6204,
      "Ġstruggling": 6205,
      "inda": 6206,
      "Ducky": 6207,
      "stitution": 6208,
      "Ġpaintings": 6209,
      "ounced": 6210,
      "Ġfasc": 6211,
      "Ġcontinue": 6212,
      "Ġpots": 6213,
      "ĠStitch": 6214,
      "Ġpresident": 6215,
      "Ġsunlight": 6216,
      "Ġpebbles": 6217,
      "Ġobserved": 6218,
      "Ġill": 6219,
      "allow": 6220,
      "Ġcatches": 6221,
      "Ġhugging": 6222,
      "Ġsled": 6223,
      "sequ": 6224,
      "Ġindia": 6225,
      "ledge": 6226,
      "Ġzookeeper": 6227,
      "âĤ": 6228,
      "Ġdou": 6229,
      "Thanks": 6230,
      "Ġ15": 6231,
      "Ġbeginning": 6232,
      "ĠWatch": 6233,
      "Ġentire": 6234,
      "ads": 6235,
      "Ġradishes": 6236,
      "Ġcomforted": 6237,
      "Ġseveral": 6238,
      "Ġvent": 6239,
      "Ġspraying": 6240,
      "Ġplanets": 6241,
      "ĠJess": 6242,
      "Ġpetted": 6243,
      "Ġmatching": 6244,
      "Ġribbons": 6245,
      "Ġneighbors": 6246,
      "Ġsmallest": 6247,
      "Ġuses": 6248,
      "Ġhonk": 6249,
      "Sometimes": 6250,
      "Ġargued": 6251,
      "Ġgri": 6252,
      "ĠPippa": 6253,
      "loe": 6254,
      "ĠYork": 6255,
      "Ġgovernment": 6256,
      "ĠJanuary": 6257,
      "Ġapologize": 6258,
      "ba": 6259,
      "ĠBree": 6260,
      "Ġsplashes": 6261,
      "Ġsadness": 6262,
      "Ġmeaning": 6263,
      "aws": 6264,
      "Ġfilmed": 6265,
      "Ġflutter": 6266,
      "Ġwid": 6267,
      "ĠBecause": 6268,
      "Ġpolit": 6269,
      "annah": 6270,
      "Ġrocked": 6271,
      "Ġpassing": 6272,
      "Ġgathering": 6273,
      "Ġbrand": 6274,
      "Qu": 6275,
      "ashed": 6276,
      "ĠRemember": 6277,
      "Yummy": 6278,
      "ĠRich": 6279,
      "Ġdragons": 6280,
      "Ġcrumb": 6281,
      "Ġactions": 6282,
      "ĠMilly": 6283,
      "âĤ¬": 6284,
      "Ġdie": 6285,
      "Ġdiving": 6286,
      "ĠBirdie": 6287,
      "str": 6288,
      "Mag": 6289,
      "Ġdragged": 6290,
      "Ġwondering": 6291,
      "Ġdipped": 6292,
      "Ġlied": 6293,
      "Ġsafer": 6294,
      "Ġchallenge": 6295,
      "During": 6296,
      "Ġargu": 6297,
      "ĠSpring": 6298,
      "Ġchases": 6299,
      "Ġconn": 6300,
      "Ġorganizing": 6301,
      "Ġrip": 6302,
      "Ġsmiley": 6303,
      "lymp": 6304,
      "ĠAbigail": 6305,
      "Ġpurred": 6306,
      "uctions": 6307,
      "Ġtails": 6308,
      "ram": 6309,
      "Ġvillag": 6310,
      "Ġpadd": 6311,
      "aint": 6312,
      "Whiskers": 6313,
      "Ġ16": 6314,
      "Ġcaut": 6315,
      "Ġbottles": 6316,
      "Ġconfl": 6317,
      "Ġpeered": 6318,
      "Ġshoulders": 6319,
      "itted": 6320,
      "Ġclearing": 6321,
      "ĠTwo": 6322,
      "ĠOur": 6323,
      "Ġdrives": 6324,
      "Ġcaused": 6325,
      "ĠQue": 6326,
      "Ġincluded": 6327,
      "Ġpastels": 6328,
      "Ġbeneath": 6329,
      "Ġgrandmother": 6330,
      "Ġbuckets": 6331,
      "ĠBouncy": 6332,
      "Ġsoul": 6333,
      "Ġknowledge": 6334,
      "Ġprof": 6335,
      "Ġshirts": 6336,
      "Ġthou": 6337,
      "Ġcuts": 6338,
      "Ġroaring": 6339,
      "Ġfirm": 6340,
      "ĠRobby": 6341,
      "Ġsausages": 6342,
      "cember": 6343,
      "Ġwhom": 6344,
      "Ġcreation": 6345,
      "Ġwherever": 6346,
      "Ġspiders": 6347,
      "Ġsighs": 6348,
      "Rex": 6349,
      "Ġ13": 6350,
      "Ġsurface": 6351,
      "Ġcrabs": 6352,
      "ĠDare": 6353,
      "Ġheav": 6354,
      "Ġpolishing": 6355,
      "Ġknights": 6356,
      "Mar": 6357,
      "Ġairpl": 6358,
      "ĠBeing": 6359,
      "Ġarguing": 6360,
      "Ġdevelop": 6361,
      "Ġindeed": 6362,
      "Ġpatience": 6363,
      "Ġhour": 6364,
      "ended": 6365,
      "ĠNove": 6366,
      "Ġteaches": 6367,
      "umm": 6368,
      "ĠGogo": 6369,
      ",'": 6370,
      "Ġfears": 6371,
      "Ro": 6372,
      "ĠBeth": 6373,
      "Ġteased": 6374,
      "rey": 6375,
      "Ġ194": 6376,
      "Ġstretching": 6377,
      "Ġbusiness": 6378,
      "Ġ12": 6379,
      "Ġpouring": 6380,
      "Ġwiggled": 6381,
      "vol": 6382,
      "Ġfif": 6383,
      "ĠJones": 6384,
      "Ġlimes": 6385,
      "Ġdusty": 6386,
      "Ġsense": 6387,
      "Ġrefres": 6388,
      "athy": 6389,
      "urope": 6390,
      "ius": 6391,
      "Ġaccompl": 6392,
      "die": 6393,
      "joyed": 6394,
      "Ġmane": 6395,
      "Ġden": 6396,
      "ĠFriends": 6397,
      "Ġpeppers": 6398,
      "ĠNorth": 6399,
      "ĠNovember": 6400,
      "Ġrealize": 6401,
      "Ġspeaking": 6402,
      "sm": 6403,
      "Ġstaring": 6404,
      "Ġdarker": 6405,
      "Ġoverjoyed": 6406,
      "Ġsoaring": 6407,
      "Ġelect": 6408,
      "Ġreplaced": 6409,
      "Ġshivered": 6410,
      "ĠKatie": 6411,
      "iding": 6412,
      "Ġcubes": 6413,
      "Ġtype": 6414,
      "Ġda": 6415,
      "Ġdet": 6416,
      "ĠSplash": 6417,
      "ora": 6418,
      "Ġonwards": 6419,
      "Ġsparkles": 6420,
      "Ġcuddle": 6421,
      "Ġexactly": 6422,
      "Ġguns": 6423,
      "Ġawake": 6424,
      "Ġflags": 6425,
      "ĠMoo": 6426,
      "ĠSk": 6427,
      "ĠOlly": 6428,
      "Ġachieve": 6429,
      "Ġpretends": 6430,
      "ĠUniver": 6431,
      "Ġfilms": 6432,
      "Ġvillagers": 6433,
      "Ġlearns": 6434,
      "Ġquarreling": 6435,
      "Ġdirection": 6436,
      "Ġbecoming": 6437,
      "arter": 6438,
      "usan": 6439,
      "ĠWisdom": 6440,
      "Ġstern": 6441,
      "Johnny": 6442,
      "Ġnine": 6443,
      "Ġarrive": 6444,
      "ĠList": 6445,
      "tiest": 6446,
      "ession": 6447,
      "Ġcrept": 6448,
      "itude": 6449,
      "Ġrefle": 6450,
      "Ġpenguins": 6451,
      "Ġprettiest": 6452,
      "Ġbattle": 6453,
      "Ġthy": 6454,
      "Tiny": 6455,
      "len": 6456,
      "ĠPut": 6457,
      "con": 6458,
      "ĠDecember": 6459,
      "Achoo": 6460,
      "ĠEveryday": 6461,
      "ĠMin": 6462,
      "amb": 6463,
      "bruary": 6464,
      "Ġsigned": 6465,
      "Ġseasons": 6466,
      "Ġdestination": 6467,
      "Ġstole": 6468,
      "ĠHar": 6469,
      "Ġbedtime": 6470,
      "Ġmission": 6471,
      "Ġusual": 6472,
      "Ġvisiting": 6473,
      "ral": 6474,
      "âĢĿ.": 6475,
      "ĠZero": 6476,
      "Luna": 6477,
      "Ġreaching": 6478,
      "ĠMil": 6479,
      "Ġcourt": 6480,
      "ĠWilliam": 6481,
      "ĠLeave": 6482,
      "ĠUp": 6483,
      "Ġbaker": 6484,
      "hern": 6485,
      "Ġshrug": 6486,
      "ĠCr": 6487,
      "ĠGu": 6488,
      "Ġborn": 6489,
      "Ġkites": 6490,
      "ĠFish": 6491,
      "ument": 6492,
      "ĠSouth": 6493,
      "lled": 6494,
      "lowers": 6495,
      "Ġplain": 6496,
      "Ġgotten": 6497,
      "Ġpacking": 6498,
      "Ġvar": 6499,
      "Ġrecording": 6500,
      "Ġsticking": 6501,
      "ÉĻ": 6502,
      "icorn": 6503,
      "Ġblows": 6504,
      "Ġplayroom": 6505,
      "Ġwires": 6506,
      "ĠAva": 6507,
      "Ġwasted": 6508,
      "ĠEd": 6509,
      "iously": 6510,
      "Ġscreaming": 6511,
      "Ġjoking": 6512,
      "undred": 6513,
      "Ġglitter": 6514,
      "Ġapplauded": 6515,
      "Ġbare": 6516,
      "Rob": 6517,
      "Ġhitting": 6518,
      "Ġconflict": 6519,
      "dies": 6520,
      "Ġpencils": 6521,
      "ĠJeff": 6522,
      "Ġcopy": 6523,
      "Ġscrubbed": 6524,
      "Ġproduced": 6525,
      "ody": 6526,
      "no": 6527,
      "ĠGet": 6528,
      "angled": 6529,
      "ĠRobert": 6530,
      "Ġitems": 6531,
      "ians": 6532,
      "ĠBehind": 6533,
      "Uh": 6534,
      "ĠPrincess": 6535,
      "ĠTe": 6536,
      "Ġunf": 6537,
      "Ġexamined": 6538,
      "Ġhealed": 6539,
      "ically": 6540,
      "Ġleading": 6541,
      "laire": 6542,
      "cher": 6543,
      "Ġoutdo": 6544,
      "Ġreminder": 6545,
      "Ġchips": 6546,
      "Ġlower": 6547,
      "ĠLeague": 6548,
      "ivil": 6549,
      "Ġprayer": 6550,
      "Ġsituation": 6551,
      "Ġhelmets": 6552,
      "ults": 6553,
      "Ġinstructions": 6554,
      "Ġforce": 6555,
      "uckily": 6556,
      "Ġfoc": 6557,
      "Ġworkers": 6558,
      "Ġunicorn": 6559,
      "Ġmater": 6560,
      "Ġphotos": 6561,
      "Ab": 6562,
      "Ġtune": 6563,
      "Grandpa": 6564,
      "Ġthro": 6565,
      "zes": 6566,
      "ico": 6567,
      "Ġcharacters": 6568,
      "ĠMichael": 6569,
      "Ġroses": 6570,
      "Ġremote": 6571,
      "Ġ11": 6572,
      "Stay": 6573,
      "Ġdecl": 6574,
      "Ġrefuse": 6575,
      "Ġscales": 6576,
      "Ġsnakes": 6577,
      "Ġmaster": 6578,
      "Ġmasks": 6579,
      "acob": 6580,
      "uzzy": 6581,
      "ĠJon": 6582,
      "Ġtowels": 6583,
      "Ġcurrent": 6584,
      "Ġmajor": 6585,
      "Ġsan": 6586,
      "ĠFebruary": 6587,
      "Ġpromises": 6588,
      "seek": 6589,
      "Ġweren": 6590,
      "ĠCal": 6591,
      "?'": 6592,
      "Watch": 6593,
      "Ġplayers": 6594,
      "Ġlap": 6595,
      "Silly": 6596,
      "uthor": 6597,
      "oke": 6598,
      "Ġfirefight": 6599,
      "ĠChristmas": 6600,
      "Ġvideos": 6601,
      "Ġagrees": 6602,
      "Ġprotecting": 6603,
      "Ġlogs": 6604,
      "Ġbowls": 6605,
      "Ġperched": 6606,
      "Ġsouth": 6607,
      "jamas": 6608,
      "ann": 6609,
      "Ġsob": 6610,
      "Ġdent": 6611,
      "istle": 6612,
      "ĠJulie": 6613,
      "ĠRep": 6614,
      "Ġdesert": 6615,
      "An": 6616,
      "Ġtruly": 6617,
      "Ġcompetition": 6618,
      "uddles": 6619,
      "Ġprovided": 6620,
      "Ġbatteries": 6621,
      "Ġalien": 6622,
      "ĠPres": 6623,
      "Ġimproved": 6624,
      "ĠEle": 6625,
      "Ġactress": 6626,
      "Ġadv": 6627,
      "Ġlollipops": 6628,
      "ooped": 6629,
      "rat": 6630,
      "ĠHippy": 6631,
      "Ġbunch": 6632,
      "Ġpatiently": 6633,
      "ror": 6634,
      "Ġpec": 6635,
      "Ġcous": 6636,
      "ences": 6637,
      "ene": 6638,
      "Ġavo": 6639,
      "For": 6640,
      "Ġcough": 6641,
      "Ġshelves": 6642,
      "Ġpracticing": 6643,
      "Ġcandies": 6644,
      "Exc": 6645,
      "haps": 6646,
      "ĠJosh": 6647,
      "iety": 6648,
      "Ġairplane": 6649,
      "ĠMc": 6650,
      "Ġchirping": 6651,
      "Miss": 6652,
      "Ġyounger": 6653,
      "Benny": 6654,
      "Ġpumpkins": 6655,
      "Ġbeads": 6656,
      "Ġfarther": 6657,
      "Ġpleasure": 6658,
      "eries": 6659,
      "Ġchampion": 6660,
      "Ġparked": 6661,
      "Ġhundred": 6662,
      "Ġpurpose": 6663,
      "Ġtasks": 6664,
      "Ġsweat": 6665,
      "ĠWest": 6666,
      "Ġrequested": 6667,
      "ĠAmerica": 6668,
      "ĠSanta": 6669,
      "Ġnor": 6670,
      "ossible": 6671,
      "rious": 6672,
      "Ġmaterial": 6673,
      "Fo": 6674,
      "elle": 6675,
      "Ġdrums": 6676,
      "ĠIndian": 6677,
      "Ġthroat": 6678,
      "Ġdolphins": 6679,
      "ĠPhil": 6680,
      "Ġmemb": 6681,
      "Ġcurtains": 6682,
      "ĠBop": 6683,
      "Paul": 6684,
      "Ġunp": 6685,
      "cial": 6686,
      "Ġwrist": 6687,
      "Ġmembers": 6688,
      "Bad": 6689,
      "ĠHoot": 6690,
      "Ġlistens": 6691,
      "Ġminer": 6692,
      "Dave": 6693,
      "Ġfaced": 6694,
      "Doggy": 6695,
      "âĤ¬âĢľ": 6696,
      "orman": 6697,
      "000": 6698,
      "Poppy": 6699,
      "Ġrolls": 6700,
      "Ġsatisfied": 6701,
      "Ġfreed": 6702,
      "Ġreluct": 6703,
      "Ġcrumbs": 6704,
      "Time": 6705,
      "ulation": 6706,
      "Ġdar": 6707,
      "Ġcheering": 6708,
      "ĠBye": 6709,
      "form": 6710,
      "ĠWant": 6711,
      "Ġslam": 6712,
      "ĠCatty": 6713,
      "Pete": 6714,
      "ĠWin": 6715,
      "Bunny": 6716,
      "ĠAdam": 6717,
      "rie": 6718,
      "Ġhost": 6719,
      "Ġconsequ": 6720,
      "ĠLion": 6721,
      "Ġ193": 6722,
      "ĠChew": 6723,
      "anish": 6724,
      "ĠBrownie": 6725,
      "Ġdarkness": 6726,
      "ouch": 6727,
      "ayla": 6728,
      "Ġfilling": 6729,
      "zie": 6730,
      "cakes": 6731,
      "ald": 6732,
      "esome": 6733,
      "ĠMouse": 6734,
      "Ġtill": 6735,
      "George": 6736,
      "Ġcomplaining": 6737,
      "val": 6738,
      "Ġcans": 6739,
      "ĠBlink": 6740,
      "enn": 6741,
      "ets": 6742,
      "inkle": 6743,
      "ĠCuddles": 6744,
      "Ġpajamas": 6745,
      "Ġguys": 6746,
      "ĠInt": 6747,
      "Ġtimer": 6748,
      "ĠSad": 6749,
      "anes": 6750,
      "atural": 6751,
      "Ġauthor": 6752,
      "neath": 6753,
      "Ġdoctors": 6754,
      "Run": 6755,
      "Ġpublic": 6756,
      "ĠAbby": 6757,
      "ho": 6758,
      "Mike": 6759,
      "ĠStep": 6760,
      "Ġge": 6761,
      "ĠMel": 6762,
      "ashing": 6763,
      "Ġcloses": 6764,
      "Ġknees": 6765,
      "ĠFrench": 6766,
      "Ġoutdoors": 6767,
      "Ġimpossible": 6768,
      "Ġmisses": 6769,
      "Ġdesigned": 6770,
      "Ġwomen": 6771,
      "Ġpatted": 6772,
      "Ġartist": 6773,
      "ĠEnjoy": 6774,
      "ai": 6775,
      "Ġrainbows": 6776,
      "Ġrescued": 6777,
      "Ġspong": 6778,
      "Ġmuscle": 6779,
      "anging": 6780,
      "Ġhealth": 6781,
      "Ġmiles": 6782,
      "ĠAct": 6783,
      "Ġneighbourhood": 6784,
      "hee": 6785,
      "Ġpoliceman": 6786,
      "Ġrubs": 6787,
      "Ġremembering": 6788,
      "ĠSuper": 6789,
      "Ġbalanced": 6790,
      "eg": 6791,
      "resent": 6792,
      "Chirpy": 6793,
      "ĠSquirrel": 6794,
      "ĠSorry": 6795,
      "Ġsteady": 6796,
      "ogra": 6797,
      "ĠQueen": 6798,
      "Some": 6799,
      "Ġtables": 6800,
      "Ġadding": 6801,
      "Ġburst": 6802,
      "ering": 6803,
      "Lola": 6804,
      "ĠAf": 6805,
      "ĠCup": 6806,
      "Ġbey": 6807,
      "Ġnorth": 6808,
      "ĠBloom": 6809,
      "bly": 6810,
      "ĠDay": 6811,
      "Great": 6812,
      "BC": 6813,
      "ĠCity": 6814,
      "Ġearn": 6815,
      "Ġcust": 6816,
      "Ġrockets": 6817,
      "Ġsupplies": 6818,
      "Ġawesome": 6819,
      "Ġglasses": 6820,
      "ĠAsh": 6821,
      "Ġquacked": 6822,
      "Ġtraded": 6823,
      "Ġfairies": 6824,
      "Ġteams": 6825,
      "Ġaud": 6826,
      "ĠSure": 6827,
      "Ġblooming": 6828,
      "ĠDot": 6829,
      "Ġbeyond": 6830,
      "Ġmarked": 6831,
      "yan": 6832,
      "sa": 6833,
      "ĠAng": 6834,
      "Ġtractor": 6835,
      "Ġ14": 6836,
      "Ġcurly": 6837,
      "ĠWell": 6838,
      "Ġfascinated": 6839,
      "Ġsights": 6840,
      "Ġdelivered": 6841,
      "Ġ&": 6842,
      "Ġdiv": 6843,
      "Ġeveryday": 6844,
      "Ġpastries": 6845,
      "Ġpout": 6846,
      "Ġrisk": 6847,
      "Ġvalued": 6848,
      "che": 6849,
      "Ġsimply": 6850,
      "Ġprog": 6851,
      "rance": 6852,
      "Ġleaning": 6853,
      "Ġconfident": 6854,
      "Henry": 6855,
      "ĠJamie": 6856,
      "yd": 6857,
      "Ġtrad": 6858,
      "Ġdirected": 6859,
      "ĠEngland": 6860,
      "ĠAnne": 6861,
      "apan": 6862,
      "Ġpaddle": 6863,
      "Oops": 6864,
      "oll": 6865,
      "Ġstays": 6866,
      "Ġmatters": 6867,
      "cip": 6868,
      "Ġinviting": 6869,
      "ĠBra": 6870,
      "Ġprett": 6871,
      "Ġreluctantly": 6872,
      "Fine": 6873,
      "Ã©": 6874,
      "Ġteamwork": 6875,
      "Ġthorn": 6876,
      "Ġminerals": 6877,
      "Ġstumble": 6878,
      "Ġhelpers": 6879,
      "Ġchoo": 6880,
      "uel": 6881,
      "ilm": 6882,
      "aled": 6883,
      "Ġdev": 6884,
      "Zoom": 6885,
      "Ġdots": 6886,
      "10": 6887,
      "ĠWelcome": 6888,
      "Ġexcept": 6889,
      "usted": 6890,
      "Ġyourselves": 6891,
      "empt": 6892,
      "Ġornaments": 6893,
      "ca": 6894,
      "ĠAlly": 6895,
      "ĠQuick": 6896,
      "Ġwobbled": 6897,
      "now": 6898,
      "ĠJilly": 6899,
      "Ġcovers": 6900,
      "omy": 6901,
      "Ġstarfish": 6902,
      "Ġoccur": 6903,
      "sty": 6904,
      "ĠLuke": 6905,
      "James": 6906,
      "Ġprettier": 6907,
      "Ġinsist": 6908,
      "Ġheaven": 6909,
      "Ġsilent": 6910,
      "ĠII": 6911,
      "Ġpointy": 6912,
      "ĠEliz": 6913,
      "yes": 6914,
      "alth": 6915,
      "eah": 6916,
      "kelly": 6917,
      "Our": 6918,
      "ĠGerman": 6919,
      "Ġinsects": 6920,
      "Ġdescri": 6921,
      "ĠChloe": 6922,
      "araway": 6923,
      "Ġproper": 6924,
      "Ġcustom": 6925,
      "ĠSusan": 6926,
      "Ġcentury": 6927,
      "ĠCount": 6928,
      "Ġaction": 6929,
      "Ġaddress": 6930,
      "een": 6931,
      "ĠOnly": 6932,
      "Ġfaraway": 6933,
      "Ġcompletely": 6934,
      "Ġtwice": 6935,
      "ĠStay": 6936,
      "ĠBall": 6937,
      "Ġwears": 6938,
      "Hold": 6939,
      "Ġforks": 6940,
      "lings": 6941,
      "Ġstem": 6942,
      "Ġsnowmen": 6943,
      "Ġcells": 6944,
      "ances": 6945,
      "ĠGreat": 6946,
      "coon": 6947,
      "Ġloading": 6948,
      "ka": 6949,
      "ĠNe": 6950,
      "Ġsponge": 6951,
      "ham": 6952,
      "erm": 6953,
      "Ġwinked": 6954,
      "Ġnoses": 6955,
      "Ġsobbed": 6956,
      "ĠFoxy": 6957,
      "Ġswooped": 6958,
      "Ġpans": 6959,
      "Ġsneezing": 6960,
      "iforn": 6961,
      "Ġunderneath": 6962,
      "ĠĠĊ": 6963,
      "Ġestab": 6964,
      "using": 6965,
      "Ġsquares": 6966,
      "Ġcott": 6967,
      "Ġwhether": 6968,
      "ĠPark": 6969,
      "Ġguy": 6970,
      "ĠPlay": 6971,
      "Ġevil": 6972,
      "ĠDuck": 6973,
      "Ġtemper": 6974,
      "Ġsuffering": 6975,
      "oline": 6976,
      "ĠKids": 6977,
      "Ġgroups": 6978,
      "Ġgrowling": 6979,
      "reg": 6980,
      "agull": 6981,
      "Ġcreating": 6982,
      "Ġsuperheroes": 6983,
      "ĠAustral": 6984,
      "Ġreads": 6985,
      "pen": 6986,
      "ĠNothing": 6987,
      "Ġwindy": 6988,
      "Ġkicks": 6989,
      "Polly": 6990,
      "lle": 6991,
      "ĠUniversity": 6992,
      "ĠEurope": 6993,
      "ido": 6994,
      "Ġhomework": 6995,
      "Ġstartled": 6996,
      "Ġlosing": 6997,
      "awn": 6998,
      "Those": 6999,
      "Ġlibrarian": 7000,
      "ifornia": 7001,
      "bt": 7002,
      "Ġbodies": 7003,
      "Mrs": 7004,
      "att": 7005,
      "Ġropes": 7006,
      "ĠPresident": 7007,
      "Ġgems": 7008,
      "Ġprincesses": 7009,
      "Ġsmarter": 7010,
      "ĠDizzy": 7011,
      "...\"": 7012,
      "Joey": 7013,
      "Ġscarves": 7014,
      "ËĲ": 7015,
      "Ġjackets": 7016,
      "ĠMix": 7017,
      "True": 7018,
      "Ġgreet": 7019,
      "what": 7020,
      "omb": 7021,
      "Ġwarnings": 7022,
      "Ġpaying": 7023,
      "Ġproperly": 7024,
      "Ġbiting": 7025,
      "Days": 7026,
      "Tina": 7027,
      "Ġvers": 7028,
      "Ġuntie": 7029,
      "Ġcomplained": 7030,
      "Ġlongest": 7031,
      "eal": 7032,
      "Ġitchy": 7033,
      "rons": 7034,
      "lor": 7035,
      "rig": 7036,
      "alt": 7037,
      "Ġannounced": 7038,
      "rop": 7039,
      "Ġscored": 7040,
      "rica": 7041,
      "ĠHouse": 7042,
      "umbled": 7043,
      "Ġrelief": 7044,
      "ĠHenny": 7045,
      "Ġimages": 7046,
      "Ġsens": 7047,
      "imon": 7048,
      "ĠThose": 7049,
      "18": 7050,
      "lling": 7051,
      "bert": 7052,
      "aren": 7053,
      "Ġpens": 7054,
      "arch": 7055,
      "Yeah": 7056,
      "Ġperforman": 7057,
      "Ġrestored": 7058,
      "iod": 7059,
      "ĠSkelly": 7060,
      "Ġgiggling": 7061,
      "ĠQuix": 7062,
      "jo": 7063,
      "Ġservice": 7064,
      "Ġwandering": 7065,
      "Ġclowns": 7066,
      "Ġtangled": 7067,
      "Ġseagull": 7068,
      "....": 7069,
      "Ġgeneral": 7070,
      "ĠUnfortunately": 7071,
      "Ġpraying": 7072,
      "Ġmonths": 7073,
      "Ġpubl": 7074,
      "Ġbehav": 7075,
      "Ġcommun": 7076,
      "Ġonions": 7077,
      "Ġexha": 7078,
      "Ġdeserve": 7079,
      "Ġarrows": 7080,
      "Ġtitle": 7081,
      "hel": 7082,
      "ĠTime": 7083,
      "Ġsolution": 7084,
      "Danny": 7085,
      "Toby": 7086,
      "that": 7087,
      "ĠMic": 7088,
      "Ġforehead": 7089,
      "Ġdived": 7090,
      "Ġbuzzed": 7091,
      "ĠIv": 7092,
      "Ġpaddled": 7093,
      "Ġfeast": 7094,
      "ĠQuixote": 7095,
      "ĠSl": 7096,
      "Ġliqu": 7097,
      "Ġbadge": 7098,
      "Ġentrance": 7099,
      "ĠRover": 7100,
      "rest": 7101,
      "Ġinterested": 7102,
      "apt": 7103,
      "ĠEx": 7104,
      "Ew": 7105,
      "Ġkings": 7106,
      "Ġ2015": 7107,
      "Ġwishing": 7108,
      "ĠAg": 7109,
      "Ġrising": 7110,
      "ĠLinda": 7111,
      "ĠLau": 7112,
      "Ġchuck": 7113,
      "Ġknocks": 7114,
      "Ġvowed": 7115,
      "Ġafterwards": 7116,
      "Ġbumpy": 7117,
      "Ġmur": 7118,
      "istory": 7119,
      "Ġpiggy": 7120,
      "ĠDee": 7121,
      "Ġcoup": 7122,
      "ĠJean": 7123,
      "yl": 7124,
      "Ġyells": 7125,
      "Ġlies": 7126,
      "Ġcenter": 7127,
      "iti": 7128,
      "Roar": 7129,
      "aly": 7130,
      "ection": 7131,
      "Ġprocess": 7132,
      "abel": 7133,
      "Grace": 7134,
      "Ġhides": 7135,
      "Ġtickled": 7136,
      "Ġrefreshed": 7137,
      "Annie": 7138,
      "ĠWo": 7139,
      "ĠBetsy": 7140,
      "Ġkilled": 7141,
      "ĠDis": 7142,
      "Ġnapkins": 7143,
      "ĠFire": 7144,
      "Ġbarely": 7145,
      "ĠOh": 7146,
      "Ġconsider": 7147,
      "ĠDodo": 7148,
      "Excuse": 7149,
      "Ġowners": 7150,
      "Shh": 7151,
      "Ġchoices": 7152,
      "tuce": 7153,
      "Ġfiction": 7154,
      "ados": 7155,
      "Ġventured": 7156,
      "gin": 7157,
      "iel": 7158,
      "Ġchat": 7159,
      "Ġstudents": 7160,
      "ĠBat": 7161,
      "Ġsource": 7162,
      "Ġformer": 7163,
      "ording": 7164,
      "Ġguessing": 7165,
      "Ġcheeks": 7166,
      "Ġfever": 7167,
      "Ġlettuce": 7168,
      "Ġraces": 7169,
      "lee": 7170,
      "Ġdances": 7171,
      "Ġannoy": 7172,
      "Maggie": 7173,
      "May": 7174,
      "Ġslower": 7175,
      "Ġexplorers": 7176,
      "Ġdiscovering": 7177,
      "Ġoutf": 7178,
      "ĠWhistle": 7179,
      "Ġwipes": 7180,
      "lets": 7181,
      "Ġflames": 7182,
      "Ġseeker": 7183,
      "Ġcousin": 7184,
      "ĠMoon": 7185,
      "ĠRain": 7186,
      "Ġtipto": 7187,
      "Unfortunately": 7188,
      "ograph": 7189,
      "Ġranger": 7190,
      "Buzz": 7191,
      "eds": 7192,
      "ĠSancho": 7193,
      "Ġfab": 7194,
      "ĠCap": 7195,
      "rov": 7196,
      "Ġfroze": 7197,
      "ĠState": 7198,
      "endy": 7199,
      "ĠQuack": 7200,
      "per": 7201,
      "Ġthoughts": 7202,
      "Ġgrows": 7203,
      "itches": 7204,
      "Ġripe": 7205,
      "Ġmushrooms": 7206,
      "Sophie": 7207,
      "estern": 7208,
      "Ġswords": 7209,
      "Ġjoked": 7210,
      "Ġfabric": 7211,
      "ĠFar": 7212,
      "ĠShow": 7213,
      "Ġarr": 7214,
      "uggles": 7215,
      "ĠMart": 7216,
      "Ġthrown": 7217,
      "ĠLa": 7218,
      "Charlie": 7219,
      "Ġstung": 7220,
      "ĠTree": 7221,
      "Ġtoaster": 7222,
      "Ġbehaving": 7223,
      "Ġtiss": 7224,
      "ĠDara": 7225,
      "Ġmillion": 7226,
      "Ġhearing": 7227,
      "ĠMatt": 7228,
      "ĠFrance": 7229,
      "Pe": 7230,
      "Ġsnat": 7231,
      "Ġstreets": 7232,
      "Ġrainy": 7233,
      "Ġoccas": 7234,
      "ĠWink": 7235,
      "Ġmagnets": 7236,
      "iment": 7237,
      "?\",": 7238,
      "Ġbravery": 7239,
      "onies": 7240,
      "idence": 7241,
      "brush": 7242,
      "ophia": 7243,
      "Ġheavier": 7244,
      "à¤": 7245,
      "Ġthee": 7246,
      "exas": 7247,
      "ĠPaws": 7248,
      "aa": 7249,
      "sey": 7250,
      "Ġuns": 7251,
      "Ġhider": 7252,
      "ĠOther": 7253,
      "Ġoriginally": 7254,
      "Ġbasement": 7255,
      "Ġseparated": 7256,
      "Ġlungs": 7257,
      "Ġconsequences": 7258,
      "ĠClaire": 7259,
      "12": 7260,
      "Listen": 7261,
      "Ġbak": 7262,
      "ference": 7263,
      "Ġplenty": 7264,
      "Ġincreased": 7265,
      "ĠKingdom": 7266,
      "Ġbows": 7267,
      "Ġaccomplish": 7268,
      "Ġformed": 7269,
      "Ġdarling": 7270,
      "Teddy": 7271,
      "ĠJacob": 7272,
      "ĠJenna": 7273,
      "Ġlighter": 7274,
      "Ġscra": 7275,
      "Ġmember": 7276,
      "Ġgears": 7277,
      "Ġvines": 7278,
      "Ġinvent": 7279,
      "ĠHannah": 7280,
      "asy": 7281,
      "Ġswept": 7282,
      "Ġself": 7283,
      "Ġblocking": 7284,
      "ĠChar": 7285,
      "ĠBlack": 7286,
      "Ġtires": 7287,
      "Ġruining": 7288,
      "Ġlifting": 7289,
      "ĠDoctor": 7290,
      "Ġsalty": 7291,
      "Ġeverybody": 7292,
      "Ġscur": 7293,
      "ĠZiggy": 7294,
      "ĠSnuggles": 7295,
      "de": 7296,
      "step": 7297,
      "ĠVal": 7298,
      "Ġjobs": 7299,
      "Ġcobwebs": 7300,
      "Ġchefs": 7301,
      "ĠGoodbye": 7302,
      "Ġ21": 7303,
      "Ġclick": 7304,
      "Ġends": 7305,
      "Alex": 7306,
      "Ġsib": 7307,
      "retch": 7308,
      "ĠRiver": 7309,
      "Ġexhausted": 7310,
      "rink": 7311,
      "Ġalthough": 7312,
      "ĠPet": 7313,
      "itched": 7314,
      "Ġcowb": 7315,
      "Ġhesitated": 7316,
      "Ġties": 7317,
      "line": 7318,
      "Ġscratches": 7319,
      "Ġbacked": 7320,
      "ĠCathy": 7321,
      "Ġavocados": 7322,
      "Ġund": 7323,
      "ongress": 7324,
      "Ġcash": 7325,
      "ĠBuggy": 7326,
      "Ġliquid": 7327,
      "Ġtot": 7328,
      "ified": 7329,
      "However": 7330,
      "ousand": 7331,
      "Ġ25": 7332,
      "Ġtwirling": 7333,
      "ĠOliver": 7334,
      "Ġserv": 7335,
      "Ġactivities": 7336,
      "Ġsomebody": 7337,
      "Ġsewed": 7338,
      "ĠBar": 7339,
      "action": 7340,
      "aver": 7341,
      "isc": 7342,
      "Ġpins": 7343,
      "iece": 7344,
      "Ġamount": 7345,
      "Ġflavor": 7346,
      "ĠLena": 7347,
      "Ġmints": 7348,
      "Ġstolen": 7349,
      "Ġperiod": 7350,
      "well": 7351,
      "Ġperhaps": 7352,
      "ĠTrust": 7353,
      "Ġavoid": 7354,
      "ĠHold": 7355,
      "ĠJay": 7356,
      "Ġlargest": 7357,
      "Ġscurried": 7358,
      "Ġstands": 7359,
      "Tweet": 7360,
      "Ġ.": 7361,
      "reme": 7362,
      "Ġcautiously": 7363,
      "Jerry": 7364,
      "ĠJessie": 7365,
      "ĠRon": 7366,
      "Ġcountries": 7367,
      "ĠComp": 7368,
      "igning": 7369,
      "Ġprinting": 7370,
      "Ġrotting": 7371,
      "Ġleads": 7372,
      "Ġobjects": 7373,
      "Follow": 7374,
      "ĠSec": 7375,
      "Ġinj": 7376,
      "ĠMeg": 7377,
      "ĠCrab": 7378,
      "Ġdrawn": 7379,
      "Ġnecklaces": 7380,
      "boat": 7381,
      "Ġsunflowers": 7382,
      "ĠTra": 7383,
      "Ġsubject": 7384,
      "Ġdrama": 7385,
      "Ġbuying": 7386,
      "Ġtricky": 7387,
      "Ġastron": 7388,
      "ĠLaser": 7389,
      "Ġrainco": 7390,
      "acy": 7391,
      "Ġchanging": 7392,
      "Ġbumps": 7393,
      "Ġeffect": 7394,
      "ĠSkip": 7395,
      "bbie": 7396,
      "Ġneedles": 7397,
      "udge": 7398,
      "Ġperformance": 7399,
      "Ġbars": 7400,
      "ĠChris": 7401,
      "rit": 7402,
      "izzie": 7403,
      "ĠGrumpy": 7404,
      "Ġrepa": 7405,
      "Ġleague": 7406,
      "rrr": 7407,
      "ĠCent": 7408,
      "Ġdentist": 7409,
      "els": 7410,
      "Ġwraps": 7411,
      "Ġsus": 7412,
      "Ġaside": 7413,
      "Ġunpacked": 7414,
      "ĠNana": 7415,
      "Ġbound": 7416,
      "Ġfigured": 7417,
      "ĠTake": 7418,
      "Ġwow": 7419,
      "ancy": 7420,
      "Big": 7421,
      "film": 7422,
      "Beep": 7423,
      "Ġdecorating": 7424,
      "Ġpuppet": 7425,
      "Ġlamb": 7426,
      "ĠGen": 7427,
      "Ġtalks": 7428,
      "for": 7429,
      "Ġtwenty": 7430,
      "ĠListen": 7431,
      "Ġwaiter": 7432,
      "Ġsweets": 7433,
      "Ġ2014": 7434,
      "volution": 7435,
      "isies": 7436,
      "ĠTry": 7437,
      "Ġchief": 7438,
      "ĠEast": 7439,
      "Take": 7440,
      "aming": 7441,
      "Ġfires": 7442,
      "Ġnotes": 7443,
      "Ġsway": 7444,
      "Ġpurr": 7445,
      "Ġnatural": 7446,
      "Ġexamp": 7447,
      "Ġcrackers": 7448,
      "Ġgrowls": 7449,
      "immer": 7450,
      "Ġdeli": 7451,
      "ae": 7452,
      "Ġtriangles": 7453,
      "vest": 7454,
      "season": 7455,
      "ĠPer": 7456,
      "Ġswans": 7457,
      "Harry": 7458,
      "âĢĺ": 7459,
      "Ġdaisies": 7460,
      "Ġcelebration": 7461,
      "FA": 7462,
      "arrow": 7463,
      "ivity": 7464,
      "Ġtapped": 7465,
      "eng": 7466,
      "ammy": 7467,
      "uf": 7468,
      "Ġmeals": 7469,
      "Ġpriv": 7470,
      "Ġtwinkling": 7471,
      "Ġreflection": 7472,
      "uing": 7473,
      "Ġthousand": 7474,
      "bell": 7475,
      "Ġcolored": 7476,
      "ĠFido": 7477,
      "ette": 7478,
      "Ġphil": 7479,
      "Ġgrabbing": 7480,
      "Ġhandful": 7481,
      "ĠJessica": 7482,
      "Ġbakery": 7483,
      "Ġfeeding": 7484,
      "Ġworries": 7485,
      "ending": 7486,
      "ĠMilo": 7487,
      "Ġspreading": 7488,
      "Ġsank": 7489,
      "erate": 7490,
      "Ġstomped": 7491,
      "Ġdetermination": 7492,
      "11": 7493,
      "Ġthud": 7494,
      "Ġrepaired": 7495,
      "Ġcouple": 7496,
      "airy": 7497,
      "Ġpublished": 7498,
      "ĠRolly": 7499,
      "Ġchuckled": 7500,
      "Ġshown": 7501,
      "Ġattack": 7502,
      "ĠCopper": 7503,
      "Ġconvers": 7504,
      "vroom": 7505,
      "Ġstool": 7506,
      "lin": 7507,
      "Ġplanning": 7508,
      "abeth": 7509,
      "antic": 7510,
      "Éª": 7511,
      "Ġwilling": 7512,
      "Ġamerica": 7513,
      "Ġoppos": 7514,
      "Ġver": 7515,
      "lo": 7516,
      "Ġnect": 7517,
      "ĠNick": 7518,
      "Lilly": 7519,
      "erred": 7520,
      "usion": 7521,
      "ĠDes": 7522,
      "Ġnectar": 7523,
      "Ġtissue": 7524,
      "Ġfeature": 7525,
      "Fr": 7526,
      "ĠRyan": 7527,
      "Ġnests": 7528,
      "Ġtunnels": 7529,
      "Ġnecess": 7530,
      "Ġgod": 7531,
      "Ġsewing": 7532,
      ")[": 7533,
      "ĠBirthday": 7534,
      "ĠPrince": 7535,
      "Ġcorre": 7536,
      "Ġcivil": 7537,
      "Ġprison": 7538,
      "Ġposter": 7539,
      "Ġmast": 7540,
      "ĠCara": 7541,
      "ĠHistory": 7542,
      "ĠJapan": 7543,
      "Ġraind": 7544,
      "Ġbackward": 7545,
      "Ġpassports": 7546,
      "ita": 7547,
      "Ġgross": 7548,
      "Ġdropping": 7549,
      "cope": 7550,
      "Ġsuffered": 7551,
      "ĠGold": 7552,
      "itary": 7553,
      "Ġprove": 7554,
      "ization": 7555,
      "Ġtramp": 7556,
      "Ġpecked": 7557,
      "Ġslammed": 7558,
      "Ġforgets": 7559,
      "ĠWithout": 7560,
      "osen": 7561,
      "Ġfigures": 7562,
      "Ġplans": 7563,
      "cover": 7564,
      "Ġlim": 7565,
      "Ġsnatched": 7566,
      "Ġpremi": 7567,
      "ĠBark": 7568,
      "Ġmailed": 7569,
      "Ġhoriz": 7570,
      "Ġfuzzy": 7571,
      "EN": 7572,
      "ĠPup": 7573,
      "Ġcuddly": 7574,
      "Ġshops": 7575,
      "Ġlaying": 7576,
      "Ġpremiered": 7577,
      "Ġbudge": 7578,
      "AR": 7579,
      "wise": 7580,
      "ushing": 7581,
      "Ġfant": 7582,
      "Ġlevel": 7583,
      "Ġsports": 7584,
      "Ġsim": 7585,
      "Ġlaws": 7586,
      "Ġpenn": 7587,
      "Ġdirections": 7588,
      "Ġsiblings": 7589,
      "Ġbaths": 7590,
      "Ġ30": 7591,
      "Ġpeeking": 7592,
      "Ġchop": 7593,
      "Ġcounts": 7594,
      "Ġwiping": 7595,
      "cent": 7596,
      "Ġbuses": 7597,
      "hog": 7598,
      "ality": 7599,
      "Ġestabl": 7600,
      "col": 7601,
      "Ġgenie": 7602,
      "cky": 7603,
      "ager": 7604,
      "Ġpassen": 7605,
      "asty": 7606,
      "Ġchosen": 7607,
      "iggie": 7608,
      "Ġaccount": 7609,
      "Ġcelebrating": 7610,
      "ĠCalifornia": 7611,
      "Ġvehicles": 7612,
      "inal": 7613,
      "maid": 7614,
      "ĠSuzie": 7615,
      "Ġtwinkle": 7616,
      "han": 7617,
      "Ġdamage": 7618,
      "ĠPeanut": 7619,
      "Ġintern": 7620,
      "sel": 7621,
      "Ġspikes": 7622,
      "ĠTwinkle": 7623,
      "Ġversion": 7624,
      "Ġdod": 7625,
      "Ġrepresent": 7626,
      "etty": 7627,
      "Ġbeast": 7628,
      "athan": 7629,
      "Ġ(/": 7630,
      "Ġinsp": 7631,
      "uments": 7632,
      "rog": 7633,
      "Ġguests": 7634,
      "Ġaimed": 7635,
      "ĠSnap": 7636,
      "Ġtouches": 7637,
      "ology": 7638,
      "Ġcrew": 7639,
      "ĠHolly": 7640,
      "fall": 7641,
      "urg": 7642,
      "ĠOlymp": 7643,
      "IN": 7644,
      "Ġhonked": 7645,
      "ĠConstitution": 7646,
      "Ġattempt": 7647,
      "Ġpaths": 7648,
      "Ġfreedom": 7649,
      "Ġsale": 7650,
      "Ġforgetting": 7651,
      "idered": 7652,
      "ĠCle": 7653,
      "Ġastronaut": 7654,
      "Whee": 7655,
      "ps": 7656,
      "iley": 7657,
      "Ġcho": 7658,
      "Ġamerican": 7659,
      "ĠTri": 7660,
      "Ġstain": 7661,
      "inct": 7662,
      "ively": 7663,
      "rian": 7664,
      "Ġprim": 7665,
      "Ġadult": 7666,
      "Ġrotten": 7667,
      "Ġspat": 7668,
      "Ġcamping": 7669,
      "Ġdate": 7670,
      "ille": 7671,
      "Ġshrinking": 7672,
      "river": 7673,
      "bird": 7674,
      "Ġwakes": 7675,
      "Ġdollars": 7676,
      "Ġache": 7677,
      "Ġ22": 7678,
      "Ġkittens": 7679,
      "Ġseconds": 7680,
      "Ġsupported": 7681,
      "weed": 7682,
      "Ġhops": 7683,
      "ĠSpirit": 7684,
      "Ġsup": 7685,
      "oring": 7686,
      "Ġstopping": 7687,
      "Ġprincip": 7688,
      "ondon": 7689,
      "Ġnearly": 7690,
      "Sunny": 7691,
      "ya": 7692,
      "ĠNina": 7693,
      "Ġthroughout": 7694,
      "17": 7695,
      "Ġmes": 7696,
      "Ġchanges": 7697,
      "ĠPu": 7698,
      "ĠGina": 7699,
      "ĠHo": 7700,
      "pecting": 7701,
      "onna": 7702,
      "Ġaudience": 7703,
      "esty": 7704,
      "Ġ$": 7705,
      "Rose": 7706,
      "Ġcoach": 7707,
      "Ġprobably": 7708,
      "ĠMira": 7709,
      "Ġborrowed": 7710,
      "atic": 7711,
      "Ġsquealed": 7712,
      "ĠLarry": 7713,
      "Ġhaw": 7714,
      "upt": 7715,
      "ĠBro": 7716,
      "Ġdancers": 7717,
      "osp": 7718,
      "Ġenv": 7719,
      "Ġtwisting": 7720,
      "Ġhumans": 7721,
      "Ġships": 7722,
      "ights": 7723,
      "over": 7724,
      "Ġdollhouse": 7725,
      "Ġfrowning": 7726,
      "Ġuntied": 7727,
      "ĠRes": 7728,
      "ĠYet": 7729,
      "iven": 7730,
      "rick": 7731,
      "Ġexpression": 7732,
      "Ġcalmed": 7733,
      "Ġpancakes": 7734,
      "Ġlifts": 7735,
      "ĠFrosty": 7736,
      "Sandy": 7737,
      "Ġtrembled": 7738,
      "Ġstroked": 7739,
      "ks": 7740,
      "Ġchampionship": 7741,
      "Ġfaith": 7742,
      "omin": 7743,
      "ĠLord": 7744,
      "Ġexample": 7745,
      "ĠMus": 7746,
      "Ġthus": 7747,
      "Ġneare": 7748,
      "Ġpuppies": 7749,
      "wr": 7750,
      "Ġseaweed": 7751,
      "Ġbracelets": 7752,
      "Ġly": 7753,
      "Ġfamiliar": 7754,
      "Ġcharge": 7755,
      "Ġdot": 7756,
      "Ġstrongest": 7757,
      "ĠYesterday": 7758,
      "ula": 7759,
      "Ġsparks": 7760,
      "Ġdoubt": 7761,
      "ĠTara": 7762,
      "Dan": 7763,
      "Very": 7764,
      "Pipp": 7765,
      "Ġplayhouse": 7766,
      "Ġloops": 7767,
      "Ġrewarded": 7768,
      "Kat": 7769,
      "Millie": 7770,
      "Ġscrews": 7771,
      "Ġpennies": 7772,
      "ĠGreek": 7773,
      ".)": 7774,
      "Pat": 7775,
      "orter": 7776,
      "Ġfourth": 7777,
      "Ġbells": 7778,
      "Ġtemperature": 7779,
      "isions": 7780,
      "rier": 7781,
      "Ġwrapping": 7782,
      "ĠâĢĺ": 7783,
      "Ġecho": 7784,
      "Ġskunk": 7785,
      "ĠPam": 7786,
      "ĠLondon": 7787,
      "Out": 7788,
      "Ġsquish": 7789,
      "angle": 7790,
      "Ġsecure": 7791,
      "Ġ24": 7792,
      "Ġshaped": 7793,
      "Ġrains": 7794,
      "Ġmusical": 7795,
      "Ġblocked": 7796,
      "Ġwept": 7797,
      "Ġfits": 7798,
      "ago": 7799,
      "ĠWhite": 7800,
      "Ġmerry": 7801,
      "Ġfart": 7802,
      "ean": 7803,
      "Ġshoo": 7804,
      "ĠCanada": 7805,
      "ĠJulia": 7806,
      "Luckily": 7807,
      "Ġcapital": 7808,
      "Ġpound": 7809,
      "ĠWoof": 7810,
      "stick": 7811,
      "ĠLuc": 7812,
      "Ġunw": 7813,
      "Ġcountryside": 7814,
      "Ġclues": 7815,
      "Ġachieved": 7816,
      "ĠMother": 7817,
      "Ġfirefly": 7818,
      "ening": 7819,
      "ida": 7820,
      "Ġdebut": 7821,
      "Ġconsidered": 7822,
      "Kate": 7823,
      "alph": 7824,
      "Ġbless": 7825,
      "Ġappl": 7826,
      "Ġrecommended": 7827,
      "Ġwhispers": 7828,
      "Ġrusty": 7829,
      "Ġrivers": 7830,
      "Ġangels": 7831,
      "Ġsending": 7832,
      "ĠAcc": 7833,
      "ĠAlthough": 7834,
      "igers": 7835,
      "obody": 7836,
      "ĠElephant": 7837,
      "imated": 7838,
      "Ġscient": 7839,
      "--": 7840,
      "Under": 7841,
      "Ġhedgehog": 7842,
      "Ke": 7843,
      "ĠFoot": 7844,
      "Ġ26": 7845,
      "Ġregretted": 7846,
      "Ġsurprising": 7847,
      "Ġcorners": 7848,
      "rem": 7849,
      "Ġinform": 7850,
      "Ġproduc": 7851,
      "Ġwarmer": 7852,
      "ounce": 7853,
      "ĠElizabeth": 7854,
      "umbling": 7855,
      "ĠSil": 7856,
      "irgin": 7857,
      "Ġflapping": 7858,
      "Ġimm": 7859,
      "Ġfarthest": 7860,
      "po": 7861,
      "ices": 7862,
      "Ġrobber": 7863,
      "Ġlord": 7864,
      "Ġbelts": 7865,
      "ĠRollie": 7866,
      "Ġtrampoline": 7867,
      "Jump": 7868,
      "Ġturtles": 7869,
      "Ġpresses": 7870,
      "Ġcolder": 7871,
      "while": 7872,
      "elia": 7873,
      "Ġhorizon": 7874,
      "Ġtheme": 7875,
      "rigued": 7876,
      "ĠMor": 7877,
      "Ġpouted": 7878,
      "Ġslips": 7879,
      "uses": 7880,
      "Ġdelivery": 7881,
      "Ġmesmer": 7882,
      "Ġcoop": 7883,
      "Ġsnowfl": 7884,
      "Ġpreparing": 7885,
      "osh": 7886,
      "ĠWil": 7887,
      "ĠLevin": 7888,
      "Ġzebras": 7889,
      "ĠIsland": 7890,
      "Ġstorekeeper": 7891,
      "eve": 7892,
      "ĠKayla": 7893,
      "Ġfellow": 7894,
      "Ġsailors": 7895,
      "Ġmarker": 7896,
      "ĠSimon": 7897,
      "Ġencourag": 7898,
      "Ġfictional": 7899,
      "rops": 7900,
      "Ġfins": 7901,
      "ĠLife": 7902,
      "ĠBiggie": 7903,
      "Ġyelp": 7904,
      "Ġestablished": 7905,
      "Ġcushions": 7906,
      "Ġqueens": 7907,
      "Ġrespond": 7908,
      "ĠUS": 7909,
      "ĠRobo": 7910,
      "Ġglued": 7911,
      "Ġcreations": 7912,
      "ĠPen": 7913,
      "Ġrights": 7914,
      "fted": 7915,
      "Ġdefe": 7916,
      "Ġswimsuit": 7917,
      "Ġnur": 7918,
      "Always": 7919,
      "ĠSophia": 7920,
      "rup": 7921,
      "Ġovercome": 7922,
      "14": 7923,
      "Ġinn": 7924,
      "Ġdrivers": 7925,
      "Ġtiptoed": 7926,
      "Zip": 7927,
      "father": 7928,
      "Ġmate": 7929,
      "Ġflight": 7930,
      "Ġcashier": 7931,
      "ĠTy": 7932,
      "Ġlending": 7933,
      "ĠCow": 7934,
      "Ġgeese": 7935,
      "Ġleng": 7936,
      "urious": 7937,
      "Ġpopulation": 7938,
      "ĠSparky": 7939,
      "Ġhopeful": 7940,
      "ender": 7941,
      "ĠMikey": 7942,
      "ĠCarol": 7943,
      "Ġren": 7944,
      "Ġdistri": 7945,
      "Ġcreativity": 7946,
      "ciety": 7947,
      "Ġanger": 7948,
      "Ġmovement": 7949,
      "Ġ2013": 7950,
      "Ġmagn": 7951,
      "Ġspells": 7952,
      "Ġsymbols": 7953,
      "Ġlanguages": 7954,
      "Milly": 7955,
      "Ġswirl": 7956,
      "ĠOff": 7957,
      "ĠNever": 7958,
      "ĠRoman": 7959,
      "ER": 7960,
      "wood": 7961,
      "ĠApp": 7962,
      "Ġelbow": 7963,
      "Ġcrossing": 7964,
      "ibbit": 7965,
      "itiz": 7966,
      "Ġstudio": 7967,
      "ĠWoo": 7968,
      "ĠSnowman": 7969,
      "Bear": 7970,
      "Ġguide": 7971,
      "Ġinvol": 7972,
      "ĠHigh": 7973,
      "Ġbecomes": 7974,
      "Ġfirmly": 7975,
      "anch": 7976,
      "Ġmanners": 7977,
      "Ġwobbly": 7978,
      "ĠChirp": 7979,
      "Ġsniffs": 7980,
      "Ġconcl": 7981,
      "Bill": 7982,
      "iana": 7983,
      "Ġvanilla": 7984,
      "ighting": 7985,
      "ĠMissy": 7986,
      "15": 7987,
      "ĠThr": 7988,
      "otte": 7989,
      "Ġraincoat": 7990,
      "Ġdeveloped": 7991,
      "otion": 7992,
      "Ġslowed": 7993,
      "Ġpours": 7994,
      "Ġperforming": 7995,
      "Ġflavors": 7996,
      "Ġtossed": 7997,
      "Ġprofession": 7998,
      "Ġforgiving": 7999,
      "Ġgrip": 8000,
      "Ġspins": 8001,
      "ĠEmmy": 8002,
      "Ġ2010": 8003,
      "Which": 8004,
      "Ġlabels": 8005,
      "Ġrecipe": 8006,
      "Ġraccoon": 8007,
      "Ġopposite": 8008,
      "Ġworn": 8009,
      "Ġtran": 8010,
      "Ġabs": 8011,
      "Ġraindrops": 8012,
      "Ġmult": 8013,
      "Ġposit": 8014,
      "ĠTurt": 8015,
      "Ġmoo": 8016,
      "ĠOf": 8017,
      "bbled": 8018,
      "Ġglee": 8019,
      "allowed": 8020,
      "Ġchip": 8021,
      "Ġtying": 8022,
      "Ġdut": 8023,
      "ĠBones": 8024,
      "ĠOld": 8025,
      "Ġportray": 8026,
      "oni": 8027,
      "ddie": 8028,
      "Nina": 8029,
      "Ġsuitcase": 8030,
      "Ġinfl": 8031,
      "gr": 8032,
      "Ġlyric": 8033,
      "Ġpresented": 8034,
      "ulated": 8035,
      "anced": 8036,
      "Ġbackwards": 8037,
      "unched": 8038,
      "ĠWendy": 8039,
      "Ġorders": 8040,
      "Quack": 8041,
      "ston": 8042,
      "ĠBook": 8043,
      "Ġscience": 8044,
      "erson": 8045,
      "Ġswallowed": 8046,
      "ipper": 8047,
      "Ġwarri": 8048,
      "Ġoutfit": 8049,
      "Mine": 8050,
      "sie": 8051,
      "ĠCour": 8052,
      "Ġpops": 8053,
      "Ġtalented": 8054,
      "200": 8055,
      "Ġcuriously": 8056,
      "Ġimagining": 8057,
      "Ġdue": 8058,
      "ĠAfrica": 8059,
      "Ġfailed": 8060,
      "Ġpos": 8061,
      "Ġsurv": 8062,
      "Ġeduc": 8063,
      "Get": 8064,
      "Ġsofter": 8065,
      "ĠLaura": 8066,
      "Ġlength": 8067,
      "13": 8068,
      "Ġmixture": 8069,
      "Ġminds": 8070,
      "ĠSpanish": 8071,
      "Ġappearance": 8072,
      "ĠRudy": 8073,
      "Ġbroad": 8074,
      "Ġhallway": 8075,
      "Car": 8076,
      "Ġpuff": 8077,
      "ĠSleep": 8078,
      "ĠCindy": 8079,
      "Ġdesigns": 8080,
      "Ġdeclared": 8081,
      "like": 8082,
      "Ġwaking": 8083,
      "Ġblown": 8084,
      "ĠIzzy": 8085,
      "ĠMartin": 8086,
      "ona": 8087,
      "Ġtotal": 8088,
      "Ġwidened": 8089,
      "ĠAngel": 8090,
      "Baby": 8091,
      "reet": 8092,
      "Ġwatering": 8093,
      "Ġpupils": 8094,
      "ĠBattle": 8095,
      "Ġprem": 8096,
      "Ġdelivering": 8097,
      "ĠBel": 8098,
      "Ġposition": 8099,
      "Vroom": 8100,
      "child": 8101,
      "Like": 8102,
      "Ġdaring": 8103,
      "orthern": 8104,
      "Ġknots": 8105,
      "Ġofficial": 8106,
      "ingo": 8107,
      "Ġtipped": 8108,
      "Ġrumble": 8109,
      "Ġsailboat": 8110,
      "Ġvarious": 8111,
      "ĠFI": 8112,
      "By": 8113,
      "ĠStella": 8114,
      "Ġsuits": 8115,
      "Ġfederal": 8116,
      "ĠTre": 8117,
      "ints": 8118,
      "Put": 8119,
      "ĠLizzie": 8120,
      "ift": 8121,
      "ulf": 8122,
      "Ġcomposed": 8123,
      "Ġblinking": 8124,
      "Ġhotter": 8125,
      "ĠCharles": 8126,
      "ĠGrand": 8127,
      "ibility": 8128,
      "ashes": 8129,
      "ĠDisney": 8130,
      "ivid": 8131,
      "Ġhandsome": 8132,
      "Ġcommand": 8133,
      "Ġdip": 8134,
      "Ġunsure": 8135,
      "field": 8136,
      "Ġbru": 8137,
      "Ġsprang": 8138,
      "Ġacqu": 8139,
      "Ġmaker": 8140,
      "usty": 8141,
      "Ġconstitution": 8142,
      "Ġgest": 8143,
      "opher": 8144,
      "ĠStretch": 8145,
      "Ġheading": 8146,
      "Ġpigeons": 8147,
      "ĠFuzzy": 8148,
      "ously": 8149,
      "tha": 8150,
      "Ġparticularly": 8151,
      "ummies": 8152,
      "iona": 8153,
      "Ġsqueak": 8154,
      "Lulu": 8155,
      "oey": 8156,
      "Ġtreehouse": 8157,
      "ears": 8158,
      "Ġsweep": 8159,
      "Ġaccomplishment": 8160,
      "Ġconversation": 8161,
      "Ġarmy": 8162,
      "Ġsharks": 8163,
      "Ġtweet": 8164,
      "Ġelectric": 8165,
      "Ġpunishment": 8166,
      "Ġprogram": 8167,
      "Co": 8168,
      "Ellie": 8169,
      "Ġbandages": 8170,
      "icle": 8171,
      "Ġregard": 8172,
      "Ġweekend": 8173,
      "FL": 8174,
      "Ġyum": 8175,
      "ĠAly": 8176,
      "ĠBeaky": 8177,
      "Ġburrow": 8178,
      "Ġdisp": 8179,
      "ibly": 8180,
      "Ġbits": 8181,
      "Clara": 8182,
      "verse": 8183,
      "Ġoccasion": 8184,
      "omic": 8185,
      "Ġroars": 8186,
      "Ġbeloved": 8187,
      "Ġreversed": 8188,
      "Su": 8189,
      "Ġgardener": 8190,
      "Ġencount": 8191
    },
    "merges": [
      [
        "Ġ",
        "t"
      ],
      [
        "h",
        "e"
      ],
      [
        "Ġ",
        "a"
      ],
      [
        "Ġ",
        "s"
      ],
      [
        "Ġ",
        "w"
      ],
      [
        "n",
        "d"
      ],
      [
        "Ġt",
        "he"
      ],
      [
        "e",
        "d"
      ],
      [
        "Ġ",
        "b"
      ],
      [
        "Ġt",
        "o"
      ],
      [
        "Ġa",
        "nd"
      ],
      [
        "Ġ",
        "h"
      ],
      [
        "Ġ",
        "f"
      ],
      [
        "i",
        "n"
      ],
      [
        "Ġ",
        "T"
      ],
      [
        "Ġw",
        "a"
      ],
      [
        "r",
        "e"
      ],
      [
        "i",
        "t"
      ],
      [
        "o",
        "u"
      ],
      [
        "Ġ",
        "l"
      ],
      [
        "Ġ",
        "d"
      ],
      [
        "Ġ",
        "c"
      ],
      [
        "Ġ",
        "p"
      ],
      [
        "a",
        "y"
      ],
      [
        "e",
        "r"
      ],
      [
        "Ġ",
        "m"
      ],
      [
        "Ġwa",
        "s"
      ],
      [
        "o",
        "m"
      ],
      [
        "ĠT",
        "he"
      ],
      [
        "Ġ",
        "he"
      ],
      [
        "i",
        "s"
      ],
      [
        "o",
        "n"
      ],
      [
        "a",
        "r"
      ],
      [
        "Ġ",
        "n"
      ],
      [
        "i",
        "m"
      ],
      [
        "l",
        "l"
      ],
      [
        "Ġs",
        "a"
      ],
      [
        "i",
        "d"
      ],
      [
        "a",
        "t"
      ],
      [
        "Ġh",
        "a"
      ],
      [
        "Ġ",
        "g"
      ],
      [
        "in",
        "g"
      ],
      [
        "Ġ",
        "S"
      ],
      [
        "o",
        "t"
      ],
      [
        "e",
        "n"
      ],
      [
        "a",
        "n"
      ],
      [
        "l",
        "e"
      ],
      [
        "o",
        "r"
      ],
      [
        "e",
        "nd"
      ],
      [
        "o",
        "f"
      ],
      [
        "i",
        "r"
      ],
      [
        "a",
        "m"
      ],
      [
        "e",
        "t"
      ],
      [
        "Ġt",
        "h"
      ],
      [
        "Ġ",
        "H"
      ],
      [
        "Ġ",
        "it"
      ],
      [
        "i",
        "g"
      ],
      [
        "Ġ",
        "in"
      ],
      [
        "ĠThe",
        "y"
      ],
      [
        "i",
        "l"
      ],
      [
        "Ġp",
        "l"
      ],
      [
        "ĠH",
        "e"
      ],
      [
        "o",
        "w"
      ],
      [
        "Ġ",
        "\""
      ],
      [
        "v",
        "er"
      ],
      [
        "r",
        "i"
      ],
      [
        "u",
        "t"
      ],
      [
        "Ġb",
        "e"
      ],
      [
        "Ġ",
        "u"
      ],
      [
        "it",
        "h"
      ],
      [
        "Ġsa",
        "id"
      ],
      [
        "Ġpl",
        "ay"
      ],
      [
        "Ġw",
        "ith"
      ],
      [
        "Ġ",
        "y"
      ],
      [
        "p",
        "p"
      ],
      [
        "Ġd",
        "ay"
      ],
      [
        "O",
        "n"
      ],
      [
        "o",
        "o"
      ],
      [
        "Ġ",
        "r"
      ],
      [
        "k",
        "ed"
      ],
      [
        "c",
        "e"
      ],
      [
        "Ġ",
        "I"
      ],
      [
        "Ġhe",
        "r"
      ],
      [
        "e",
        "x"
      ],
      [
        "l",
        "d"
      ],
      [
        "Ġh",
        "is"
      ],
      [
        "ĠS",
        "he"
      ],
      [
        "e",
        "s"
      ],
      [
        "ĠT",
        "im"
      ],
      [
        "Ġs",
        "t"
      ],
      [
        "c",
        "k"
      ],
      [
        "n",
        "t"
      ],
      [
        "Ġy",
        "ou"
      ],
      [
        "Ġb",
        "ig"
      ],
      [
        "ver",
        "y"
      ],
      [
        "k",
        "e"
      ],
      [
        "s",
        "t"
      ],
      [
        "Ġ",
        "on"
      ],
      [
        "v",
        "e"
      ],
      [
        "u",
        "n"
      ],
      [
        "Ġha",
        "pp"
      ],
      [
        "Ġ",
        "of"
      ],
      [
        "a",
        "ll"
      ],
      [
        "ri",
        "end"
      ],
      [
        "Ġf",
        "riend"
      ],
      [
        "Ġ",
        "L"
      ],
      [
        "il",
        "y"
      ],
      [
        "Ġthe",
        "y"
      ],
      [
        "ex",
        "t"
      ],
      [
        "Ġw",
        "e"
      ],
      [
        "Ġha",
        "d"
      ],
      [
        "Ġn",
        "ot"
      ],
      [
        "of",
        "t"
      ],
      [
        "he",
        "r"
      ],
      [
        "Ġl",
        "i"
      ],
      [
        "Ġu",
        "p"
      ],
      [
        "a",
        "d"
      ],
      [
        "Ġwa",
        "nt"
      ],
      [
        "Ġ",
        "B"
      ],
      [
        "it",
        "t"
      ],
      [
        "Ġ",
        "e"
      ],
      [
        "<",
        "|"
      ],
      [
        "|",
        ">"
      ],
      [
        "end",
        "oft"
      ],
      [
        "endoft",
        "ext"
      ],
      [
        "Ġd",
        "o"
      ],
      [
        "s",
        "e"
      ],
      [
        "en",
        "t"
      ],
      [
        "Ġ",
        "M"
      ],
      [
        "Ġth",
        "at"
      ],
      [
        "Ġhapp",
        "y"
      ],
      [
        "Ġ",
        "very"
      ],
      [
        "'",
        "s"
      ],
      [
        "Ġf",
        "or"
      ],
      [
        "Ġsa",
        "w"
      ],
      [
        "ou",
        "ld"
      ],
      [
        "On",
        "e"
      ],
      [
        "Ġs",
        "h"
      ],
      [
        "Ġm",
        "om"
      ],
      [
        "itt",
        "le"
      ],
      [
        "Ġl",
        "ittle"
      ],
      [
        "c",
        "h"
      ],
      [
        "Ġs",
        "he"
      ],
      [
        "im",
        "e"
      ],
      [
        "Ġ",
        "k"
      ],
      [
        "Ġn",
        "am"
      ],
      [
        "Ġt",
        "ime"
      ],
      [
        "Ġs",
        "o"
      ],
      [
        "ou",
        "nd"
      ],
      [
        ".",
        "\""
      ],
      [
        "Ġthe",
        "re"
      ],
      [
        "Ġnam",
        "ed"
      ],
      [
        "Ġb",
        "o"
      ],
      [
        "Ġs",
        "m"
      ],
      [
        "Ġwe",
        "re"
      ],
      [
        "ou",
        "t"
      ],
      [
        "a",
        "l"
      ],
      [
        "ĠL",
        "ily"
      ],
      [
        "Ġb",
        "ut"
      ],
      [
        "h",
        "t"
      ],
      [
        "Ġwant",
        "ed"
      ],
      [
        "T",
        "he"
      ],
      [
        "v",
        "ed"
      ],
      [
        "Ġfriend",
        "s"
      ],
      [
        "Ġw",
        "h"
      ],
      [
        "Ġn",
        "e"
      ],
      [
        "e",
        "l"
      ],
      [
        "!",
        "\""
      ],
      [
        "ĠT",
        "om"
      ],
      [
        "ir",
        "d"
      ],
      [
        "Ġa",
        "n"
      ],
      [
        "Ġ",
        "is"
      ],
      [
        "Ġb",
        "ird"
      ],
      [
        "om",
        "e"
      ],
      [
        "ĠI",
        "t"
      ],
      [
        "u",
        "g"
      ],
      [
        "Ġto",
        "o"
      ],
      [
        "Ġ",
        "A"
      ],
      [
        "id",
        "e"
      ],
      [
        "Ġw",
        "ent"
      ],
      [
        "Ġhe",
        "l"
      ],
      [
        "Ġa",
        "ll"
      ],
      [
        "On",
        "ce"
      ],
      [
        "t",
        "er"
      ],
      [
        "Ġhel",
        "p"
      ],
      [
        "a",
        "ke"
      ],
      [
        "Ġl",
        "o"
      ],
      [
        "Ġl",
        "oo"
      ],
      [
        "u",
        "e"
      ],
      [
        "r",
        "y"
      ],
      [
        "Ġup",
        "on"
      ],
      [
        "o",
        "re"
      ],
      [
        "Ġa",
        "s"
      ],
      [
        "i",
        "ll"
      ],
      [
        "i",
        "nd"
      ],
      [
        "Ġ",
        "re"
      ],
      [
        "r",
        "a"
      ],
      [
        "Ġa",
        "t"
      ],
      [
        "Ġf",
        "un"
      ],
      [
        "am",
        "e"
      ],
      [
        "g",
        "et"
      ],
      [
        "Ġto",
        "y"
      ],
      [
        "u",
        "r"
      ],
      [
        "Ġd",
        "id"
      ],
      [
        "Ġ",
        "j"
      ],
      [
        "Ġ",
        "o"
      ],
      [
        "Ġs",
        "e"
      ],
      [
        "get",
        "her"
      ],
      [
        "l",
        "y"
      ],
      [
        "i",
        "c"
      ],
      [
        "a",
        "ck"
      ],
      [
        "Ġto",
        "gether"
      ],
      [
        "Ġc",
        "at"
      ],
      [
        "oo",
        "d"
      ],
      [
        "Ġt",
        "re"
      ],
      [
        "t",
        "ed"
      ],
      [
        "Ġc",
        "ould"
      ],
      [
        "Ġc",
        "an"
      ],
      [
        "Ġdo",
        "g"
      ],
      [
        "ar",
        "d"
      ],
      [
        "Ġthe",
        "ir"
      ],
      [
        "e",
        "c"
      ],
      [
        "Ġh",
        "im"
      ],
      [
        "ar",
        "k"
      ],
      [
        "Ġr",
        "o"
      ],
      [
        "ir",
        "l"
      ],
      [
        "Ġplay",
        "ed"
      ],
      [
        "Ġf",
        "r"
      ],
      [
        "Ġa",
        "re"
      ],
      [
        "Ġg",
        "o"
      ],
      [
        "he",
        "n"
      ],
      [
        "Ġb",
        "all"
      ],
      [
        "a",
        "in"
      ],
      [
        "Ġg",
        "irl"
      ],
      [
        "w",
        "ay"
      ],
      [
        "?",
        "\""
      ],
      [
        "he",
        "d"
      ],
      [
        "Ġ",
        "out"
      ],
      [
        "Ġl",
        "e"
      ],
      [
        "u",
        "m"
      ],
      [
        "m",
        "y"
      ],
      [
        "Ġk",
        "n"
      ],
      [
        "Ġthe",
        "m"
      ],
      [
        "'",
        "t"
      ],
      [
        "u",
        "l"
      ],
      [
        "a",
        "x"
      ],
      [
        "Ġsa",
        "d"
      ],
      [
        "Ġha",
        "ve"
      ],
      [
        "ot",
        "her"
      ],
      [
        "Ġm",
        "an"
      ],
      [
        "Ġbo",
        "y"
      ],
      [
        "Ġtre",
        "e"
      ],
      [
        "ou",
        "g"
      ],
      [
        "Ġc",
        "l"
      ],
      [
        "Ġs",
        "p"
      ],
      [
        "Ġloo",
        "ked"
      ],
      [
        "Ġlo",
        "ved"
      ],
      [
        "Ġf",
        "ound"
      ],
      [
        "Ġst",
        "ar"
      ],
      [
        "h",
        "ing"
      ],
      [
        "ĠS",
        "ue"
      ],
      [
        "Ġs",
        "c"
      ],
      [
        "ow",
        "n"
      ],
      [
        "on",
        "e"
      ],
      [
        "Ġb",
        "ack"
      ],
      [
        "Ġm",
        "e"
      ],
      [
        "a",
        "re"
      ],
      [
        "ĠM",
        "ax"
      ],
      [
        "on",
        "g"
      ],
      [
        "ig",
        "ht"
      ],
      [
        "f",
        "ul"
      ],
      [
        "Ġbe",
        "c"
      ],
      [
        "s",
        "ide"
      ],
      [
        "o",
        "p"
      ],
      [
        "Ġ",
        "W"
      ],
      [
        "Ġc",
        "ar"
      ],
      [
        "Ġp",
        "ark"
      ],
      [
        "Ġl",
        "a"
      ],
      [
        "Ġw",
        "ould"
      ],
      [
        "el",
        "t"
      ],
      [
        "Ġ",
        "One"
      ],
      [
        "Ġf",
        "a"
      ],
      [
        "a",
        "g"
      ],
      [
        "e",
        "ll"
      ],
      [
        "Ġli",
        "ked"
      ],
      [
        "Ġli",
        "ke"
      ],
      [
        "r",
        "ound"
      ],
      [
        "Y",
        "ou"
      ],
      [
        "s",
        "s"
      ],
      [
        "Ġf",
        "elt"
      ],
      [
        "Ġse",
        "e"
      ],
      [
        "ĠB",
        "ut"
      ],
      [
        "Ġn",
        "o"
      ],
      [
        "i",
        "ce"
      ],
      [
        "om",
        "et"
      ],
      [
        "Ġas",
        "ked"
      ],
      [
        "Ġne",
        "w"
      ],
      [
        "Ġa",
        "l"
      ],
      [
        "ĠS",
        "am"
      ],
      [
        "ar",
        "ed"
      ],
      [
        "Ġc",
        "ame"
      ],
      [
        "Ġstar",
        "ted"
      ],
      [
        "ĠB",
        "en"
      ],
      [
        "Ġ",
        "other"
      ],
      [
        "ou",
        "se"
      ],
      [
        "oug",
        "ht"
      ],
      [
        "il",
        "ed"
      ],
      [
        "Ġa",
        "g"
      ],
      [
        "Ġm",
        "ake"
      ],
      [
        "Ġs",
        "omet"
      ],
      [
        "Ġg",
        "ood"
      ],
      [
        "Ġb",
        "r"
      ],
      [
        "Ġsm",
        "all"
      ],
      [
        "ad",
        "e"
      ],
      [
        "ing",
        "s"
      ],
      [
        "Ġs",
        "ay"
      ],
      [
        "ri",
        "ed"
      ],
      [
        "o",
        "b"
      ],
      [
        "Ġsm",
        "iled"
      ],
      [
        "Ġ",
        "Ċ"
      ],
      [
        "Ġwh",
        "at"
      ],
      [
        "Ġfr",
        "om"
      ],
      [
        "Ġw",
        "or"
      ],
      [
        "i",
        "a"
      ],
      [
        "p",
        "ot"
      ],
      [
        "Ġ",
        "ex"
      ],
      [
        "t",
        "y"
      ],
      [
        "Ġf",
        "ind"
      ],
      [
        "u",
        "s"
      ],
      [
        "Ġc",
        "o"
      ],
      [
        "Ġa",
        "way"
      ],
      [
        "Ġm",
        "ade"
      ],
      [
        "Ġp",
        "ut"
      ],
      [
        "Ġ",
        "F"
      ],
      [
        "Ġsomet",
        "hing"
      ],
      [
        "Ġth",
        "ought"
      ],
      [
        "en",
        "ed"
      ],
      [
        "Ġh",
        "ome"
      ],
      [
        "Ġ",
        "J"
      ],
      [
        "u",
        "c"
      ],
      [
        "Ġplay",
        "ing"
      ],
      [
        "oo",
        "k"
      ],
      [
        "Ġe",
        "very"
      ],
      [
        "a",
        "ch"
      ],
      [
        "Ġwa",
        "l"
      ],
      [
        "i",
        "e"
      ],
      [
        "ar",
        "n"
      ],
      [
        "i",
        "le"
      ],
      [
        "Ġp",
        "r"
      ],
      [
        "Ġr",
        "an"
      ],
      [
        "ĠS",
        "pot"
      ],
      [
        "i",
        "f"
      ],
      [
        "u",
        "st"
      ],
      [
        "Ġag",
        "ain"
      ],
      [
        "Ġs",
        "ome"
      ],
      [
        "a",
        "s"
      ],
      [
        "u",
        "re"
      ],
      [
        "d",
        "d"
      ],
      [
        "k",
        "ing"
      ],
      [
        "Ġw",
        "hen"
      ],
      [
        "Ġf",
        "l"
      ],
      [
        "Ġla",
        "ug"
      ],
      [
        "a",
        "b"
      ],
      [
        "Ġd",
        "own"
      ],
      [
        "e",
        "p"
      ],
      [
        "Ġm",
        "y"
      ],
      [
        "Ġtoo",
        "k"
      ],
      [
        "Ġw",
        "ill"
      ],
      [
        "n",
        "y"
      ],
      [
        "Ġsc",
        "ared"
      ],
      [
        "Ġ",
        "You"
      ],
      [
        "Ġh",
        "ouse"
      ],
      [
        "i",
        "ck"
      ],
      [
        "Ġle",
        "arn"
      ],
      [
        "Ġwh",
        "o"
      ],
      [
        "Ġtoy",
        "s"
      ],
      [
        "re",
        "t"
      ],
      [
        "Ġyou",
        "r"
      ],
      [
        "Ġc",
        "h"
      ],
      [
        "Ġbo",
        "x"
      ],
      [
        "is",
        "h"
      ],
      [
        "Ġb",
        "l"
      ],
      [
        "Ġth",
        "ings"
      ],
      [
        "Ġa",
        "round"
      ],
      [
        "ou",
        "d"
      ],
      [
        "u",
        "ck"
      ],
      [
        "Ġthe",
        "n"
      ],
      [
        "Ġf",
        "e"
      ],
      [
        "Ġli",
        "ved"
      ],
      [
        "Ġa",
        "b"
      ],
      [
        "Ġs",
        "un"
      ],
      [
        "is",
        "t"
      ],
      [
        "Ġs",
        "w"
      ],
      [
        ",",
        "\""
      ],
      [
        "pp",
        "ed"
      ],
      [
        "an",
        "k"
      ],
      [
        "a",
        "p"
      ],
      [
        "Ġg",
        "et"
      ],
      [
        "ĠM",
        "ia"
      ],
      [
        "Ġ",
        "D"
      ],
      [
        "um",
        "p"
      ],
      [
        "T",
        "h"
      ],
      [
        "uc",
        "y"
      ],
      [
        "T",
        "im"
      ],
      [
        "u",
        "ch"
      ],
      [
        "it",
        "ed"
      ],
      [
        "q",
        "u"
      ],
      [
        "Ġl",
        "ot"
      ],
      [
        "ot",
        "h"
      ],
      [
        "Ġkn",
        "ow"
      ],
      [
        "Ġ",
        "v"
      ],
      [
        "e",
        "w"
      ],
      [
        "Ġt",
        "ried"
      ],
      [
        "Ġg",
        "ot"
      ],
      [
        "a",
        "ve"
      ],
      [
        "Ġsay",
        "s"
      ],
      [
        "Ġin",
        "t"
      ],
      [
        "ou",
        "s"
      ],
      [
        "Ġman",
        "y"
      ],
      [
        "nd",
        "er"
      ],
      [
        "Ġab",
        "out"
      ],
      [
        "Ġan",
        "y"
      ],
      [
        "L",
        "ily"
      ],
      [
        "a",
        "ce"
      ],
      [
        "Ġp",
        "ret"
      ],
      [
        "Ġd",
        "ec"
      ],
      [
        "Ġr",
        "ed"
      ],
      [
        "Ġm",
        "ore"
      ],
      [
        "all",
        "y"
      ],
      [
        "Ġp",
        "o"
      ],
      [
        "is",
        "e"
      ],
      [
        "Ġkn",
        "ew"
      ],
      [
        "u",
        "se"
      ],
      [
        "f",
        "ter"
      ],
      [
        "an",
        "t"
      ],
      [
        "Ġc",
        "are"
      ],
      [
        "i",
        "ve"
      ],
      [
        "Ġp",
        "ic"
      ],
      [
        "er",
        "s"
      ],
      [
        "Ġg",
        "re"
      ],
      [
        "Ġwa",
        "ter"
      ],
      [
        "Ġh",
        "ug"
      ],
      [
        "â",
        "Ģ"
      ],
      [
        "ĠL",
        "ucy"
      ],
      [
        "Ġo",
        "p"
      ],
      [
        "Ġbe",
        "st"
      ],
      [
        "Ġlearn",
        "ed"
      ],
      [
        "Ġu",
        "n"
      ],
      [
        "Ġbec",
        "ame"
      ],
      [
        "a",
        "use"
      ],
      [
        "Ġ",
        "C"
      ],
      [
        "way",
        "s"
      ],
      [
        "f",
        "e"
      ],
      [
        "ur",
        "p"
      ],
      [
        "Ġex",
        "c"
      ],
      [
        "Ġ",
        "E"
      ],
      [
        "Ġint",
        "o"
      ],
      [
        "Ġloo",
        "k"
      ],
      [
        "Ġsh",
        "ow"
      ],
      [
        "Ġout",
        "side"
      ],
      [
        "Ġlaug",
        "hed"
      ],
      [
        "Ġal",
        "ways"
      ],
      [
        "Ġh",
        "o"
      ],
      [
        "it",
        "e"
      ],
      [
        "id",
        "ed"
      ],
      [
        "ĠA",
        "nd"
      ],
      [
        "Ġro",
        "om"
      ],
      [
        "Ġon",
        "e"
      ],
      [
        "Ġbec",
        "ause"
      ],
      [
        "ĠS",
        "o"
      ],
      [
        "ĠB",
        "ob"
      ],
      [
        "Ġp",
        "e"
      ],
      [
        "Ġdec",
        "ided"
      ],
      [
        "i",
        "on"
      ],
      [
        "Ġe",
        "at"
      ],
      [
        "Ġb",
        "oth"
      ],
      [
        "Ġth",
        "is"
      ],
      [
        "Ġj",
        "ump"
      ],
      [
        "u",
        "dd"
      ],
      [
        "ou",
        "r"
      ],
      [
        "Ġ",
        "ke"
      ],
      [
        "ĠM",
        "om"
      ],
      [
        "Ġd",
        "ad"
      ],
      [
        "The",
        "y"
      ],
      [
        "a",
        "k"
      ],
      [
        "Ġm",
        "o"
      ],
      [
        "n",
        "n"
      ],
      [
        "Ġl",
        "ong"
      ],
      [
        "Ġa",
        "m"
      ],
      [
        "Y",
        "es"
      ],
      [
        "Ġfe",
        "el"
      ],
      [
        "Ġfa",
        "st"
      ],
      [
        "Ġr",
        "un"
      ],
      [
        "Ġexc",
        "ited"
      ],
      [
        "Ġn",
        "ice"
      ],
      [
        "T",
        "om"
      ],
      [
        "Ġt",
        "r"
      ],
      [
        "Ġ",
        "or"
      ],
      [
        "u",
        "ll"
      ],
      [
        "Ġto",
        "ld"
      ],
      [
        "Ġs",
        "k"
      ],
      [
        "urp",
        "r"
      ],
      [
        "in",
        "k"
      ],
      [
        "Ġin",
        "side"
      ],
      [
        "r",
        "o"
      ],
      [
        "Ġs",
        "urpr"
      ],
      [
        "Ġh",
        "ow"
      ],
      [
        "Ġpret",
        "ty"
      ],
      [
        "in",
        "y"
      ],
      [
        "Ġs",
        "or"
      ],
      [
        "W",
        "h"
      ],
      [
        "v",
        "en"
      ],
      [
        "a",
        "nd"
      ],
      [
        "Ġs",
        "l"
      ],
      [
        "o",
        "g"
      ],
      [
        "Ġm",
        "uch"
      ],
      [
        "es",
        "s"
      ],
      [
        "ar",
        "a"
      ],
      [
        "Ġe",
        "ach"
      ],
      [
        "Ġg",
        "ra"
      ],
      [
        "Ġg",
        "ave"
      ],
      [
        "Ġro",
        "ck"
      ],
      [
        "Ġth",
        "an"
      ],
      [
        "Ġst",
        "r"
      ],
      [
        "nn",
        "a"
      ],
      [
        "le",
        "w"
      ],
      [
        "g",
        "ed"
      ],
      [
        "im",
        "al"
      ],
      [
        "Ġan",
        "imal"
      ],
      [
        "Ġne",
        "ed"
      ],
      [
        "et",
        "ter"
      ],
      [
        "Ġto",
        "w"
      ],
      [
        "es",
        "t"
      ],
      [
        "Ġu",
        "nder"
      ],
      [
        "B",
        "ut"
[...]
